{
  "version": "1.0",
  "truncation": null,
  "padding": null,
  "added_tokens": [],
  "normalizer": {
    "type": "Sequence",
    "normalizers": [
      {
        "type": "NFD"
      },
      {
        "type": "StripAccents"
      },
      {
        "type": "Strip",
        "strip_left": true,
        "strip_right": true
      },
      {
        "type": "Replace",
        "pattern": {
          "String": "‌"
        },
        "content": " "
      }
    ]
  },
  "pre_tokenizer": {
    "type": "Sequence",
    "pretokenizers": [
      {
        "type": "Whitespace"
      },
      {
        "type": "Digits",
        "individual_digits": true
      }
    ]
  },
  "post_processor": {
    "type": "TemplateProcessing",
    "single": [
      {
        "SpecialToken": {
          "id": "[CLS]",
          "type_id": 0
        }
      },
      {
        "Sequence": {
          "id": "A",
          "type_id": 0
        }
      },
      {
        "SpecialToken": {
          "id": "[SEP]",
          "type_id": 0
        }
      }
    ],
    "pair": [
      {
        "SpecialToken": {
          "id": "[CLS]",
          "type_id": 0
        }
      },
      {
        "Sequence": {
          "id": "A",
          "type_id": 0
        }
      },
      {
        "SpecialToken": {
          "id": "[SEP]",
          "type_id": 0
        }
      },
      {
        "Sequence": {
          "id": "B",
          "type_id": 1
        }
      },
      {
        "SpecialToken": {
          "id": "[SEP]",
          "type_id": 1
        }
      }
    ],
    "special_tokens": {
      "[CLS]": {
        "id": "[CLS]",
        "ids": [
          1
        ],
        "tokens": [
          "[CLS]"
        ]
      },
      "[SEP]": {
        "id": "[SEP]",
        "ids": [
          2
        ],
        "tokens": [
          "[SEP]"
        ]
      }
    }
  },
  "decoder": null,
  "model": {
    "type": "BPE",
    "dropout": null,
    "unk_token": "[UNK]",
    "continuing_subword_prefix": null,
    "end_of_word_suffix": null,
    "fuse_unk": false,
    "byte_fallback": false,
    "ignore_merges": false,
    "vocab": {
      "!": 0,
      "\"": 1,
      "#": 2,
      "$": 3,
      "%": 4,
      "&": 5,
      "'": 6,
      "(": 7,
      ")": 8,
      "*": 9,
      "+": 10,
      ",": 11,
      "-": 12,
      ".": 13,
      "/": 14,
      "0": 15,
      "1": 16,
      "2": 17,
      "3": 18,
      "4": 19,
      "5": 20,
      "6": 21,
      "7": 22,
      "8": 23,
      "9": 24,
      ":": 25,
      ";": 26,
      "<": 27,
      "=": 28,
      ">": 29,
      "?": 30,
      "@": 31,
      "A": 32,
      "B": 33,
      "C": 34,
      "D": 35,
      "E": 36,
      "F": 37,
      "G": 38,
      "H": 39,
      "I": 40,
      "J": 41,
      "K": 42,
      "L": 43,
      "M": 44,
      "N": 45,
      "O": 46,
      "P": 47,
      "Q": 48,
      "R": 49,
      "S": 50,
      "T": 51,
      "U": 52,
      "V": 53,
      "W": 54,
      "X": 55,
      "Y": 56,
      "Z": 57,
      "[": 58,
      "\\": 59,
      "]": 60,
      "^": 61,
      "_": 62,
      "`": 63,
      "a": 64,
      "b": 65,
      "c": 66,
      "d": 67,
      "e": 68,
      "f": 69,
      "g": 70,
      "h": 71,
      "i": 72,
      "j": 73,
      "k": 74,
      "l": 75,
      "m": 76,
      "n": 77,
      "o": 78,
      "p": 79,
      "q": 80,
      "r": 81,
      "s": 82,
      "t": 83,
      "u": 84,
      "v": 85,
      "w": 86,
      "x": 87,
      "y": 88,
      "z": 89,
      "{": 90,
      "|": 91,
      "}": 92,
      "~": 93,
      "¢": 94,
      "¨": 95,
      "©": 96,
      "«": 97,
      "¬": 98,
      "­": 99,
      "°": 100,
      "±": 101,
      "²": 102,
      "³": 103,
      "¹": 104,
      "»": 105,
      "Æ": 106,
      "×": 107,
      "ß": 108,
      "æ": 109,
      "ð": 110,
      "ı": 111,
      "ĸ": 112,
      "ł": 113,
      "ŋ": 114,
      "œ": 115,
      "Ƅ": 116,
      "ƒ": 117,
      "ƨ": 118,
      "ɑ": 119,
      "ɔ": 120,
      "ɕ": 121,
      "ə": 122,
      "ɛ": 123,
      "ɢ": 124,
      "ɦ": 125,
      "ɪ": 126,
      "ɴ": 127,
      "ʀ": 128,
      "ʋ": 129,
      "ʍ": 130,
      "ʏ": 131,
      "ʙ": 132,
      "ʜ": 133,
      "ʝ": 134,
      "ʟ": 135,
      "ʰ": 136,
      "ʳ": 137,
      "ʷ": 138,
      "ʸ": 139,
      "ˈ": 140,
      "˘": 141,
      "˝": 142,
      "ˡ": 143,
      "ˢ": 144,
      "Α": 145,
      "Δ": 146,
      "Θ": 147,
      "Ι": 148,
      "Ο": 149,
      "Σ": 150,
      "α": 151,
      "β": 152,
      "γ": 153,
      "δ": 154,
      "ε": 155,
      "η": 156,
      "ι": 157,
      "κ": 158,
      "λ": 159,
      "μ": 160,
      "ν": 161,
      "ο": 162,
      "π": 163,
      "ρ": 164,
      "ς": 165,
      "σ": 166,
      "τ": 167,
      "υ": 168,
      "φ": 169,
      "χ": 170,
      "ω": 171,
      "Б": 172,
      "В": 173,
      "Д": 174,
      "З": 175,
      "И": 176,
      "К": 177,
      "М": 178,
      "Н": 179,
      "О": 180,
      "П": 181,
      "С": 182,
      "Т": 183,
      "Ц": 184,
      "Я": 185,
      "а": 186,
      "б": 187,
      "в": 188,
      "г": 189,
      "д": 190,
      "е": 191,
      "ж": 192,
      "з": 193,
      "и": 194,
      "к": 195,
      "л": 196,
      "м": 197,
      "н": 198,
      "о": 199,
      "п": 200,
      "р": 201,
      "с": 202,
      "т": 203,
      "у": 204,
      "ф": 205,
      "х": 206,
      "ц": 207,
      "ч": 208,
      "ш": 209,
      "щ": 210,
      "ъ": 211,
      "ы": 212,
      "ь": 213,
      "э": 214,
      "ю": 215,
      "я": 216,
      "є": 217,
      "ѕ": 218,
      "і": 219,
      "ғ": 220,
      "ү": 221,
      "ө": 222,
      "Ք": 223,
      "ա": 224,
      "բ": 225,
      "ե": 226,
      "զ": 227,
      "ի": 228,
      "կ": 229,
      "հ": 230,
      "մ": 231,
      "ն": 232,
      "ո": 233,
      "չ": 234,
      "ս": 235,
      "տ": 236,
      "ց": 237,
      "ւ": 238,
      "נ": 239,
      "؋": 240,
      "،": 241,
      "؛": 242,
      "؟": 243,
      "ء": 244,
      "ا": 245,
      "ب": 246,
      "ة": 247,
      "ت": 248,
      "ث": 249,
      "ج": 250,
      "ح": 251,
      "خ": 252,
      "د": 253,
      "ذ": 254,
      "ر": 255,
      "ز": 256,
      "س": 257,
      "ش": 258,
      "ص": 259,
      "ض": 260,
      "ط": 261,
      "ظ": 262,
      "ع": 263,
      "غ": 264,
      "ـ": 265,
      "ف": 266,
      "ق": 267,
      "ك": 268,
      "ل": 269,
      "م": 270,
      "ن": 271,
      "ه": 272,
      "و": 273,
      "ى": 274,
      "ي": 275,
      "٠": 276,
      "١": 277,
      "٢": 278,
      "٣": 279,
      "٤": 280,
      "٥": 281,
      "٦": 282,
      "٧": 283,
      "٨": 284,
      "٩": 285,
      "٪": 286,
      "٫": 287,
      "٬": 288,
      "٭": 289,
      "ٱ": 290,
      "ٵ": 291,
      "ٶ": 292,
      "ٹ": 293,
      "ٺ": 294,
      "ٻ": 295,
      "ټ": 296,
      "پ": 297,
      "ڂ": 298,
      "ڄ": 299,
      "چ": 300,
      "ڇ": 301,
      "ڈ": 302,
      "ډ": 303,
      "ڊ": 304,
      "ړ": 305,
      "ڔ": 306,
      "ڕ": 307,
      "ږ": 308,
      "ژ": 309,
      "ښ": 310,
      "ڝ": 311,
      "ک": 312,
      "ڪ": 313,
      "ګ": 314,
      "گ": 315,
      "ڰ": 316,
      "ڱ": 317,
      "ڵ": 318,
      "ڶ": 319,
      "ڷ": 320,
      "ڹ": 321,
      "ڼ": 322,
      "ھ": 323,
      "ہ": 324,
      "ۄ": 325,
      "ۅ": 326,
      "ۆ": 327,
      "ۇ": 328,
      "ۈ": 329,
      "ۋ": 330,
      "ی": 331,
      "ۍ": 332,
      "ێ": 333,
      "ۏ": 334,
      "ې": 335,
      "ے": 336,
      "۔": 337,
      "ە": 338,
      "۰": 339,
      "۱": 340,
      "۲": 341,
      "۳": 342,
      "۴": 343,
      "۵": 344,
      "۶": 345,
      "۷": 346,
      "۸": 347,
      "۹": 348,
      "ۺ": 349,
      "۾": 350,
      "ۿ": 351,
      "ܝ": 352,
      "ܠ": 353,
      "ܥ": 354,
      "ܦ": 355,
      "ܩ": 356,
      "ݐ": 357,
      "ݜ": 358,
      "ݦ": 359,
      "ݩ": 360,
      "ތ": 361,
      "ߺ": 362,
      "ࡄ": 363,
      "ࡅ": 364,
      "ࡆ": 365,
      "ࡊ": 366,
      "ࡎ": 367,
      "ࡏ": 368,
      "ࡐ": 369,
      "अ": 370,
      "आ": 371,
      "ई": 372,
      "ए": 373,
      "क": 374,
      "ख": 375,
      "च": 376,
      "छ": 377,
      "ज": 378,
      "झ": 379,
      "त": 380,
      "थ": 381,
      "द": 382,
      "ध": 383,
      "न": 384,
      "प": 385,
      "ब": 386,
      "म": 387,
      "य": 388,
      "र": 389,
      "ल": 390,
      "व": 391,
      "श": 392,
      "स": 393,
      "ह": 394,
      "ঔ": 395,
      "๛": 396,
      "ᄀ": 397,
      "ᄁ": 398,
      "ᄂ": 399,
      "ᄃ": 400,
      "ᄅ": 401,
      "ᄆ": 402,
      "ᄇ": 403,
      "ᄉ": 404,
      "ᄋ": 405,
      "ᄌ": 406,
      "ᄍ": 407,
      "ᄎ": 408,
      "ᄐ": 409,
      "ᄒ": 410,
      "ᅡ": 411,
      "ᅢ": 412,
      "ᅣ": 413,
      "ᅥ": 414,
      "ᅦ": 415,
      "ᅧ": 416,
      "ᅩ": 417,
      "ᅪ": 418,
      "ᅬ": 419,
      "ᅭ": 420,
      "ᅮ": 421,
      "ᅯ": 422,
      "ᅱ": 423,
      "ᅳ": 424,
      "ᅴ": 425,
      "ᅵ": 426,
      "ᆨ": 427,
      "ᆫ": 428,
      "ᆬ": 429,
      "ᆭ": 430,
      "ᆯ": 431,
      "ᆷ": 432,
      "ᆸ": 433,
      "ᆺ": 434,
      "ᆻ": 435,
      "ᆼ": 436,
      "ᆾ": 437,
      "ᇀ": 438,
      "ᇁ": 439,
      "ᇂ": 440,
      "ᐧ": 441,
      "ᐯ": 442,
      "ᑌ": 443,
      "ᑎ": 444,
      "ᑭ": 445,
      "ᒪ": 446,
      "ᕼ": 447,
      "ᖇ": 448,
      "ᗰ": 449,
      "ᴀ": 450,
      "ᴄ": 451,
      "ᴅ": 452,
      "ᴇ": 453,
      "ᴊ": 454,
      "ᴋ": 455,
      "ᴍ": 456,
      "ᴏ": 457,
      "ᴗ": 458,
      "ᴘ": 459,
      "ᴛ": 460,
      "ᴜ": 461,
      "ᴠ": 462,
      "ᴡ": 463,
      "ᴥ": 464,
      "ᵃ": 465,
      "ᵇ": 466,
      "ᵈ": 467,
      "ᵉ": 468,
      "ᵐ": 469,
      "ᵒ": 470,
      "ᵖ": 471,
      "ᵗ": 472,
      "ᵘ": 473,
      "ᶠ": 474,
      "​": 475,
      "‍": 476,
      "‎": 477,
      "‏": 478,
      "–": 479,
      "—": 480,
      "―": 481,
      "‘": 482,
      "’": 483,
      "‚": 484,
      "“": 485,
      "”": 486,
      "†": 487,
      "•": 488,
      "…": 489,
      "′": 490,
      "″": 491,
      "‴": 492,
      "‷": 493,
      "‹": 494,
      "›": 495,
      "‼": 496,
      "⁃": 497,
      "⁉": 498,
      "⁠": 499,
      "⁣": 500,
      "⁦": 501,
      "⁧": 502,
      "⁩": 503,
      "⁪": 504,
      "⁫": 505,
      "⁬": 506,
      "⁭": 507,
      "⁮": 508,
      "⁰": 509,
      "ⁱ": 510,
      "⁴": 511,
      "⁵": 512,
      "⁶": 513,
      "⁷": 514,
      "⁸": 515,
      "⁹": 516,
      "ⁿ": 517,
      "ℓ": 518,
      "™": 519,
      "ℳ": 520,
      "→": 521,
      "↔": 522,
      "↪": 523,
      "↫": 524,
      "↬": 525,
      "⇜": 526,
      "⇤": 527,
      "∂": 528,
      "∆": 529,
      "√": 530,
      "∞": 531,
      "∣": 532,
      "⊰": 533,
      "⋅": 534,
      "⋆": 535,
      "⋯": 536,
      "⌚": 537,
      "⌛": 538,
      "⌝": 539,
      "⌞": 540,
      "⍉": 541,
      "⏤": 542,
      "⏰": 543,
      "⏱": 544,
      "⏳": 545,
      "─": 546,
      "┼": 547,
      "■": 548,
      "▪": 549,
      "▫": 550,
      "▲": 551,
      "△": 552,
      "▶": 553,
      "▸": 554,
      "▼": 555,
      "◁": 556,
      "◂": 557,
      "◃": 558,
      "◇": 559,
      "○": 560,
      "●": 561,
      "◕": 562,
      "◡": 563,
      "◣": 564,
      "◥": 565,
      "◼": 566,
      "◽": 567,
      "◾": 568,
      "☀": 569,
      "☁": 570,
      "☂": 571,
      "☃": 572,
      "☄": 573,
      "☆": 574,
      "☑": 575,
      "☔": 576,
      "☕": 577,
      "☘": 578,
      "☝": 579,
      "☞": 580,
      "☠": 581,
      "☩": 582,
      "☹": 583,
      "☺": 584,
      "☻": 585,
      "♀": 586,
      "♂": 587,
      "♟": 588,
      "♡": 589,
      "♥": 590,
      "♦": 591,
      "♫": 592,
      "♱": 593,
      "♻": 594,
      "♾": 595,
      "⚉": 596,
      "⚓": 597,
      "⚔": 598,
      "⚖": 599,
      "⚜": 600,
      "⚠": 601,
      "⚡": 602,
      "⚢": 603,
      "⚪": 604,
      "⚫": 605,
      "⚰": 606,
      "⚽": 607,
      "⛄": 608,
      "⛅": 609,
      "⛈": 610,
      "⛏": 611,
      "⛑": 612,
      "⛓": 613,
      "⛔": 614,
      "⛰": 615,
      "⛱": 616,
      "⛵": 617,
      "⛸": 618,
      "⛺": 619,
      "✂": 620,
      "✅": 621,
      "✈": 622,
      "✉": 623,
      "✊": 624,
      "✋": 625,
      "✌": 626,
      "✍": 627,
      "✏": 628,
      "✒": 629,
      "✔": 630,
      "✖": 631,
      "✨": 632,
      "✿": 633,
      "❄": 634,
      "❇": 635,
      "❌": 636,
      "❔": 637,
      "❕": 638,
      "❗": 639,
      "❣": 640,
      "❤": 641,
      "❥": 642,
      "➕": 643,
      "➖": 644,
      "➡": 645,
      "➰": 646,
      "➷": 647,
      "⤶": 648,
      "⨺": 649,
      "⬅": 650,
      "⬇": 651,
      "⬛": 652,
      "⭐": 653,
      "⭕": 654,
      "《": 655,
      "》": 656,
      "「": 657,
      "」": 658,
      "『": 659,
      "』": 660,
      "【": 661,
      "】": 662,
      "〰": 663,
      "あ": 664,
      "い": 665,
      "き": 666,
      "し": 667,
      "た": 668,
      "て": 669,
      "な": 670,
      "に": 671,
      "の": 672,
      "は": 673,
      "み": 674,
      "も": 675,
      "ゆ": 676,
      "り": 677,
      "る": 678,
      "わ": 679,
      "中": 680,
      "乙": 681,
      "书": 682,
      "了": 683,
      "亮": 684,
      "人": 685,
      "以": 686,
      "任": 687,
      "会": 688,
      "何": 689,
      "你": 690,
      "到": 691,
      "呆": 692,
      "国": 693,
      "外": 694,
      "子": 695,
      "守": 696,
      "小": 697,
      "愛": 698,
      "我": 699,
      "斐": 700,
      "月": 701,
      "有": 702,
      "本": 703,
      "死": 704,
      "沒": 705,
      "爱": 706,
      "猫": 707,
      "甘": 708,
      "生": 709,
      "甲": 710,
      "発": 711,
      "的": 712,
      "看": 713,
      "私": 714,
      "蒸": 715,
      "虫": 716,
      "誰": 717,
      "除": 718,
      "ꜰ": 719,
      "ꜱ": 720,
      "ꨄ": 721,
      "ﬤ": 722,
      "ﭐ": 723,
      "ﭖ": 724,
      "ﭘ": 725,
      "ﭙ": 726,
      "ﭻ": 727,
      "ﭼ": 728,
      "ﭽ": 729,
      "ﮊ": 730,
      "ﮋ": 731,
      "ﮎ": 732,
      "ﮏ": 733,
      "ﮐ": 734,
      "ﮑ": 735,
      "ﮒ": 736,
      "ﮓ": 737,
      "ﮔ": 738,
      "ﮕ": 739,
      "ﮤ": 740,
      "ﮦ": 741,
      "ﮧ": 742,
      "ﮨ": 743,
      "ﮩ": 744,
      "ﮬ": 745,
      "ﮭ": 746,
      "ﮯ": 747,
      "﮼": 748,
      "ﯼ": 749,
      "ﯽ": 750,
      "ﯾ": 751,
      "ﯿ": 752,
      "︴": 753,
      "ﺀ": 754,
      "ﺁ": 755,
      "ﺂ": 756,
      "ﺃ": 757,
      "ﺄ": 758,
      "ﺇ": 759,
      "ﺋ": 760,
      "ﺌ": 761,
      "ﺍ": 762,
      "ﺎ": 763,
      "ﺏ": 764,
      "ﺐ": 765,
      "ﺑ": 766,
      "ﺒ": 767,
      "ﺕ": 768,
      "ﺖ": 769,
      "ﺗ": 770,
      "ﺘ": 771,
      "ﺙ": 772,
      "ﺚ": 773,
      "ﺛ": 774,
      "ﺜ": 775,
      "ﺝ": 776,
      "ﺞ": 777,
      "ﺟ": 778,
      "ﺠ": 779,
      "ﺡ": 780,
      "ﺢ": 781,
      "ﺣ": 782,
      "ﺤ": 783,
      "ﺥ": 784,
      "ﺦ": 785,
      "ﺧ": 786,
      "ﺨ": 787,
      "ﺩ": 788,
      "ﺪ": 789,
      "ﺫ": 790,
      "ﺬ": 791,
      "ﺭ": 792,
      "ﺮ": 793,
      "ﺯ": 794,
      "ﺰ": 795,
      "ﺱ": 796,
      "ﺲ": 797,
      "ﺳ": 798,
      "ﺴ": 799,
      "ﺵ": 800,
      "ﺶ": 801,
      "ﺷ": 802,
      "ﺸ": 803,
      "ﺹ": 804,
      "ﺺ": 805,
      "ﺻ": 806,
      "ﺼ": 807,
      "ﺽ": 808,
      "ﺾ": 809,
      "ﺿ": 810,
      "ﻀ": 811,
      "ﻁ": 812,
      "ﻂ": 813,
      "ﻃ": 814,
      "ﻄ": 815,
      "ﻆ": 816,
      "ﻇ": 817,
      "ﻈ": 818,
      "ﻉ": 819,
      "ﻊ": 820,
      "ﻋ": 821,
      "ﻌ": 822,
      "ﻍ": 823,
      "ﻎ": 824,
      "ﻏ": 825,
      "ﻐ": 826,
      "ﻑ": 827,
      "ﻒ": 828,
      "ﻓ": 829,
      "ﻔ": 830,
      "ﻕ": 831,
      "ﻖ": 832,
      "ﻗ": 833,
      "ﻘ": 834,
      "ﻚ": 835,
      "ﻛ": 836,
      "ﻜ": 837,
      "ﻝ": 838,
      "ﻞ": 839,
      "ﻟ": 840,
      "ﻠ": 841,
      "ﻡ": 842,
      "ﻢ": 843,
      "ﻣ": 844,
      "ﻤ": 845,
      "ﻥ": 846,
      "ﻦ": 847,
      "ﻧ": 848,
      "ﻨ": 849,
      "ﻩ": 850,
      "ﻪ": 851,
      "ﻫ": 852,
      "ﻬ": 853,
      "ﻭ": 854,
      "ﻮ": 855,
      "ﻯ": 856,
      "ﻰ": 857,
      "ﻱ": 858,
      "ﻲ": 859,
      "ﻳ": 860,
      "ﻴ": 861,
      "ﻸ": 862,
      "ﻻ": 863,
      "ﻼ": 864,
      "﻿": 865,
      "，": 866,
      "：": 867,
      "ａ": 868,
      "ｂ": 869,
      "ｃ": 870,
      "ｄ": 871,
      "ｅ": 872,
      "ｆ": 873,
      "ｈ": 874,
      "ｉ": 875,
      "ｋ": 876,
      "ｌ": 877,
      "ｍ": 878,
      "ｎ": 879,
      "ｏ": 880,
      "ｒ": 881,
      "ｓ": 882,
      "ｔ": 883,
      "ｕ": 884,
      "ｖ": 885,
      "ｗ": 886,
      "ｙ": 887,
      "～": 888,
      "𖦤": 889,
      "𝐀": 890,
      "𝐁": 891,
      "𝐃": 892,
      "𝐄": 893,
      "𝐅": 894,
      "𝐇": 895,
      "𝐈": 896,
      "𝐊": 897,
      "𝐋": 898,
      "𝐌": 899,
      "𝐍": 900,
      "𝐎": 901,
      "𝐏": 902,
      "𝐑": 903,
      "𝐒": 904,
      "𝐓": 905,
      "𝐗": 906,
      "𝐘": 907,
      "𝐙": 908,
      "𝐚": 909,
      "𝐛": 910,
      "𝐜": 911,
      "𝐝": 912,
      "𝐞": 913,
      "𝐟": 914,
      "𝐠": 915,
      "𝐡": 916,
      "𝐢": 917,
      "𝐤": 918,
      "𝐥": 919,
      "𝐦": 920,
      "𝐧": 921,
      "𝐨": 922,
      "𝐩": 923,
      "𝐫": 924,
      "𝐬": 925,
      "𝐭": 926,
      "𝐮": 927,
      "𝐯": 928,
      "𝐰": 929,
      "𝐱": 930,
      "𝐲": 931,
      "𝐴": 932,
      "𝐶": 933,
      "𝐻": 934,
      "𝐼": 935,
      "𝑀": 936,
      "𝑇": 937,
      "𝑌": 938,
      "𝑎": 939,
      "𝑏": 940,
      "𝑐": 941,
      "𝑒": 942,
      "𝑔": 943,
      "𝑖": 944,
      "𝑘": 945,
      "𝑙": 946,
      "𝑚": 947,
      "𝑛": 948,
      "𝑜": 949,
      "𝑟": 950,
      "𝑠": 951,
      "𝑡": 952,
      "𝑢": 953,
      "𝑣": 954,
      "𝑤": 955,
      "𝑥": 956,
      "𝑦": 957,
      "𝑭": 958,
      "𝑯": 959,
      "𝑰": 960,
      "𝑻": 961,
      "𝒀": 962,
      "𝒂": 963,
      "𝒃": 964,
      "𝒄": 965,
      "𝒅": 966,
      "𝒆": 967,
      "𝒇": 968,
      "𝒈": 969,
      "𝒉": 970,
      "𝒊": 971,
      "𝒌": 972,
      "𝒍": 973,
      "𝒎": 974,
      "𝒏": 975,
      "𝒐": 976,
      "𝒑": 977,
      "𝒓": 978,
      "𝒔": 979,
      "𝒕": 980,
      "𝒖": 981,
      "𝒗": 982,
      "𝒘": 983,
      "𝒚": 984,
      "𝒛": 985,
      "𝒟": 986,
      "𝒱": 987,
      "𝒶": 988,
      "𝒷": 989,
      "𝒻": 990,
      "𝒽": 991,
      "𝒾": 992,
      "𝓁": 993,
      "𝓂": 994,
      "𝓃": 995,
      "𝓅": 996,
      "𝓇": 997,
      "𝓈": 998,
      "𝓉": 999,
      "𝓊": 1000,
      "𝓎": 1001,
      "𝓥": 1002,
      "𝓨": 1003,
      "𝓪": 1004,
      "𝓫": 1005,
      "𝓭": 1006,
      "𝓮": 1007,
      "𝓲": 1008,
      "𝓵": 1009,
      "𝓶": 1010,
      "𝓷": 1011,
      "𝓸": 1012,
      "𝓻": 1013,
      "𝓼": 1014,
      "𝓽": 1015,
      "𝓾": 1016,
      "𝔀": 1017,
      "𝔂": 1018,
      "𝔇": 1019,
      "𝔞": 1020,
      "𝔢": 1021,
      "𝔦": 1022,
      "𝔩": 1023,
      "𝔪": 1024,
      "𝔫": 1025,
      "𝕴": 1026,
      "𝖆": 1027,
      "𝖊": 1028,
      "𝖋": 1029,
      "𝖍": 1030,
      "𝖐": 1031,
      "𝖑": 1032,
      "𝖒": 1033,
      "𝖓": 1034,
      "𝖔": 1035,
      "𝖗": 1036,
      "𝖘": 1037,
      "𝖙": 1038,
      "𝖚": 1039,
      "𝖛": 1040,
      "𝖞": 1041,
      "𝖠": 1042,
      "𝖡": 1043,
      "𝖢": 1044,
      "𝖣": 1045,
      "𝖤": 1046,
      "𝖥": 1047,
      "𝖦": 1048,
      "𝖧": 1049,
      "𝖨": 1050,
      "𝖩": 1051,
      "𝖪": 1052,
      "𝖫": 1053,
      "𝖬": 1054,
      "𝖭": 1055,
      "𝖮": 1056,
      "𝖯": 1057,
      "𝖱": 1058,
      "𝖲": 1059,
      "𝖳": 1060,
      "𝖴": 1061,
      "𝖵": 1062,
      "𝖶": 1063,
      "𝖸": 1064,
      "𝖹": 1065,
      "𝖺": 1066,
      "𝖻": 1067,
      "𝖼": 1068,
      "𝖽": 1069,
      "𝖾": 1070,
      "𝖿": 1071,
      "𝗀": 1072,
      "𝗁": 1073,
      "𝗂": 1074,
      "𝗃": 1075,
      "𝗄": 1076,
      "𝗅": 1077,
      "𝗆": 1078,
      "𝗇": 1079,
      "𝗈": 1080,
      "𝗉": 1081,
      "𝗊": 1082,
      "𝗋": 1083,
      "𝗌": 1084,
      "𝗍": 1085,
      "𝗎": 1086,
      "𝗏": 1087,
      "𝗐": 1088,
      "𝗑": 1089,
      "𝗒": 1090,
      "𝗓": 1091,
      "𝗔": 1092,
      "𝗕": 1093,
      "𝗖": 1094,
      "𝗗": 1095,
      "𝗙": 1096,
      "𝗚": 1097,
      "𝗛": 1098,
      "𝗜": 1099,
      "𝗞": 1100,
      "𝗟": 1101,
      "𝗠": 1102,
      "𝗡": 1103,
      "𝗢": 1104,
      "𝗣": 1105,
      "𝗦": 1106,
      "𝗧": 1107,
      "𝗩": 1108,
      "𝗪": 1109,
      "𝗬": 1110,
      "𝗮": 1111,
      "𝗯": 1112,
      "𝗰": 1113,
      "𝗱": 1114,
      "𝗲": 1115,
      "𝗳": 1116,
      "𝗴": 1117,
      "𝗵": 1118,
      "𝗶": 1119,
      "𝗷": 1120,
      "𝗸": 1121,
      "𝗹": 1122,
      "𝗺": 1123,
      "𝗻": 1124,
      "𝗼": 1125,
      "𝗽": 1126,
      "𝗿": 1127,
      "𝘀": 1128,
      "𝘁": 1129,
      "𝘂": 1130,
      "𝘃": 1131,
      "𝘄": 1132,
      "𝘅": 1133,
      "𝘆": 1134,
      "𝘈": 1135,
      "𝘉": 1136,
      "𝘊": 1137,
      "𝘋": 1138,
      "𝘌": 1139,
      "𝘍": 1140,
      "𝘏": 1141,
      "𝘐": 1142,
      "𝘒": 1143,
      "𝘓": 1144,
      "𝘔": 1145,
      "𝘕": 1146,
      "𝘖": 1147,
      "𝘗": 1148,
      "𝘙": 1149,
      "𝘚": 1150,
      "𝘛": 1151,
      "𝘝": 1152,
      "𝘞": 1153,
      "𝘠": 1154,
      "𝘢": 1155,
      "𝘣": 1156,
      "𝘤": 1157,
      "𝘥": 1158,
      "𝘦": 1159,
      "𝘧": 1160,
      "𝘨": 1161,
      "𝘩": 1162,
      "𝘪": 1163,
      "𝘬": 1164,
      "𝘭": 1165,
      "𝘮": 1166,
      "𝘯": 1167,
      "𝘰": 1168,
      "𝘱": 1169,
      "𝘳": 1170,
      "𝘴": 1171,
      "𝘵": 1172,
      "𝘶": 1173,
      "𝘷": 1174,
      "𝘸": 1175,
      "𝘺": 1176,
      "𝘼": 1177,
      "𝘽": 1178,
      "𝘾": 1179,
      "𝘿": 1180,
      "𝙂": 1181,
      "𝙃": 1182,
      "𝙄": 1183,
      "𝙆": 1184,
      "𝙇": 1185,
      "𝙈": 1186,
      "𝙉": 1187,
      "𝙊": 1188,
      "𝙋": 1189,
      "𝙎": 1190,
      "𝙏": 1191,
      "𝙒": 1192,
      "𝙔": 1193,
      "𝙖": 1194,
      "𝙗": 1195,
      "𝙘": 1196,
      "𝙙": 1197,
      "𝙚": 1198,
      "𝙛": 1199,
      "𝙜": 1200,
      "𝙝": 1201,
      "𝙞": 1202,
      "𝙠": 1203,
      "𝙡": 1204,
      "𝙢": 1205,
      "𝙣": 1206,
      "𝙤": 1207,
      "𝙥": 1208,
      "𝙦": 1209,
      "𝙧": 1210,
      "𝙨": 1211,
      "𝙩": 1212,
      "𝙪": 1213,
      "𝙫": 1214,
      "𝙬": 1215,
      "𝙮": 1216,
      "𝟭": 1217,
      "𝟮": 1218,
      "𝟯": 1219,
      "𝟰": 1220,
      "𝟱": 1221,
      "𝟲": 1222,
      "𝟳": 1223,
      "𝟴": 1224,
      "𝟵": 1225,
      "🃏": 1226,
      "🆔": 1227,
      "🆕": 1228,
      "🇦": 1229,
      "🇧": 1230,
      "🇪": 1231,
      "🇫": 1232,
      "🇬": 1233,
      "🇮": 1234,
      "🇯": 1235,
      "🇱": 1236,
      "🇲": 1237,
      "🇳": 1238,
      "🇷": 1239,
      "🇸": 1240,
      "🇹": 1241,
      "🇺": 1242,
      "🌀": 1243,
      "🌂": 1244,
      "🌃": 1245,
      "🌄": 1246,
      "🌅": 1247,
      "🌆": 1248,
      "🌇": 1249,
      "🌈": 1250,
      "🌊": 1251,
      "🌋": 1252,
      "🌌": 1253,
      "🌍": 1254,
      "🌎": 1255,
      "🌏": 1256,
      "🌐": 1257,
      "🌑": 1258,
      "🌒": 1259,
      "🌓": 1260,
      "🌔": 1261,
      "🌕": 1262,
      "🌖": 1263,
      "🌗": 1264,
      "🌘": 1265,
      "🌙": 1266,
      "🌚": 1267,
      "🌛": 1268,
      "🌜": 1269,
      "🌝": 1270,
      "🌞": 1271,
      "🌟": 1272,
      "🌠": 1273,
      "🌡": 1274,
      "🌤": 1275,
      "🌥": 1276,
      "🌦": 1277,
      "🌧": 1278,
      "🌨": 1279,
      "🌩": 1280,
      "🌪": 1281,
      "🌫": 1282,
      "🌬": 1283,
      "🌭": 1284,
      "🌰": 1285,
      "🌱": 1286,
      "🌲": 1287,
      "🌳": 1288,
      "🌴": 1289,
      "🌵": 1290,
      "🌷": 1291,
      "🌸": 1292,
      "🌹": 1293,
      "🌺": 1294,
      "🌻": 1295,
      "🌼": 1296,
      "🌽": 1297,
      "🌾": 1298,
      "🌿": 1299,
      "🍀": 1300,
      "🍁": 1301,
      "🍂": 1302,
      "🍃": 1303,
      "🍄": 1304,
      "🍅": 1305,
      "🍆": 1306,
      "🍇": 1307,
      "🍉": 1308,
      "🍊": 1309,
      "🍋": 1310,
      "🍌": 1311,
      "🍍": 1312,
      "🍎": 1313,
      "🍏": 1314,
      "🍐": 1315,
      "🍑": 1316,
      "🍒": 1317,
      "🍓": 1318,
      "🍔": 1319,
      "🍕": 1320,
      "🍖": 1321,
      "🍗": 1322,
      "🍜": 1323,
      "🍝": 1324,
      "🍞": 1325,
      "🍟": 1326,
      "🍡": 1327,
      "🍢": 1328,
      "🍣": 1329,
      "🍤": 1330,
      "🍦": 1331,
      "🍧": 1332,
      "🍨": 1333,
      "🍩": 1334,
      "🍪": 1335,
      "🍫": 1336,
      "🍬": 1337,
      "🍭": 1338,
      "🍮": 1339,
      "🍯": 1340,
      "🍰": 1341,
      "🍲": 1342,
      "🍳": 1343,
      "🍶": 1344,
      "🍷": 1345,
      "🍸": 1346,
      "🍹": 1347,
      "🍺": 1348,
      "🍻": 1349,
      "🍼": 1350,
      "🍽": 1351,
      "🍾": 1352,
      "🍿": 1353,
      "🎀": 1354,
      "🎁": 1355,
      "🎂": 1356,
      "🎃": 1357,
      "🎄": 1358,
      "🎆": 1359,
      "🎈": 1360,
      "🎉": 1361,
      "🎊": 1362,
      "🎋": 1363,
      "🎌": 1364,
      "🎎": 1365,
      "🎒": 1366,
      "🎓": 1367,
      "🎖": 1368,
      "🎗": 1369,
      "🎙": 1370,
      "🎚": 1371,
      "🎞": 1372,
      "🎟": 1373,
      "🎠": 1374,
      "🎡": 1375,
      "🎢": 1376,
      "🎤": 1377,
      "🎥": 1378,
      "🎧": 1379,
      "🎨": 1380,
      "🎩": 1381,
      "🎪": 1382,
      "🎬": 1383,
      "🎭": 1384,
      "🎮": 1385,
      "🎰": 1386,
      "🎲": 1387,
      "🎵": 1388,
      "🎶": 1389,
      "🎷": 1390,
      "🎸": 1391,
      "🎹": 1392,
      "🎻": 1393,
      "🎼": 1394,
      "🎾": 1395,
      "🏀": 1396,
      "🏁": 1397,
      "🏂": 1398,
      "🏃": 1399,
      "🏄": 1400,
      "🏆": 1401,
      "🏎": 1402,
      "🏐": 1403,
      "🏔": 1404,
      "🏕": 1405,
      "🏙": 1406,
      "🏛": 1407,
      "🏢": 1408,
      "🏰": 1409,
      "🏳": 1410,
      "🏴": 1411,
      "🏷": 1412,
      "🏸": 1413,
      "🏹": 1414,
      "🏻": 1415,
      "🏼": 1416,
      "🏽": 1417,
      "🏾": 1418,
      "🏿": 1419,
      "🐀": 1420,
      "🐁": 1421,
      "🐆": 1422,
      "🐇": 1423,
      "🐈": 1424,
      "🐉": 1425,
      "🐊": 1426,
      "🐋": 1427,
      "🐌": 1428,
      "🐍": 1429,
      "🐎": 1430,
      "🐏": 1431,
      "🐑": 1432,
      "🐕": 1433,
      "🐖": 1434,
      "🐘": 1435,
      "🐙": 1436,
      "🐚": 1437,
      "🐛": 1438,
      "🐜": 1439,
      "🐝": 1440,
      "🐞": 1441,
      "🐟": 1442,
      "🐠": 1443,
      "🐡": 1444,
      "🐢": 1445,
      "🐣": 1446,
      "🐥": 1447,
      "🐧": 1448,
      "🐨": 1449,
      "🐩": 1450,
      "🐬": 1451,
      "🐭": 1452,
      "🐯": 1453,
      "🐰": 1454,
      "🐱": 1455,
      "🐳": 1456,
      "🐴": 1457,
      "🐵": 1458,
      "🐶": 1459,
      "🐷": 1460,
      "🐸": 1461,
      "🐹": 1462,
      "🐺": 1463,
      "🐻": 1464,
      "🐼": 1465,
      "🐽": 1466,
      "🐾": 1467,
      "🐿": 1468,
      "👀": 1469,
      "👁": 1470,
      "👂": 1471,
      "👃": 1472,
      "👄": 1473,
      "👅": 1474,
      "👆": 1475,
      "👇": 1476,
      "👈": 1477,
      "👉": 1478,
      "👊": 1479,
      "👋": 1480,
      "👌": 1481,
      "👍": 1482,
      "👎": 1483,
      "👏": 1484,
      "👐": 1485,
      "👑": 1486,
      "👒": 1487,
      "👓": 1488,
      "👔": 1489,
      "👙": 1490,
      "👛": 1491,
      "👟": 1492,
      "👠": 1493,
      "👣": 1494,
      "👤": 1495,
      "👥": 1496,
      "👦": 1497,
      "👧": 1498,
      "👨": 1499,
      "👩": 1500,
      "👫": 1501,
      "👬": 1502,
      "👭": 1503,
      "👯": 1504,
      "👰": 1505,
      "👱": 1506,
      "👵": 1507,
      "👶": 1508,
      "👷": 1509,
      "👸": 1510,
      "👹": 1511,
      "👻": 1512,
      "👼": 1513,
      "👽": 1514,
      "👾": 1515,
      "👿": 1516,
      "💀": 1517,
      "💁": 1518,
      "💂": 1519,
      "💃": 1520,
      "💄": 1521,
      "💅": 1522,
      "💆": 1523,
      "💇": 1524,
      "💉": 1525,
      "💊": 1526,
      "💋": 1527,
      "💌": 1528,
      "💍": 1529,
      "💎": 1530,
      "💏": 1531,
      "💐": 1532,
      "💑": 1533,
      "💒": 1534,
      "💓": 1535,
      "💔": 1536,
      "💕": 1537,
      "💖": 1538,
      "💗": 1539,
      "💘": 1540,
      "💙": 1541,
      "💚": 1542,
      "💛": 1543,
      "💜": 1544,
      "💝": 1545,
      "💞": 1546,
      "💟": 1547,
      "💠": 1548,
      "💡": 1549,
      "💣": 1550,
      "💤": 1551,
      "💥": 1552,
      "💦": 1553,
      "💧": 1554,
      "💨": 1555,
      "💩": 1556,
      "💪": 1557,
      "💫": 1558,
      "💬": 1559,
      "💭": 1560,
      "💯": 1561,
      "💰": 1562,
      "💱": 1563,
      "💵": 1564,
      "💶": 1565,
      "💸": 1566,
      "💻": 1567,
      "💽": 1568,
      "💿": 1569,
      "📀": 1570,
      "📃": 1571,
      "📄": 1572,
      "📅": 1573,
      "📌": 1574,
      "📍": 1575,
      "📎": 1576,
      "📒": 1577,
      "📓": 1578,
      "📔": 1579,
      "📕": 1580,
      "📖": 1581,
      "📗": 1582,
      "📘": 1583,
      "📙": 1584,
      "📚": 1585,
      "📛": 1586,
      "📜": 1587,
      "📝": 1588,
      "📞": 1589,
      "📢": 1590,
      "📣": 1591,
      "📥": 1592,
      "📦": 1593,
      "📮": 1594,
      "📰": 1595,
      "📱": 1596,
      "📲": 1597,
      "📷": 1598,
      "📸": 1599,
      "📺": 1600,
      "📻": 1601,
      "📼": 1602,
      "📽": 1603,
      "📿": 1604,
      "🔀": 1605,
      "🔂": 1606,
      "🔃": 1607,
      "🔄": 1608,
      "🔅": 1609,
      "🔆": 1610,
      "🔇": 1611,
      "🔈": 1612,
      "🔉": 1613,
      "🔊": 1614,
      "🔌": 1615,
      "🔍": 1616,
      "🔎": 1617,
      "🔐": 1618,
      "🔑": 1619,
      "🔒": 1620,
      "🔔": 1621,
      "🔕": 1622,
      "🔖": 1623,
      "🔗": 1624,
      "🔙": 1625,
      "🔚": 1626,
      "🔛": 1627,
      "🔜": 1628,
      "🔞": 1629,
      "🔢": 1630,
      "🔥": 1631,
      "🔪": 1632,
      "🔫": 1633,
      "🔭": 1634,
      "🔮": 1635,
      "🔰": 1636,
      "🔴": 1637,
      "🔸": 1638,
      "🔹": 1639,
      "🔺": 1640,
      "🔻": 1641,
      "🕊": 1642,
      "🕐": 1643,
      "🕔": 1644,
      "🕕": 1645,
      "🕠": 1646,
      "🕯": 1647,
      "🕴": 1648,
      "🕶": 1649,
      "🕷": 1650,
      "🕸": 1651,
      "🕺": 1652,
      "🖇": 1653,
      "🖊": 1654,
      "🖋": 1655,
      "🖌": 1656,
      "🖐": 1657,
      "🖕": 1658,
      "🖖": 1659,
      "🖤": 1660,
      "🖥": 1661,
      "🗓": 1662,
      "🗝": 1663,
      "🗞": 1664,
      "🗡": 1665,
      "🗣": 1666,
      "🗨": 1667,
      "🗯": 1668,
      "🗺": 1669,
      "🗻": 1670,
      "🗼": 1671,
      "🗽": 1672,
      "🗿": 1673,
      "😀": 1674,
      "😁": 1675,
      "😂": 1676,
      "😃": 1677,
      "😄": 1678,
      "😅": 1679,
      "😆": 1680,
      "😇": 1681,
      "😈": 1682,
      "😉": 1683,
      "😊": 1684,
      "😋": 1685,
      "😌": 1686,
      "😍": 1687,
      "😎": 1688,
      "😏": 1689,
      "😐": 1690,
      "😑": 1691,
      "😒": 1692,
      "😓": 1693,
      "😔": 1694,
      "😕": 1695,
      "😖": 1696,
      "😗": 1697,
      "😘": 1698,
      "😙": 1699,
      "😚": 1700,
      "😛": 1701,
      "😜": 1702,
      "😝": 1703,
      "😞": 1704,
      "😟": 1705,
      "😠": 1706,
      "😡": 1707,
      "😢": 1708,
      "😣": 1709,
      "😤": 1710,
      "😥": 1711,
      "😦": 1712,
      "😧": 1713,
      "😨": 1714,
      "😩": 1715,
      "😪": 1716,
      "😫": 1717,
      "😬": 1718,
      "😭": 1719,
      "😮": 1720,
      "😯": 1721,
      "😰": 1722,
      "😱": 1723,
      "😳": 1724,
      "😴": 1725,
      "😵": 1726,
      "😶": 1727,
      "😷": 1728,
      "😸": 1729,
      "😹": 1730,
      "😺": 1731,
      "😻": 1732,
      "😼": 1733,
      "😽": 1734,
      "😾": 1735,
      "😿": 1736,
      "🙀": 1737,
      "🙁": 1738,
      "🙂": 1739,
      "🙃": 1740,
      "🙄": 1741,
      "🙅": 1742,
      "🙆": 1743,
      "🙇": 1744,
      "🙈": 1745,
      "🙉": 1746,
      "🙊": 1747,
      "🙋": 1748,
      "🙌": 1749,
      "🙍": 1750,
      "🙏": 1751,
      "🚀": 1752,
      "🚂": 1753,
      "🚈": 1754,
      "🚊": 1755,
      "🚗": 1756,
      "🚘": 1757,
      "🚙": 1758,
      "🚛": 1759,
      "🚩": 1760,
      "🚪": 1761,
      "🚫": 1762,
      "🚬": 1763,
      "🚭": 1764,
      "🚲": 1765,
      "🚴": 1766,
      "🚶": 1767,
      "🚷": 1768,
      "🚻": 1769,
      "🚿": 1770,
      "🛀": 1771,
      "🛁": 1772,
      "🛌": 1773,
      "🛍": 1774,
      "🛎": 1775,
      "🛐": 1776,
      "🛑": 1777,
      "🛖": 1778,
      "🛣": 1779,
      "🛤": 1780,
      "🛸": 1781,
      "🛹": 1782,
      "🛼": 1783,
      "🤌": 1784,
      "🤍": 1785,
      "🤎": 1786,
      "🤏": 1787,
      "🤐": 1788,
      "🤑": 1789,
      "🤓": 1790,
      "🤔": 1791,
      "🤕": 1792,
      "🤖": 1793,
      "🤗": 1794,
      "🤘": 1795,
      "🤙": 1796,
      "🤛": 1797,
      "🤜": 1798,
      "🤝": 1799,
      "🤞": 1800,
      "🤟": 1801,
      "🤠": 1802,
      "🤡": 1803,
      "🤣": 1804,
      "🤤": 1805,
      "🤦": 1806,
      "🤧": 1807,
      "🤨": 1808,
      "🤩": 1809,
      "🤪": 1810,
      "🤫": 1811,
      "🤬": 1812,
      "🤭": 1813,
      "🤮": 1814,
      "🤯": 1815,
      "🤲": 1816,
      "🤷": 1817,
      "🤸": 1818,
      "🤿": 1819,
      "🥀": 1820,
      "🥂": 1821,
      "🥃": 1822,
      "🥇": 1823,
      "🥊": 1824,
      "🥏": 1825,
      "🥐": 1826,
      "🥑": 1827,
      "🥒": 1828,
      "🥓": 1829,
      "🥔": 1830,
      "🥕": 1831,
      "🥛": 1832,
      "🥜": 1833,
      "🥝": 1834,
      "🥞": 1835,
      "🥟": 1836,
      "🥡": 1837,
      "🥢": 1838,
      "🥣": 1839,
      "🥤": 1840,
      "🥥": 1841,
      "🥦": 1842,
      "🥨": 1843,
      "🥩": 1844,
      "🥪": 1845,
      "🥭": 1846,
      "🥯": 1847,
      "🥰": 1848,
      "🥱": 1849,
      "🥲": 1850,
      "🥳": 1851,
      "🥴": 1852,
      "🥵": 1853,
      "🥷": 1854,
      "🥸": 1855,
      "🥹": 1856,
      "🥺": 1857,
      "🦁": 1858,
      "🦄": 1859,
      "🦅": 1860,
      "🦇": 1861,
      "🦉": 1862,
      "🦊": 1863,
      "🦋": 1864,
      "🦌": 1865,
      "🦍": 1866,
      "🦎": 1867,
      "🦒": 1868,
      "🦔": 1869,
      "🦕": 1870,
      "🦖": 1871,
      "🦗": 1872,
      "🦙": 1873,
      "🦜": 1874,
      "🦢": 1875,
      "🦥": 1876,
      "🦦": 1877,
      "🦩": 1878,
      "🦪": 1879,
      "🦭": 1880,
      "🦮": 1881,
      "🦯": 1882,
      "🦱": 1883,
      "🦴": 1884,
      "🦶": 1885,
      "🦷": 1886,
      "🦸": 1887,
      "🦺": 1888,
      "🦾": 1889,
      "🧀": 1890,
      "🧁": 1891,
      "🧃": 1892,
      "🧇": 1893,
      "🧉": 1894,
      "🧋": 1895,
      "🧍": 1896,
      "🧐": 1897,
      "🧘": 1898,
      "🧚": 1899,
      "🧛": 1900,
      "🧜": 1901,
      "🧝": 1902,
      "🧟": 1903,
      "🧠": 1904,
      "🧡": 1905,
      "🧢": 1906,
      "🧣": 1907,
      "🧨": 1908,
      "🧩": 1909,
      "🧬": 1910,
      "🧱": 1911,
      "🧵": 1912,
      "🧶": 1913,
      "🧷": 1914,
      "🧸": 1915,
      "🧹": 1916,
      "🧺": 1917,
      "🧼": 1918,
      "🧽": 1919,
      "🧿": 1920,
      "🩰": 1921,
      "🩴": 1922,
      "🩵": 1923,
      "🩶": 1924,
      "🩷": 1925,
      "🩸": 1926,
      "🩹": 1927,
      "🩺": 1928,
      "🪀": 1929,
      "🪁": 1930,
      "🪄": 1931,
      "🪐": 1932,
      "🪔": 1933,
      "🪜": 1934,
      "🪝": 1935,
      "🪞": 1936,
      "🪟": 1937,
      "🪡": 1938,
      "🪤": 1939,
      "🪦": 1940,
      "🪨": 1941,
      "🪩": 1942,
      "🪭": 1943,
      "🪲": 1944,
      "🪴": 1945,
      "🪵": 1946,
      "🪶": 1947,
      "🪷": 1948,
      "🪺": 1949,
      "🪼": 1950,
      "🪽": 1951,
      "🫀": 1952,
      "🫂": 1953,
      "🫅": 1954,
      "🫐": 1955,
      "🫠": 1956,
      "🫡": 1957,
      "🫢": 1958,
      "🫣": 1959,
      "🫤": 1960,
      "🫥": 1961,
      "🫦": 1962,
      "🫧": 1963,
      "🫨": 1964,
      "🫰": 1965,
      "🫱": 1966,
      "🫲": 1967,
      "🫳": 1968,
      "🫴": 1969,
      "🫵": 1970,
      "🫶": 1971,
      "🫷": 1972,
      "می": 1973,
      "ای": 1974,
      "ان": 1975,
      "ار": 1976,
      "ست": 1977,
      "که": 1978,
      "ند": 1979,
      "از": 1980,
      "به": 1981,
      "تو": 1982,
      "را": 1983,
      "با": 1984,
      "خو": 1985,
      "نی": 1986,
      "رو": 1987,
      "اد": 1988,
      "ام": 1989,
      "رد": 1990,
      "در": 1991,
      "ون": 1992,
      "دی": 1993,
      "هم": 1994,
      "ری": 1995,
      "من": 1996,
      "بی": 1997,
      "اش": 1998,
      "ال": 1999,
      "ود": 2000,
      "کن": 2001,
      "..": 2002,
      "بر": 2003,
      "این": 2004,
      "ها": 2005,
      "دو": 2006,
      "تی": 2007,
      "گی": 2008,
      "لی": 2009,
      "سی": 2010,
      "فت": 2011,
      "های": 2012,
      "دار": 2013,
      "است": 2014,
      "اه": 2015,
      "شد": 2016,
      "وق": 2017,
      "تر": 2018,
      "شه": 2019,
      "بود": 2020,
      "تا": 2021,
      "نگ": 2022,
      "شی": 2023,
      "کرد": 2024,
      "یک": 2025,
      "ما": 2026,
      "مو": 2027,
      "نمی": 2028,
      "خود": 2029,
      "گر": 2030,
      "یه": 2031,
      "او": 2032,
      "هر": 2033,
      "ch": 2034,
      "ده": 2035,
      "ii": 2036,
      "کنی": 2037,
      "نه": 2038,
      "زی": 2039,
      "اب": 2040,
      "وی": 2041,
      "چی": 2042,
      "اس": 2043,
      "دل": 2044,
      "اشت": 2045,
      "زند": 2046,
      "ra": 2047,
      "گه": 2048,
      "برای": 2049,
      "ور": 2050,
      "مان": 2051,
      "an": 2052,
      "...": 2053,
      "شم": 2054,
      "ایی": 2055,
      "هی": 2056,
      "دوست": 2057,
      "نم": 2058,
      "شت": 2059,
      "لا": 2060,
      "ادم": 2061,
      "پی": 2062,
      "روز": 2063,
      "وقتی": 2064,
      "همه": 2065,
      "رف": 2066,
      "خی": 2067,
      "کنم": 2068,
      "ات": 2069,
      "همی": 2070,
      "زندگی": 2071,
      "چه": 2072,
      "فر": 2073,
      "سر": 2074,
      "eh": 2075,
      "نو": 2076,
      "اید": 2077,
      "یا": 2078,
      "تن": 2079,
      "نیست": 2080,
      "انی": 2081,
      "دم": 2082,
      "حال": 2083,
      "دن": 2084,
      "اری": 2085,
      "تم": 2086,
      "ne": 2087,
      "اون": 2088,
      "داشت": 2089,
      "بار": 2090,
      "ره": 2091,
      "دست": 2092,
      "di": 2093,
      "اح": 2094,
      "گفت": 2095,
      "بع": 2096,
      "کر": 2097,
      "هست": 2098,
      "مي": 2099,
      "اق": 2100,
      "کسی": 2101,
      "_ch": 2102,
      "nel": 2103,
      "dio": 2104,
      "گو": 2105,
      "raz": 2106,
      "annel": 2107,
      "ehraz": 2108,
      "dio_ch": 2109,
      "iii": 2110,
      "dio_chehraz": 2111,
      "dio_chehraziii": 2112,
      "هیچ": 2113,
      "رین": 2114,
      "دا": 2115,
      "قط": 2116,
      "mo": 2117,
      "Ra": 2118,
      "بو": 2119,
      "بد": 2120,
      "Radio_chehraziii": 2121,
      "channel": 2122,
      "کی": 2123,
      "دارم": 2124,
      "قدر": 2125,
      "کو": 2126,
      "شن": 2127,
      "انه": 2128,
      "in": 2129,
      "بخ": 2130,
      "ولی": 2131,
      "مع": 2132,
      "بز": 2133,
      "اف": 2134,
      "رفت": 2135,
      "مث": 2136,
      "وقت": 2137,
      "ou": 2138,
      "گذ": 2139,
      "اخ": 2140,
      "قی": 2141,
      "رم": 2142,
      "کار": 2143,
      "اما": 2144,
      "کنه": 2145,
      "برا": 2146,
      "اي": 2147,
      "اند": 2148,
      "هایی": 2149,
      "شده": 2150,
      "فکر": 2151,
      "فقط": 2152,
      "ول": 2153,
      "یم": 2154,
      "کند": 2155,
      "شو": 2156,
      "حرف": 2157,
      "پر": 2158,
      "باز": 2159,
      "نده": 2160,
      "جا": 2161,
      "اگه": 2162,
      "li": 2163,
      "كه": 2164,
      "توی": 2165,
      "ترین": 2166,
      "شود": 2167,
      "بعد": 2168,
      "me": 2169,
      "بل": 2170,
      "شب": 2171,
      "خیلی": 2172,
      "جو": 2173,
      "تون": 2174,
      "سال": 2175,
      "لب": 2176,
      "فی": 2177,
      "داد": 2178,
      "کس": 2179,
      "mi": 2180,
      "باید": 2181,
      "کل": 2182,
      "کم": 2183,
      "ته": 2184,
      "you": 2185,
      "خواه": 2186,
      "اع": 2187,
      "مثل": 2188,
      "باشی": 2189,
      "نش": 2190,
      "روی": 2191,
      "عی": 2192,
      "اگر": 2193,
      "ve": 2194,
      "اره": 2195,
      "عش": 2196,
      "اط": 2197,
      "له": 2198,
      "چیز": 2199,
      "مون": 2200,
      "نا": 2201,
      "حس": 2202,
      "خوب": 2203,
      "داری": 2204,
      "دنی": 2205,
      "ــ": 2206,
      "is": 2207,
      "ing": 2208,
      "شما": 2209,
      "یکی": 2210,
      "مت": 2211,
      "عشق": 2212,
      "دیگه": 2213,
      "مه": 2214,
      "جه": 2215,
      "گاه": 2216,
      "لو": 2217,
      "دیگر": 2218,
      "مر": 2219,
      "اص": 2220,
      "lu": 2221,
      "mira": 2222,
      "mirali": 2223,
      "miralichannel": 2224,
      "میخو": 2225,
      "یاد": 2226,
      "اده": 2227,
      "مرد": 2228,
      "تاب": 2229,
      "کردم": 2230,
      "سته": 2231,
      "کنار": 2232,
      "چیزی": 2233,
      "صد": 2234,
      "گم": 2235,
      "کردن": 2236,
      "همیشه": 2237,
      "Amiralichannel": 2238,
      "نج": 2239,
      "خوش": 2240,
      "hi": 2241,
      "lo": 2242,
      "عاش": 2243,
      "حتی": 2244,
      "شون": 2245,
      "کنید": 2246,
      "مح": 2247,
      "شان": 2248,
      "خت": 2249,
      "od": 2250,
      "لم": 2251,
      "باشه": 2252,
      "کنیم": 2253,
      "تمام": 2254,
      "عاشق": 2255,
      "بودن": 2256,
      "سه": 2257,
      "قلب": 2258,
      "ونه": 2259,
      "بخو": 2260,
      "and": 2261,
      "خودت": 2262,
      "بیش": 2263,
      "تنها": 2264,
      "سو": 2265,
      "بگی": 2266,
      "دلم": 2267,
      "انم": 2268,
      "امی": 2269,
      "گار": 2270,
      "میشه": 2271,
      "قر": 2272,
      "قش": 2273,
      "راه": 2274,
      "انت": 2275,
      "so": 2276,
      "دور": 2277,
      "king": 2278,
      "گری": 2279,
      "ishi": 2280,
      "mood": 2281,
      "بغ": 2282,
      "pishi": 2283,
      "مش": 2284,
      "باشد": 2285,
      "چشم": 2286,
      "pishimood": 2287,
      "چون": 2288,
      "بت": 2289,
      "صب": 2290,
      "ck": 2291,
      "your": 2292,
      "کتاب": 2293,
      "he": 2294,
      "همین": 2295,
      "خودم": 2296,
      "داشته": 2297,
      "love": 2298,
      "درد": 2299,
      "گرفت": 2300,
      "moking": 2301,
      "کرده": 2302,
      "ید": 2303,
      "واس": 2304,
      "go": 2305,
      "گوش": 2306,
      "داره": 2307,
      "بهت": 2308,
      "مد": 2309,
      "هو": 2310,
      "ارم": 2311,
      "گرد": 2312,
      "بری": 2313,
      "fu": 2314,
      "نام": 2315,
      "احس": 2316,
      "گوی": 2317,
      "ارو": 2318,
      ":)": 2319,
      "چند": 2320,
      "قشنگ": 2321,
      "دنیا": 2322,
      "fuck": 2323,
      "ازه": 2324,
      "پیش": 2325,
      "نگاه": 2326,
      "تل": 2327,
      "اینکه": 2328,
      "پس": 2329,
      "بیشتر": 2330,
      "باش": 2331,
      "جای": 2332,
      "mokingchannel": 2333,
      "جود": 2334,
      "واق": 2335,
      "کست": 2336,
      "بودم": 2337,
      "دید": 2338,
      "sogo": 2339,
      "yourlove": 2340,
      "andfuck": 2341,
      "sogoandfuck": 2342,
      "چرا": 2343,
      "شدن": 2344,
      "sogoandfuckyourlove": 2345,
      "ادی": 2346,
      "شته": 2347,
      "سم": 2348,
      "زمان": 2349,
      "راب": 2350,
      "بین": 2351,
      "غم": 2352,
      "دارد": 2353,
      "خاط": 2354,
      "مرا": 2355,
      "ارز": 2356,
      "دیم": 2357,
      "لح": 2358,
      "یر": 2359,
      "خواب": 2360,
      "احساس": 2361,
      "بدون": 2362,
      "رگ": 2363,
      "نز": 2364,
      "کشی": 2365,
      "چقدر": 2366,
      "re": 2367,
      "باه": 2368,
      "وجود": 2369,
      "ني": 2370,
      "باشم": 2371,
      "الی": 2372,
      "کنند": 2373,
      "قه": 2374,
      "نف": 2375,
      "میکنم": 2376,
      "رون": 2377,
      "افت": 2378,
      "انس": 2379,
      "خواست": 2380,
      "شاید": 2381,
      "اج": 2382,
      "اک": 2383,
      "ندی": 2384,
      "دي": 2385,
      "دیو": 2386,
      "بده": 2387,
      "برد": 2388,
      "میز": 2389,
      "یع": 2390,
      "فرا": 2391,
      "تص": 2392,
      "بهش": 2393,
      "دون": 2394,
      "ماه": 2395,
      "ضی": 2396,
      "ارد": 2397,
      "یعنی": 2398,
      "ارام": 2399,
      "حت": 2400,
      "دان": 2401,
      "اغ": 2402,
      "اين": 2403,
      "ome": 2404,
      "مهم": 2405,
      "جوری": 2406,
      "خواهد": 2407,
      "جام": 2408,
      "لحظ": 2409,
      "نار": 2410,
      "بهم": 2411,
      "خورد": 2412,
      "صبح": 2413,
      "ین": 2414,
      "نوز": 2415,
      "بال": 2416,
      "زن": 2417,
      "بغل": 2418,
      "st": 2419,
      "نفر": 2420,
      "بزرگ": 2421,
      "نیم": 2422,
      "جایی": 2423,
      "شدم": 2424,
      "نظ": 2425,
      "باره": 2426,
      "همان": 2427,
      "فرد": 2428,
      "blu": 2429,
      "بي": 2430,
      "رسی": 2431,
      "عه": 2432,
      "lus": 2433,
      "هنوز": 2434,
      "همون": 2435,
      "خودش": 2436,
      "plus": 2437,
      "تنگ": 2438,
      "ehome": 2439,
      "bluehome": 2440,
      "bluehomeplus": 2441,
      "نت": 2442,
      "نیاز": 2443,
      "گاهی": 2444,
      "بخند": 2445,
      "مق": 2446,
      "امو": 2447,
      "هات": 2448,
      "گفتم": 2449,
      "ابی": 2450,
      "ستم": 2451,
      "گل": 2452,
      "کاری": 2453,
      "دخ": 2454,
      "اول": 2455,
      "حالا": 2456,
      "اعت": 2457,
      "لحظه": 2458,
      "بودی": 2459,
      "ران": 2460,
      "کاش": 2461,
      "نگی": 2462,
      "جی": 2463,
      "جز": 2464,
      "واسه": 2465,
      "منو": 2466,
      "يه": 2467,
      "دوستت": 2468,
      "رس": 2469,
      "نبود": 2470,
      "اهنگ": 2471,
      "درست": 2472,
      "میکنه": 2473,
      "کردی": 2474,
      "يم": 2475,
      "طه": 2476,
      "تح": 2477,
      "مم": 2478,
      "طور": 2479,
      "فهمی": 2480,
      "مین": 2481,
      "دختر": 2482,
      "مس": 2483,
      "صی": 2484,
      "جان": 2485,
      "نداشت": 2486,
      "بدی": 2487,
      "يد": 2488,
      "صدای": 2489,
      "تع": 2490,
      "ببی": 2491,
      "انگار": 2492,
      "ين": 2493,
      "Smokingchannel": 2494,
      "کش": 2495,
      "اسی": 2496,
      "عو": 2497,
      "موم": 2498,
      "تنهایی": 2499,
      "اخر": 2500,
      "کنن": 2501,
      "توان": 2502,
      "کوچ": 2503,
      "هن": 2504,
      "قرار": 2505,
      "فاق": 2506,
      "خسته": 2507,
      "هستی": 2508,
      "الان": 2509,
      "فرامو": 2510,
      "گریه": 2511,
      "كرد": 2512,
      "اتفاق": 2513,
      "مل": 2514,
      "بان": 2515,
      "نس": 2516,
      "مج": 2517,
      "وش": 2518,
      "دلی": 2519,
      "قد": 2520,
      "نوشت": 2521,
      "شک": 2522,
      "رابطه": 2523,
      "فیلم": 2524,
      "انسان": 2525,
      "ناراح": 2526,
      "دونی": 2527,
      "عا": 2528,
      "زد": 2529,
      "روح": 2530,
      "اهم": 2531,
      "جر": 2532,
      "میتو": 2533,
      "وس": 2534,
      "ha": 2535,
      "پای": 2536,
      "زیر": 2537,
      "زه": 2538,
      "روزی": 2539,
      "پشت": 2540,
      "نامه": 2541,
      "نوی": 2542,
      "سمت": 2543,
      "پیدا": 2544,
      "تموم": 2545,
      "داشتن": 2546,
      "ایم": 2547,
      "پاد": 2548,
      "زم": 2549,
      "انجام": 2550,
      "سرد": 2551,
      "شر": 2552,
      "وص": 2553,
      "موق": 2554,
      "on": 2555,
      "the": 2556,
      "جم": 2557,
      "انقدر": 2558,
      "شوی": 2559,
      "امروز": 2560,
      "ar": 2561,
      "ریم": 2562,
      "يك": 2563,
      "مورد": 2564,
      "ماد": 2565,
      "دقی": 2566,
      "بهتر": 2567,
      "درو": 2568,
      "ساعت": 2569,
      "تک": 2570,
      "لبخند": 2571,
      "سل": 2572,
      "زار": 2573,
      "اورد": 2574,
      "برو": 2575,
      "قبل": 2576,
      "بالا": 2577,
      "خانه": 2578,
      "بق": 2579,
      "بگذ": 2580,
      "اشتی": 2581,
      "قت": 2582,
      "هایت": 2583,
      "میکنی": 2584,
      "بچه": 2585,
      "غی": 2586,
      "خوشحال": 2587,
      "بیرون": 2588,
      "برات": 2589,
      "بگم": 2590,
      "میگه": 2591,
      "داشتم": 2592,
      "دونم": 2593,
      "پادکست": 2594,
      "شدی": 2595,
      "چش": 2596,
      "er": 2597,
      "کوت": 2598,
      "انها": 2599,
      "بیا": 2600,
      "پا": 2601,
      "فه": 2602,
      "انو": 2603,
      "ترس": 2604,
      "رفته": 2605,
      "نق": 2606,
      "ازم": 2607,
      "ادما": 2608,
      "صه": 2609,
      "منت": 2610,
      "گي": 2611,
      "عکس": 2612,
      "اصلا": 2613,
      "ایت": 2614,
      "خیال": 2615,
      "ورت": 2616,
      "شید": 2617,
      "بعضی": 2618,
      "تار": 2619,
      "خد": 2620,
      "le": 2621,
      "تورو": 2622,
      "بشه": 2623,
      "زخ": 2624,
      "منی": 2625,
      "پو": 2626,
      "ادمی": 2627,
      "فته": 2628,
      "فتی": 2629,
      "نفس": 2630,
      "بیه": 2631,
      "شرو": 2632,
      "گیر": 2633,
      "دلت": 2634,
      "نید": 2635,
      "دوباره": 2636,
      "جهان": 2637,
      "فراموش": 2638,
      "بند": 2639,
      "خنده": 2640,
      "قب": 2641,
      "فرو": 2642,
      "「@": 2643,
      "باهم": 2644,
      "طرف": 2645,
      "خدا": 2646,
      "دوس": 2647,
      "طر": 2648,
      "پایی": 2649,
      "پنج": 2650,
      "هاي": 2651,
      "علا": 2652,
      "داست": 2653,
      "سخت": 2654,
      "باع": 2655,
      "گن": 2656,
      "شروع": 2657,
      "نداری": 2658,
      "باعث": 2659,
      "وری": 2660,
      "دیدم": 2661,
      "شوند": 2662,
      "دهد": 2663,
      "ندارم": 2664,
      "زود": 2665,
      "رت": 2666,
      "بازی": 2667,
      "ارت": 2668,
      "نزدی": 2669,
      "کت": 2670,
      "امه": 2671,
      "دیگران": 2672,
      "مردم": 2673,
      "جمع": 2674,
      "گونه": 2675,
      "برام": 2676,
      "مغ": 2677,
      "زدن": 2678,
      "al": 2679,
      "or": 2680,
      "کاف": 2681,
      "بهترین": 2682,
      "بگو": 2683,
      "هیچوقت": 2684,
      "مرگ": 2685,
      "تونم": 2686,
      "فهم": 2687,
      "ارامش": 2688,
      "نداره": 2689,
      "هستند": 2690,
      "باهاش": 2691,
      "سخ": 2692,
      "شع": 2693,
      "اندازه": 2694,
      "زیبا": 2695,
      "دنبال": 2696,
      "پسر": 2697,
      "th": 2698,
      "دلیل": 2699,
      "رات": 2700,
      "باور": 2701,
      "دریا": 2702,
      "میگی": 2703,
      "رفتن": 2704,
      "گز": 2705,
      "رق": 2706,
      "توجه": 2707,
      "رید": 2708,
      "امید": 2709,
      "واقعی": 2710,
      "صدا": 2711,
      "اض": 2712,
      "باس": 2713,
      "تان": 2714,
      "ستی": 2715,
      "گرفته": 2716,
      "زنده": 2717,
      "بلند": 2718,
      "لین": 2719,
      "میخوام": 2720,
      "؟!": 2721,
      "ارزو": 2722,
      "ازش": 2723,
      "مط": 2724,
      "کام": 2725,
      "ادت": 2726,
      "بوده": 2727,
      "مهر": 2728,
      "to": 2729,
      "علی": 2730,
      "کلی": 2731,
      "گذاشت": 2732,
      "ازی": 2733,
      "زمین": 2734,
      "يا": 2735,
      "جور": 2736,
      "خونه": 2737,
      "گشت": 2738,
      "واقعا": 2739,
      "مال": 2740,
      "smokingchannel": 2741,
      "بینم": 2742,
      "خواهم": 2743,
      "نظر": 2744,
      "رفی": 2745,
      "میاد": 2746,
      "انگی": 2747,
      "چي": 2748,
      "نمي": 2749,
      "خوبی": 2750,
      "دادن": 2751,
      "پرو": 2752,
      "رنگ": 2753,
      "بره": 2754,
      "بس": 2755,
      "موقع": 2756,
      "اینه": 2757,
      "اسم": 2758,
      "اشی": 2759,
      "بقیه": 2760,
      "بگوی": 2761,
      "رض": 2762,
      "ادامه": 2763,
      "حق": 2764,
      "کلا": 2765,
      "قول": 2766,
      "ذی": 2767,
      "میان": 2768,
      "افرا": 2769,
      "هزار": 2770,
      "رنج": 2771,
      "داریم": 2772,
      "ماند": 2773,
      "قا": 2774,
      "ونی": 2775,
      "نوشته": 2776,
      "كن": 2777,
      "چن": 2778,
      "منتظ": 2779,
      "IN": 2780,
      "تق": 2781,
      "ندارد": 2782,
      "شهر": 2783,
      "شخ": 2784,
      "سری": 2785,
      "خاطر": 2786,
      "طی": 2787,
      "ht": 2788,
      "اشک": 2789,
      "داستان": 2790,
      "فری": 2791,
      "عل": 2792,
      "فرست": 2793,
      "ذه": 2794,
      "هي": 2795,
      "قلبم": 2796,
      "صح": 2797,
      "راحت": 2798,
      "میشی": 2799,
      "بسی": 2800,
      "حد": 2801,
      "MO": 2802,
      "دف": 2803,
      "دام": 2804,
      "لذ": 2805,
      "نکن": 2806,
      "مید": 2807,
      "رام": 2808,
      "کلام": 2809,
      "بشی": 2810,
      "تلاش": 2811,
      "ازت": 2812,
      "دارند": 2813,
      "هرگز": 2814,
      "وا": 2815,
      "ساخ": 2816,
      "دیگری": 2817,
      "ING": 2818,
      "بک": 2819,
      "ایل": 2820,
      "باشیم": 2821,
      "نین": 2822,
      "جواب": 2823,
      "حالت": 2824,
      "SMO": 2825,
      "زیب": 2826,
      "SMOK": 2827,
      "بوی": 2828,
      "برم": 2829,
      "حسی": 2830,
      "خوام": 2831,
      "SMOKING": 2832,
      "ير": 2833,
      "بش": 2834,
      "تجر": 2835,
      "قل": 2836,
      "هایم": 2837,
      "میخواد": 2838,
      "اغوش": 2839,
      "نزدیک": 2840,
      ">>": 2841,
      "هام": 2842,
      "se": 2843,
      "شنی": 2844,
      "بدم": 2845,
      "زیاد": 2846,
      "be": 2847,
      "خور": 2848,
      "خند": 2849,
      "باهات": 2850,
      "صورت": 2851,
      "پدر": 2852,
      "شبیه": 2853,
      "باد": 2854,
      "بینی": 2855,
      "هیچکس": 2856,
      "تغی": 2857,
      "میده": 2858,
      "نگه": 2859,
      ".»": 2860,
      "بیدار": 2861,
      "یادم": 2862,
      "باشید": 2863,
      "غمگی": 2864,
      "مار": 2865,
      "کان": 2866,
      "خوان": 2867,
      "زمانی": 2868,
      "شوم": 2869,
      "اوم": 2870,
      "نیستی": 2871,
      "تونه": 2872,
      "رود": 2873,
      "اتا": 2874,
      "ابل": 2875,
      "خالی": 2876,
      "انتخ": 2877,
      "مادر": 2878,
      "براش": 2879,
      "دوم": 2880,
      "گذشته": 2881,
      "تونی": 2882,
      "مى": 2883,
      "دیدن": 2884,
      "دارن": 2885,
      "فل": 2886,
      "زندگیم": 2887,
      "نیستم": 2888,
      "اخرین": 2889,
      "جنگ": 2890,
      "سیگار": 2891,
      "رفتار": 2892,
      "حی": 2893,
      "ایه": 2894,
      "پرسی": 2895,
      "وسط": 2896,
      "فش": 2897,
      "لذت": 2898,
      "بذ": 2899,
      "بارون": 2900,
      "توانی": 2901,
      "اولین": 2902,
      "هایش": 2903,
      "میم": 2904,
      "هستم": 2905,
      "پار": 2906,
      "عوض": 2907,
      "فاص": 2908,
      "داده": 2909,
      "میشم": 2910,
      "اث": 2911,
      "تواند": 2912,
      "تجربه": 2913,
      "en": 2914,
      "خط": 2915,
      "هوا": 2916,
      "تش": 2917,
      "انتخاب": 2918,
      "خب": 2919,
      "منم": 2920,
      "زده": 2921,
      "یادت": 2922,
      "حوص": 2923,
      "تویی": 2924,
      "ایا": 2925,
      "پیام": 2926,
      "اوت": 2927,
      "تنگی": 2928,
      "میشن": 2929,
      "جمله": 2930,
      "عزی": 2931,
      "قدم": 2932,
      "كس": 2933,
      "فاصله": 2934,
      "غذ": 2935,
      "هاش": 2936,
      "خواهی": 2937,
      "مام": 2938,
      "کردیم": 2939,
      "پلی": 2940,
      "ti": 2941,
      "بخش": 2942,
      "جلو": 2943,
      "خره": 2944,
      "طول": 2945,
      "ایش": 2946,
      "نویس": 2947,
      "برگرد": 2948,
      "ارزش": 2949,
      "خي": 2950,
      "پول": 2951,
      "تغییر": 2952,
      "کجا": 2953,
      "ناراحت": 2954,
      "میگم": 2955,
      "سرم": 2956,
      "انتظ": 2957,
      ".\"": 2958,
      "سکوت": 2959,
      "دقیقه": 2960,
      "خلا": 2961,
      "فردا": 2962,
      "هيچ": 2963,
      "جل": 2964,
      "صف": 2965,
      "شنگی": 2966,
      "خیاب": 2967,
      "اروم": 2968,
      "پن": 2969,
      "اعتم": 2970,
      "خواد": 2971,
      "اشتباه": 2972,
      "پي": 2973,
      "دیا": 2974,
      "اور": 2975,
      "هیچی": 2976,
      "سرت": 2977,
      "ببین": 2978,
      "زیبایی": 2979,
      "گفته": 2980,
      "زبان": 2981,
      "دلتنگی": 2982,
      "بور": 2983,
      "اینجا": 2984,
      "مود": 2985,
      "ay": 2986,
      "....": 2987,
      "مثلا": 2988,
      "درون": 2989,
      "خبر": 2990,
      "طوری": 2991,
      "رها": 2992,
      "گرم": 2993,
      "میر": 2994,
      "ابت": 2995,
      "مونه": 2996,
      "te": 2997,
      "میت": 2998,
      "عادت": 2999,
      "امد": 3000,
      "دلبر": 3001,
      "قشنگی": 3002,
      "دروغ": 3003,
      "The": 3004,
      "جدید": 3005,
      "ستان": 3006,
      "سلام": 3007,
      "کلمه": 3008,
      "زي": 3009,
      "الو": 3010,
      "ترک": 3011,
      "نداشته": 3012,
      "تازه": 3013,
      "خته": 3014,
      "مخ": 3015,
      "بزنم": 3016,
      "تکر": 3017,
      "انچه": 3018,
      "دلش": 3019,
      "صو": 3020,
      "نمیشه": 3021,
      "خانو": 3022,
      "نتی": 3023,
      "کمی": 3024,
      "دیدی": 3025,
      "میدم": 3026,
      "درک": 3027,
      "بدید": 3028,
      "نيست": 3029,
      "عمی": 3030,
      "بزن": 3031,
      "خاطره": 3032,
      "موز": 3033,
      "دلتنگ": 3034,
      "اتو": 3035,
      "شام": 3036,
      "شعر": 3037,
      "انتظار": 3038,
      "عجی": 3039,
      "بسیار": 3040,
      "دادم": 3041,
      "چشما": 3042,
      "دیاکو": 3043,
      "رخ": 3044,
      "دیر": 3045,
      "سعی": 3046,
      "شاد": 3047,
      "وان": 3048,
      "روشن": 3049,
      "دنیای": 3050,
      "بازم": 3051,
      "منتظر": 3052,
      "گذشت": 3053,
      "زخم": 3054,
      "اتاق": 3055,
      "حل": 3056,
      "داشتی": 3057,
      "ریف": 3058,
      "صحبت": 3059,
      "دیده": 3060,
      "غیر": 3061,
      "تما": 3062,
      "عص": 3063,
      "ذهن": 3064,
      "عمر": 3065,
      "شخصی": 3066,
      "اعتماد": 3067,
      "ساده": 3068,
      "عت": 3069,
      "میرم": 3070,
      "میدونی": 3071,
      "تف": 3072,
      "زنگ": 3073,
      "اونی": 3074,
      "مانی": 3075,
      "چنان": 3076,
      "دانم": 3077,
      "قسمت": 3078,
      "نور": 3079,
      "ایست": 3080,
      "نباید": 3081,
      "بدن": 3082,
      "خوشبخ": 3083,
      "رانی": 3084,
      "نشی": 3085,
      "نشون": 3086,
      "دارید": 3087,
      "تول": 3088,
      "ندار": 3089,
      "تری": 3090,
      "كني": 3091,
      "ma": 3092,
      "گفتی": 3093,
      "//": 3094,
      "افظ": 3095,
      "علاقه": 3096,
      "ابر": 3097,
      "ستگی": 3098,
      "زیادی": 3099,
      "رفتم": 3100,
      "بغلت": 3101,
      "شکست": 3102,
      "میو": 3103,
      "خیر": 3104,
      "زندگیت": 3105,
      "رفیق": 3106,
      "ویی": 3107,
      "نشد": 3108,
      "يی": 3109,
      "پل": 3110,
      "مدت": 3111,
      "تحمل": 3112,
      "کا": 3113,
      "دری": 3114,
      "بیاد": 3115,
      "دانش": 3116,
      "الب": 3117,
      "هاست": 3118,
      "ابد": 3119,
      "خاطرات": 3120,
      "حوصله": 3121,
      "ادمای": 3122,
      "افراد": 3123,
      "سیاه": 3124,
      "جن": 3125,
      "چار": 3126,
      "نشان": 3127,
      "بریم": 3128,
      "))": 3129,
      "ll": 3130,
      "of": 3131,
      "عم": 3132,
      "چیه": 3133,
      "گان": 3134,
      "درس": 3135,
      "معنی": 3136,
      "my": 3137,
      "حر": 3138,
      "خندی": 3139,
      "موسی": 3140,
      "هنگ": 3141,
      "لط": 3142,
      "كنم": 3143,
      "رفتی": 3144,
      "پرد": 3145,
      "خوبه": 3146,
      "پنجره": 3147,
      "om": 3148,
      "حقی": 3149,
      "زش": 3150,
      "لان": 3151,
      "خون": 3152,
      "معمو": 3153,
      "رژ": 3154,
      "سفر": 3155,
      "كر": 3156,
      "مست": 3157,
      "خل": 3158,
      "پاک": 3159,
      "خوابی": 3160,
      "زنی": 3161,
      "مهی": 3162,
      "موزیک": 3163,
      "موف": 3164,
      "خواستم": 3165,
      "بودنت": 3166,
      "چطور": 3167,
      "de": 3168,
      "ببینم": 3169,
      "غمگین": 3170,
      "بگیر": 3171,
      "موسیقی": 3172,
      "نقاشی": 3173,
      "وای": 3174,
      "فرق": 3175,
      "متن": 3176,
      "اینو": 3177,
      "تماش": 3178,
      "احساسات": 3179,
      "ps": 3180,
      "راست": 3181,
      "چهار": 3182,
      "گوشه": 3183,
      "کوچک": 3184,
      "کود": 3185,
      "رور": 3186,
      "موند": 3187,
      "it": 3188,
      "no": 3189,
      "میکنن": 3190,
      "سیر": 3191,
      "حالم": 3192,
      "ثان": 3193,
      "دعو": 3194,
      "مانده": 3195,
      "بودیم": 3196,
      "شرای": 3197,
      "فا": 3198,
      "درباره": 3199,
      "سلی": 3200,
      "لای": 3201,
      "بون": 3202,
      "قو": 3203,
      "بفرست": 3204,
      "قوی": 3205,
      "گوشی": 3206,
      "فک": 3207,
      "خودمان": 3208,
      "کدام": 3209,
      "روان": 3210,
      "بح": 3211,
      "نیمه": 3212,
      "بوسی": 3213,
      "://": 3214,
      "اینجوری": 3215,
      "نیز": 3216,
      "گربه": 3217,
      "قهر": 3218,
      "میره": 3219,
      "گفتن": 3220,
      "بخشی": 3221,
      "بشن": 3222,
      "htt": 3223,
      "پری": 3224,
      "یهو": 3225,
      "بلد": 3226,
      "تصمیم": 3227,
      "دوسش": 3228,
      "پاییز": 3229,
      "زل": 3230,
      "ترسی": 3231,
      "عاشقانه": 3232,
      "ساز": 3233,
      "واست": 3234,
      "میکردم": 3235,
      "اینده": 3236,
      "توانم": 3237,
      "ver": 3238,
      "دانی": 3239,
      "لباس": 3240,
      "اشو": 3241,
      "وقتا": 3242,
      "fe": 3243,
      "چگونه": 3244,
      "بخاط": 3245,
      "میشود": 3246,
      "شاه": 3247,
      "بیکلام": 3248,
      "کمک": 3249,
      "قشنگه": 3250,
      "چشمان": 3251,
      "بابا": 3252,
      "دیوانه": 3253,
      "مات": 3254,
      "ولو": 3255,
      "گوشش": 3256,
      "es": 3257,
      "دیوونه": 3258,
      "بشم": 3259,
      "لي": 3260,
      "مص": 3261,
      "میشد": 3262,
      "بغلم": 3263,
      "عال": 3264,
      "حالی": 3265,
      "چس": 3266,
      "باران": 3267,
      "سرا": 3268,
      "شوق": 3269,
      "بوسه": 3270,
      "خاص": 3271,
      "چنین": 3272,
      "پایان": 3273,
      "میکند": 3274,
      "کوتاه": 3275,
      "خودتو": 3276,
      "راهی": 3277,
      "خوند": 3278,
      "سط": 3279,
      "کنارت": 3280,
      "بلکه": 3281,
      "دقیقا": 3282,
      "تعریف": 3283,
      "نسبت": 3284,
      "ــــ": 3285,
      "ممکن": 3286,
      "غر": 3287,
      "بودند": 3288,
      "عمیق": 3289,
      "ri": 3290,
      "غصه": 3291,
      "وارد": 3292,
      "رویا": 3293,
      "سوال": 3294,
      "سن": 3295,
      "اندو": 3296,
      "واسم": 3297,
      "خار": 3298,
      "ایند": 3299,
      "...!": 3300,
      "ناراحتی": 3301,
      "مغز": 3302,
      "پناه": 3303,
      "اله": 3304,
      "استف": 3305,
      "غرق": 3306,
      "وع": 3307,
      "کافی": 3308,
      "ثانیه": 3309,
      "مونی": 3310,
      "اتی": 3311,
      "قف": 3312,
      "ag": 3313,
      "جب": 3314,
      "شادی": 3315,
      "عصب": 3316,
      "ارید": 3317,
      "استفاده": 3318,
      "کردند": 3319,
      "افسرد": 3320,
      "تبدی": 3321,
      "تولد": 3322,
      "تبدیل": 3323,
      "https": 3324,
      "خر": 3325,
      "ستن": 3326,
      "ستاره": 3327,
      "اشن": 3328,
      "درخت": 3329,
      "مدر": 3330,
      "اثر": 3331,
      "گیری": 3332,
      "دک": 3333,
      "مدی": 3334,
      "وف": 3335,
      "دوستش": 3336,
      "ناک": 3337,
      "تکرار": 3338,
      "بخاطر": 3339,
      "ho": 3340,
      "يت": 3341,
      "برنامه": 3342,
      "بزنی": 3343,
      "برمی": 3344,
      "اقت": 3345,
      "روش": 3346,
      "نگران": 3347,
      "گوید": 3348,
      "انرژ": 3349,
      "خورده": 3350,
      "حم": 3351,
      "زدم": 3352,
      "برگ": 3353,
      "نهاد": 3354,
      "کشید": 3355,
      "دیوار": 3356,
      "تصور": 3357,
      "ماش": 3358,
      "دیه": 3359,
      "مطمي": 3360,
      "معن": 3361,
      "گرفتم": 3362,
      "اسمان": 3363,
      "کسانی": 3364,
      "تلخ": 3365,
      "سد": 3366,
      "مانند": 3367,
      "hat": 3368,
      "غذا": 3369,
      "جون": 3370,
      "ذوق": 3371,
      "كار": 3372,
      "ژه": 3373,
      "انکه": 3374,
      "رسد": 3375,
      "غری": 3376,
      "اقل": 3377,
      "جدا": 3378,
      "دوری": 3379,
      "بغض": 3380,
      "میگن": 3381,
      "دادی": 3382,
      "دخت": 3383,
      "رک": 3384,
      "هدف": 3385,
      "as": 3386,
      "قان": 3387,
      "مگه": 3388,
      "هرچی": 3389,
      "شکل": 3390,
      "وقتایی": 3391,
      "جاد": 3392,
      "خاک": 3393,
      "یار": 3394,
      "روم": 3395,
      "اخه": 3396,
      "اظ": 3397,
      "منه": 3398,
      "نمیتونم": 3399,
      "همش": 3400,
      "احت": 3401,
      "ضعی": 3402,
      "ke": 3403,
      "ظاه": 3404,
      "توام": 3405,
      "زندگي": 3406,
      "میبینم": 3407,
      "مرده": 3408,
      "کامل": 3409,
      "صوتی": 3410,
      "دکتر": 3411,
      "بسته": 3412,
      "ﺭﺍ": 3413,
      "واقع": 3414,
      "عزیز": 3415,
      "شاملو": 3416,
      "همو": 3417,
      "اهمیت": 3418,
      "انرژی": 3419,
      "خودمو": 3420,
      "اوری": 3421,
      "متوجه": 3422,
      "فایل": 3423,
      "رسیدن": 3424,
      "شویم": 3425,
      "چهر": 3426,
      "حتما": 3427,
      "امشب": 3428,
      "ـــ": 3429,
      "تاریکی": 3430,
      "ایران": 3431,
      "بات": 3432,
      "وده": 3433,
      "اونقدر": 3434,
      "هوای": 3435,
      "رضا": 3436,
      "wi": 3437,
      "میری": 3438,
      "براي": 3439,
      "جاست": 3440,
      "هفت": 3441,
      "هنر": 3442,
      "حض": 3443,
      "وال": 3444,
      "شلو": 3445,
      "قض": 3446,
      "بعدش": 3447,
      "مشکلا": 3448,
      "امون": 3449,
      "ﻮﺩ": 3450,
      "بحث": 3451,
      "وت": 3452,
      "چقد": 3453,
      "میل": 3454,
      "بهار": 3455,
      "هستیم": 3456,
      "مسي": 3457,
      "خانواده": 3458,
      "سنگ": 3459,
      "لاق": 3460,
      "رسید": 3461,
      "تاریک": 3462,
      "تره": 3463,
      "گرفتن": 3464,
      "عین": 3465,
      "اذی": 3466,
      "کنارم": 3467,
      "ديگر": 3468,
      "فرص": 3469,
      "خواهند": 3470,
      "اجازه": 3471,
      "كردم": 3472,
      "فكر": 3473,
      "You": 3474,
      "𝗈𝗎": 3475,
      "پیر": 3476,
      "ساله": 3477,
      "جذ": 3478,
      "قدرت": 3479,
      "اپ": 3480,
      "همراه": 3481,
      "قراره": 3482,
      "مجبور": 3483,
      "بگویم": 3484,
      "سي": 3485,
      "قلبت": 3486,
      "پذی": 3487,
      "چو": 3488,
      "کمتر": 3489,
      "بهشت": 3490,
      "تلف": 3491,
      "چيز": 3492,
      "are": 3493,
      "بگه": 3494,
      "روزها": 3495,
      "راف": 3496,
      "برایت": 3497,
      "شناسی": 3498,
      "عجیب": 3499,
      "چشمات": 3500,
      "عصبانی": 3501,
      "دریافت": 3502,
      "دهم": 3503,
      "زنم": 3504,
      "فرار": 3505,
      "خورشید": 3506,
      "تت": 3507,
      "اینا": 3508,
      "پایین": 3509,
      "ce": 3510,
      "سفی": 3511,
      "میدی": 3512,
      "بايد": 3513,
      "سیم": 3514,
      "اریم": 3515,
      "میخوای": 3516,
      "تاری": 3517,
      "ضر": 3518,
      "طبی": 3519,
      "خوردن": 3520,
      "عطر": 3521,
      "ترسم": 3522,
      "مشکل": 3523,
      "پیشنهاد": 3524,
      "ut": 3525,
      "ببینی": 3526,
      "𝗜𝗡": 3527,
      "𝗞𝗜𝗡": 3528,
      "𝗠𝗢": 3529,
      "𝗦𝗠𝗢": 3530,
      "انقد": 3531,
      "باشند": 3532,
      "𝗞𝗜𝗡𝗚": 3533,
      "𝗦𝗠𝗢𝗞𝗜𝗡𝗚": 3534,
      "سف": 3535,
      "نشده": 3536,
      "پنه": 3537,
      "حه": 3538,
      "شکر": 3539,
      "Ch": 3540,
      "برف": 3541,
      "اونجا": 3542,
      "افتاد": 3543,
      "دهند": 3544,
      "ادمها": 3545,
      "حسین": 3546,
      "!!": 3547,
      "et": 3548,
      "سنگی": 3549,
      "اتش": 3550,
      "هفته": 3551,
      "شناس": 3552,
      "تصوی": 3553,
      "فهمیدم": 3554,
      "كند": 3555,
      "مگر": 3556,
      "سرش": 3557,
      "حساب": 3558,
      "بگیرم": 3559,
      "شرایط": 3560,
      "شدیم": 3561,
      "کتا": 3562,
      "ﺑﺎ": 3563,
      "ﻣﯽ": 3564,
      "ریان": 3565,
      "RO": 3566,
      "ـی": 3567,
      "باقی": 3568,
      "دیالو": 3569,
      "ماهی": 3570,
      "وح": 3571,
      "باشن": 3572,
      "دوستم": 3573,
      "شناخ": 3574,
      "نشسته": 3575,
      "بالاخره": 3576,
      "بست": 3577,
      "قابل": 3578,
      "پذ": 3579,
      "نمیدونم": 3580,
      "XY": 3581,
      "com": 3582,
      "نهایت": 3583,
      "میک": 3584,
      "گیرد": 3585,
      "کشیدن": 3586,
      "all": 3587,
      "حمید": 3588,
      "باط": 3589,
      "سین": 3590,
      "PRO": 3591,
      "واقعیت": 3592,
      "اندوه": 3593,
      "ماشین": 3594,
      "PROXY": 3595,
      "بمون": 3596,
      "جوی": 3597,
      "صبر": 3598,
      "افکار": 3599,
      "امیدو": 3600,
      "ادر": 3601,
      "ونم": 3602,
      "لازم": 3603,
      "ترجی": 3604,
      "افتاده": 3605,
      "میتونه": 3606,
      "سختی": 3607,
      "نباشد": 3608,
      "گاری": 3609,
      "ﻧﺪ": 3610,
      "ازادی": 3611,
      "اسمون": 3612,
      "ig": 3613,
      "تکست": 3614,
      "روند": 3615,
      "جلوی": 3616,
      "خیابان": 3617,
      "سبز": 3618,
      "عباس": 3619,
      "ناز": 3620,
      "میخ": 3621,
      "طولانی": 3622,
      "یو": 3623,
      "ﮐﻪ": 3624,
      "روزهای": 3625,
      "قدی": 3626,
      "لت": 3627,
      "ابم": 3628,
      "بنوی": 3629,
      "قهو": 3630,
      "گلی": 3631,
      "میگذ": 3632,
      "برق": 3633,
      "میزنه": 3634,
      "تکه": 3635,
      "همونی": 3636,
      "هستن": 3637,
      "مردی": 3638,
      "ترجیح": 3639,
      "نقط": 3640,
      "ایده": 3641,
      "هایمان": 3642,
      "دستم": 3643,
      "کوچه": 3644,
      "میتونم": 3645,
      "قهوه": 3646,
      "سع": 3647,
      "پاس": 3648,
      "انجا": 3649,
      "at": 3650,
      "نک": 3651,
      "کال": 3652,
      "اونا": 3653,
      "خوشبختی": 3654,
      "ﺑﻪ": 3655,
      "امده": 3656,
      "تیکه": 3657,
      "شنبه": 3658,
      "نقطه": 3659,
      "نباشه": 3660,
      "همي": 3661,
      "مقابل": 3662,
      "غرو": 3663,
      "تاث": 3664,
      "جوان": 3665,
      "حقیقت": 3666,
      "میگفت": 3667,
      "وقتي": 3668,
      "ot": 3669,
      "خص": 3670,
      "کنین": 3671,
      "امیر": 3672,
      "غه": 3673,
      "كنه": 3674,
      "لوم": 3675,
      "nd": 3676,
      "حاض": 3677,
      "کور": 3678,
      "بول": 3679,
      "میخواست": 3680,
      "شنیدن": 3681,
      "پرسید": 3682,
      "فض": 3683,
      "فظ": 3684,
      "لع": 3685,
      "میدونم": 3686,
      "ختم": 3687,
      "خودمون": 3688,
      "تونستم": 3689,
      "محکم": 3690,
      "_ق": 3691,
      "خستگی": 3692,
      "ld": 3693,
      "بانی": 3694,
      "تونو": 3695,
      "الت": 3696,
      "شیم": 3697,
      "ديگه": 3698,
      "دود": 3699,
      "نباشی": 3700,
      "اومد": 3701,
      "بچ": 3702,
      "نکنه": 3703,
      "هارو": 3704,
      "چای": 3705,
      "لات": 3706,
      "اقای": 3707,
      "سخن": 3708,
      "خا": 3709,
      "ﺩﺭ": 3710,
      "اشون": 3711,
      "برید": 3712,
      "کشیده": 3713,
      "موض": 3714,
      "بزنیم": 3715,
      "دعوا": 3716,
      "کدوم": 3717,
      "الا": 3718,
      "بوس": 3719,
      "گویی": 3720,
      "احترام": 3721,
      "ir": 3722,
      "جد": 3723,
      "شبا": 3724,
      "بیم": 3725,
      "استرس": 3726,
      "خوای": 3727,
      "کننده": 3728,
      "یکم": 3729,
      "محمد": 3730,
      "میتونی": 3731,
      "سک": 3732,
      "مسیر": 3733,
      "ram": 3734,
      "radio_chehraziii": 3735,
      "افتاب": 3736,
      "خواسته": 3737,
      "Smoking": 3738,
      "زاد": 3739,
      "بیان": 3740,
      "نوع": 3741,
      "برگشت": 3742,
      "هوش": 3743,
      "خوشحالی": 3744,
      "بذار": 3745,
      "خلاصه": 3746,
      "Channel": 3747,
      "دیالوگ": 3748,
      "خامو": 3749,
      "ابه": 3750,
      "پارتن": 3751,
      "ro": 3752,
      "خراب": 3753,
      "شتی": 3754,
      "خوی": 3755,
      "معرو": 3756,
      "پرت": 3757,
      "ممکنه": 3758,
      "چجوری": 3759,
      "منظ": 3760,
      "موقعی": 3761,
      "انگیزه": 3762,
      "ab": 3763,
      "بزر": 3764,
      "واسش": 3765,
      "گویم": 3766,
      "صاد": 3767,
      "صرف": 3768,
      "انگشت": 3769,
      "باب": 3770,
      "نتیجه": 3771,
      "ad": 3772,
      "ببند": 3773,
      "بخیر": 3774,
      "ري": 3775,
      "سان": 3776,
      "فص": 3777,
      "مخت": 3778,
      "نخواهد": 3779,
      "پست": 3780,
      "ادمایی": 3781,
      "بفهم": 3782,
      "واب": 3783,
      "اینقدر": 3784,
      "بزنه": 3785,
      "انگیز": 3786,
      "SmokingChannel": 3787,
      "el": 3788,
      "سایه": 3789,
      "توست": 3790,
      "احمد": 3791,
      "سریال": 3792,
      "ذره": 3793,
      "منط": 3794,
      "روحی": 3795,
      "مامان": 3796,
      "متنفر": 3797,
      "فرصت": 3798,
      "میکنیم": 3799,
      "ویت": 3800,
      "نظرم": 3801,
      "بگذار": 3802,
      "؟»": 3803,
      "بدونی": 3804,
      "صمی": 3805,
      "یی": 3806,
      "شي": 3807,
      "معشوق": 3808,
      "نجات": 3809,
      "بگید": 3810,
      "مدام": 3811,
      "نباش": 3812,
      "ايد": 3813,
      "نویسنده": 3814,
      "am": 3815,
      "زاده": 3816,
      "مند": 3817,
      "نکنید": 3818,
      "ﺍﺯ": 3819,
      "ﻨﺪ": 3820,
      "اندا": 3821,
      "ازدو": 3822,
      "شدت": 3823,
      "خودتون": 3824,
      "بفهمی": 3825,
      "عمل": 3826,
      "نکرده": 3827,
      "چیک": 3828,
      "دراز": 3829,
      "برابر": 3830,
      "ازدواج": 3831,
      "خش": 3832,
      "کنارش": 3833,
      "لمس": 3834,
      "بخون": 3835,
      "نمیاد": 3836,
      "گویند": 3837,
      "پرواز": 3838,
      "پنهان": 3839,
      "for": 3840,
      "خوشی": 3841,
      "اتفاقی": 3842,
      "افسردگی": 3843,
      "si": 3844,
      "ودی": 3845,
      "چیزهایی": 3846,
      "میزنم": 3847,
      "ذهنم": 3848,
      "ساخته": 3849,
      "خری": 3850,
      "زمی": 3851,
      "..!": 3852,
      "خودشان": 3853,
      "رمز": 3854,
      "البته": 3855,
      "نبودن": 3856,
      "داشتنت": 3857,
      "کشور": 3858,
      "سکی": 3859,
      "ضع": 3860,
      "اشنا": 3861,
      "بارها": 3862,
      "کوچولو": 3863,
      "معمولی": 3864,
      "گرو": 3865,
      "سراغ": 3866,
      "احتم": 3867,
      "خواهیم": 3868,
      "ظاهر": 3869,
      "بم": 3870,
      "مونده": 3871,
      "هنوزم": 3872,
      "خدایا": 3873,
      "عد": 3874,
      "مبار": 3875,
      "ناشن": 3876,
      "هرو": 3877,
      "لیست": 3878,
      "سفید": 3879,
      "پذیر": 3880,
      "ed": 3881,
      "غل": 3882,
      "هستید": 3883,
      "متف": 3884,
      "مطمين": 3885,
      "بلا": 3886,
      "قصه": 3887,
      "كل": 3888,
      "يل": 3889,
      "میکرد": 3890,
      "ايي": 3891,
      "art": 3892,
      "سلیمی": 3893,
      "حضور": 3894,
      "amiralichannel": 3895,
      "توش": 3896,
      "امتح": 3897,
      "نگو": 3898,
      "سالگی": 3899,
      "زنان": 3900,
      "فتم": 3901,
      "گذر": 3902,
      "چیزایی": 3903,
      "بگیری": 3904,
      "رسیده": 3905,
      "نداشتم": 3906,
      "تماشا": 3907,
      "ببر": 3908,
      "دچار": 3909,
      "راز": 3910,
      "رشد": 3911,
      "رنگی": 3912,
      "هد": 3913,
      "ياد": 3914,
      "ﺩﺍ": 3915,
      "ﺮﺍ": 3916,
      "برایش": 3917,
      "دستش": 3918,
      "قبول": 3919,
      "کوچیک": 3920,
      "مشکلات": 3921,
      "جریان": 3922,
      "سوی": 3923,
      "منفی": 3924,
      "شیرین": 3925,
      "دوستان": 3926,
      "نوان": 3927,
      "اغو": 3928,
      "صادق": 3929,
      "جع": 3930,
      "برایم": 3931,
      "محبت": 3932,
      "شکسته": 3933,
      "گذاشته": 3934,
      "la": 3935,
      "باری": 3936,
      "لر": 3937,
      "نخ": 3938,
      "ﺎﻥ": 3939,
      "ww": 3940,
      "ستون": 3941,
      "بهشون": 3942,
      "توضی": 3943,
      "ترا": 3944,
      "دونه": 3945,
      "نبودی": 3946,
      "ارن": 3947,
      "کلاس": 3948,
      "خواهید": 3949,
      "اجتما": 3950,
      "شخصیت": 3951,
      "نیت": 3952,
      "دین": 3953,
      "دستت": 3954,
      "تند": 3955,
      "ریک": 3956,
      "ترکی": 3957,
      "خیره": 3958,
      "فشار": 3959,
      "قانون": 3960,
      "قدیمی": 3961,
      "ur": 3962,
      "كو": 3963,
      "ماست": 3964,
      "ورد": 3965,
      "هران": 3966,
      "روزا": 3967,
      "فیل": 3968,
      "هروقت": 3969,
      "جدی": 3970,
      "ختن": 3971,
      "لق": 3972,
      "خودشون": 3973,
      "چیست": 3974,
      "احمق": 3975,
      "موفقی": 3976,
      "بعض": 3977,
      "نداریم": 3978,
      "ss": 3979,
      "خال": 3980,
      "صر": 3981,
      "گند": 3982,
      "نبوده": 3983,
      "un": 3984,
      "بمان": 3985,
      "كي": 3986,
      "مشغ": 3987,
      "دختری": 3988,
      "sh": 3989,
      "درا": 3990,
      "فار": 3991,
      "زندگ": 3992,
      "بدتر": 3993,
      "کوه": 3994,
      "ارتباط": 3995,
      "خاموش": 3996,
      "امتحان": 3997,
      "ـه": 3998,
      "میبینی": 3999,
      "نگر": 4000,
      "پیشی": 4001,
      "مراقب": 4002,
      "بپر": 4003,
      "ﻫﺎ": 4004,
      "اصل": 4005,
      "شوید": 4006,
      "لطفا": 4007,
      "تاریخ": 4008,
      "ter": 4009,
      "محبو": 4010,
      "جامعه": 4011,
      "stag": 4012,
      "موضوع": 4013,
      "اگاه": 4014,
      "فهمه": 4015,
      "هاى": 4016,
      "هرچه": 4017,
      "نزار": 4018,
      "توانیم": 4019,
      "صفحه": 4020,
      "ly": 4021,
      "حسرت": 4022,
      "حافظ": 4023,
      "ختی": 4024,
      "زیرا": 4025,
      "لانا": 4026,
      "موفق": 4027,
      "چهره": 4028,
      "تب": 4029,
      "تهران": 4030,
      "زور": 4031,
      "كم": 4032,
      "چرخ": 4033,
      "𝗋𝖾": 4034,
      "روزای": 4035,
      "معنای": 4036,
      "we": 4037,
      "حفظ": 4038,
      "نکنم": 4039,
      "چر": 4040,
      "سینه": 4041,
      "ديو": 4042,
      "اغاز": 4043,
      "توضیح": 4044,
      "ا_": 4045,
      "میلی": 4046,
      "خیابون": 4047,
      "دانشگاه": 4048,
      "هنگام": 4049,
      "چیکار": 4050,
      "stagram": 4051,
      "احتی": 4052,
      "باهام": 4053,
      "خداح": 4054,
      "هميشه": 4055,
      "that": 4056,
      "لف": 4057,
      "حرفی": 4058,
      "جمعه": 4059,
      "مدرسه": 4060,
      "one": 4061,
      "شور": 4062,
      "نکنی": 4063,
      "ریت": 4064,
      "علاق": 4065,
      "خداحافظ": 4066,
      "\".": 4067,
      "عنوان": 4068,
      "بیشت": 4069,
      "انیم": 4070,
      "پرنده": 4071,
      "فصل": 4072,
      "تنه": 4073,
      "شنو": 4074,
      "بیست": 4075,
      "داغ": 4076,
      "گناه": 4077,
      "تخت": 4078,
      "خشم": 4079,
      "𝗆𝖾": 4080,
      "بدترین": 4081,
      "کینگ": 4082,
      "جاش": 4083,
      "مرور": 4084,
      "کنون": 4085,
      "تفاوت": 4086,
      "بن": 4087,
      "بکشی": 4088,
      "دوستی": 4089,
      "براى": 4090,
      "محمود": 4091,
      "عذ": 4092,
      "نبودم": 4093,
      "سیوش": 4094,
      "اسب": 4095,
      "نیستند": 4096,
      "مثبت": 4097,
      "بگیره": 4098,
      "میگیره": 4099,
      "دش": 4100,
      "دای": 4101,
      "شکی": 4102,
      "عالی": 4103,
      "اندی": 4104,
      "مولانا": 4105,
      "فردی": 4106,
      "زودتر": 4107,
      "په": 4108,
      "گور": 4109,
      "بیاید": 4110,
      "خودتان": 4111,
      "غروب": 4112,
      "ناشناس": 4113,
      "sa": 4114,
      "روت": 4115,
      "فرزند": 4116,
      "داشتنی": 4117,
      "سالم": 4118,
      "کسایی": 4119,
      "کلمات": 4120,
      "واژه": 4121,
      "سبک": 4122,
      "بران": 4123,
      "یادش": 4124,
      "زدی": 4125,
      "كنار": 4126,
      "وط": 4127,
      "بهانه": 4128,
      "ندارند": 4129,
      "تز": 4130,
      "تي": 4131,
      "رن": 4132,
      "زان": 4133,
      "لبا": 4134,
      "توصی": 4135,
      "مادرم": 4136,
      "پاي": 4137,
      "رافی": 4138,
      "هربار": 4139,
      ":))": 4140,
      "کاملا": 4141,
      "پيش": 4142,
      "خم": 4143,
      "سگ": 4144,
      "ازاد": 4145,
      "اواز": 4146,
      "سالی": 4147,
      "افتد": 4148,
      "پوست": 4149,
      "تصویر": 4150,
      "ant": 4151,
      "ميشه": 4152,
      "افه": 4153,
      "لوت": 4154,
      "دردی": 4155,
      "خوابم": 4156,
      "عصبی": 4157,
      "with": 4158,
      "صور": 4159,
      "عرو": 4160,
      "میفهمی": 4161,
      "ریزی": 4162,
      "دوره": 4163,
      "اوی": 4164,
      "انسانی": 4165,
      "بيش": 4166,
      ".”": 4167,
      "pe": 4168,
      "ust": 4169,
      "حو": 4170,
      "کری": 4171,
      "نمیتونی": 4172,
      "گرفتی": 4173,
      "روزگار": 4174,
      "فریاد": 4175,
      "رب": 4176,
      "هشت": 4177,
      "درمان": 4178,
      "برداشت": 4179,
      "اينكه": 4180,
      "تاثیر": 4181,
      "ساع": 4182,
      "ممن": 4183,
      "نره": 4184,
      "اسیب": 4185,
      "اگ": 4186,
      "ایرانی": 4187,
      "نیس": 4188,
      "چین": 4189,
      "In": 4190,
      "مـ": 4191,
      "نشه": 4192,
      "ﺮﺩ": 4193,
      "ﻮﺍ": 4194,
      "پید": 4195,
      "نشست": 4196,
      "امیرعلی": 4197,
      "ساک": 4198,
      "مشت": 4199,
      "شیر": 4200,
      "نمیکنه": 4201,
      "گردن": 4202,
      "شخص": 4203,
      "قضاوت": 4204,
      "چت": 4205,
      "ازد": 4206,
      "خيلي": 4207,
      "قیا": 4208,
      "يي": 4209,
      "گردم": 4210,
      "اى": 4211,
      "ثابت": 4212,
      "داند": 4213,
      "𝗒𝗈𝗎": 4214,
      "میکنند": 4215,
      "بدبخ": 4216,
      "اخرش": 4217,
      "ساخت": 4218,
      "عصر": 4219,
      "موفقیت": 4220,
      "جال": 4221,
      "زنه": 4222,
      "قرمز": 4223,
      "احساسی": 4224,
      "كردن": 4225,
      "گذاشتم": 4226,
      "سعدی": 4227,
      "جنس": 4228,
      "ﺳﺖ": 4229,
      "ندان": 4230,
      "رواب": 4231,
      "نمیکنم": 4232,
      "بخشید": 4233,
      "چشمای": 4234,
      "میزنی": 4235,
      "نوشتن": 4236,
      "حداقل": 4237,
      "شانه": 4238,
      "نکردم": 4239,
      "هاتو": 4240,
      "ايل": 4241,
      "پیشرفت": 4242,
      "برود": 4243,
      "رقص": 4244,
      "؟\"": 4245,
      "جست": 4246,
      "پور": 4247,
      "درگیر": 4248,
      "بیند": 4249,
      "كسي": 4250,
      "ca": 4251,
      "بدیم": 4252,
      "جمه": 4253,
      "نرم": 4254,
      "وضعی": 4255,
      "ویم": 4256,
      "اصن": 4257,
      "افرادی": 4258,
      "عزیزم": 4259,
      "خطر": 4260,
      "نذ": 4261,
      "الکی": 4262,
      "دوتا": 4263,
      "گیره": 4264,
      "ماندن": 4265,
      "مرز": 4266,
      "اصلی": 4267,
      "پاسخ": 4268,
      "اجتماعی": 4269,
      "احتیاج": 4270,
      "اپی": 4271,
      "وگر": 4272,
      "یخ": 4273,
      "تور": 4274,
      "برخورد": 4275,
      "انید": 4276,
      "قطع": 4277,
      "معجز": 4278,
      "تونن": 4279,
      "بين": 4280,
      "روابط": 4281,
      "عقب": 4282,
      "حرکت": 4283,
      "vi": 4284,
      "عط": 4285,
      "پشی": 4286,
      "دیروز": 4287,
      "ترين": 4288,
      "یکدیگر": 4289,
      "برده": 4290,
      "خویش": 4291,
      "ki": 4292,
      "خرد": 4293,
      "امن": 4294,
      "اذیت": 4295,
      "بامن": 4296,
      "استاد": 4297,
      "ورزش": 4298,
      "مختلف": 4299,
      "جنگی": 4300,
      "خانم": 4301,
      "چاره": 4302,
      "باغ": 4303,
      "سید": 4304,
      "پیچی": 4305,
      "نوازش": 4306,
      "وقته": 4307,
      "توانایی": 4308,
      "نوشتم": 4309,
      "جاده": 4310,
      "شکو": 4311,
      "مز": 4312,
      "پاش": 4313,
      "خوری": 4314,
      "instagram": 4315,
      "بهتری": 4316,
      "كرده": 4317,
      "خاصی": 4318,
      "بروی": 4319,
      "بنویس": 4320,
      "سا": 4321,
      "خوشم": 4322,
      "پیاده": 4323,
      "دنيا": 4324,
      "رضایی": 4325,
      "ذهنت": 4326,
      "بکشم": 4327,
      "بـ": 4328,
      "ژن": 4329,
      "کث": 4330,
      "کف": 4331,
      "میام": 4332,
      "ردی": 4333,
      "معت": 4334,
      "تلفن": 4335,
      "؟؟": 4336,
      "جانم": 4337,
      "صال": 4338,
      "نقش": 4339,
      "اسمو": 4340,
      "بزنید": 4341,
      "گردد": 4342,
      "مهربون": 4343,
      "pa": 4344,
      "میدون": 4345,
      "همين": 4346,
      "نفهمی": 4347,
      "کودکی": 4348,
      "دق": 4349,
      "رای": 4350,
      "صاح": 4351,
      "ریه": 4352,
      "فرشته": 4353,
      "اونم": 4354,
      "حرفای": 4355,
      "شش": 4356,
      "ناب": 4357,
      "」#": 4358,
      "شدند": 4359,
      "توانند": 4360,
      "فره": 4361,
      "بخندی": 4362,
      "امیدی": 4363,
      "سخته": 4364,
      "اضط": 4365,
      "خندید": 4366,
      "مشغول": 4367,
      "توصیف": 4368,
      "لود": 4369,
      "نکرد": 4370,
      "دوی": 4371,
      "زخمی": 4372,
      "كنيم": 4373,
      "وگرنه": 4374,
      "هدیه": 4375,
      "ازار": 4376,
      "نمیتونه": 4377,
      "ind": 4378,
      "براتون": 4379,
      "بغلش": 4380,
      "اسموکینگ": 4381,
      "افر": 4382,
      "صند": 4383,
      "ﺎﺭ": 4384,
      "𝗂𝗇": 4385,
      "جهنم": 4386,
      "خوشحالم": 4387,
      "اکنون": 4388,
      "تـ": 4389,
      "برسد": 4390,
      "خودشو": 4391,
      "دهیم": 4392,
      "ابراهی": 4393,
      "اونایی": 4394,
      "صدات": 4395,
      "يكي": 4396,
      "معجزه": 4397,
      "^^": 4398,
      "».": 4399,
      "عق": 4400,
      "وم": 4401,
      "میمونه": 4402,
      "ایجاد": 4403,
      "گیرم": 4404,
      "شیری": 4405,
      "اوج": 4406,
      "اقا": 4407,
      "عاشقی": 4408,
      "بگیرید": 4409,
      "نسخ": 4410,
      "كنند": 4411,
      "حواست": 4412,
      "يک": 4413,
      "گره": 4414,
      "هرچقدر": 4415,
      "بعدی": 4416,
      "کافه": 4417,
      "ng": 4418,
      "جفت": 4419,
      "خرید": 4420,
      "ناگه": 4421,
      "نصف": 4422,
      "امنیت": 4423,
      "هایشان": 4424,
      "خودکشی": 4425,
      "هرجا": 4426,
      "نگاهت": 4427,
      "مسخره": 4428,
      "فهمم": 4429,
      "متفاوت": 4430,
      "بفر": 4431,
      "تای": 4432,
      "جسم": 4433,
      "حذ": 4434,
      "عادی": 4435,
      "میذ": 4436,
      "بهتون": 4437,
      "شیشه": 4438,
      "نیستن": 4439,
      "ارزوی": 4440,
      "وجودم": 4441,
      "دانلود": 4442,
      "قبلا": 4443,
      "اضافه": 4444,
      "اضطراب": 4445,
      "ow": 4446,
      "جبران": 4447,
      "اینست": 4448,
      "دوش": 4449,
      "مهدیه": 4450,
      "thing": 4451,
      "بسیاری": 4452,
      "هامون": 4453,
      "خلق": 4454,
      "غریبه": 4455,
      "خلوت": 4456,
      "توسط": 4457,
      "بیخیال": 4458,
      "اهل": 4459,
      "حسن": 4460,
      "عاشقت": 4461,
      "مجمو": 4462,
      "بب": 4463,
      "حواسم": 4464,
      "قاد": 4465,
      "ایق": 4466,
      "ولي": 4467,
      "خواستی": 4468,
      "معمولا": 4469,
      "عالم": 4470,
      "خوندن": 4471,
      "کشم": 4472,
      "ازده": 4473,
      "همدیگه": 4474,
      "ایید": 4475,
      "سرما": 4476,
      "بلو": 4477,
      "دانست": 4478,
      "way": 4479,
      "بگي": 4480,
      "مزه": 4481,
      "روانی": 4482,
      "اماده": 4483,
      "بینه": 4484,
      "یکیو": 4485,
      "_رضایی": 4486,
      "اذ": 4487,
      "هرکسی": 4488,
      "بگیریم": 4489,
      "دانند": 4490,
      "خوشبخت": 4491,
      "شلوغ": 4492,
      "وحشت": 4493,
      "تنم": 4494,
      "ساد": 4495,
      "پز": 4496,
      "جهت": 4497,
      "سوم": 4498,
      ":)))": 4499,
      "روانشناسی": 4500,
      "موجود": 4501,
      "اومده": 4502,
      "بیشتری": 4503,
      "بيشتر": 4504,
      "can": 4505,
      "ریز": 4506,
      "ترم": 4507,
      "هرکی": 4508,
      "تمرک": 4509,
      "نجی": 4510,
      "بگیرد": 4511,
      "دلیلی": 4512,
      "a_": 4513,
      "بنشی": 4514,
      "في": 4515,
      "توق": 4516,
      "امت": 4517,
      "بیمار": 4518,
      "وله": 4519,
      "مهربان": 4520,
      "شبه": 4521,
      "نرو": 4522,
      "برخی": 4523,
      "همیش": 4524,
      "چیزای": 4525,
      "امیدوارم": 4526,
      "بیماری": 4527,
      "اا": 4528,
      "ظهر": 4529,
      "نان": 4530,
      "کاغ": 4531,
      "دهید": 4532,
      "معنا": 4533,
      "بمونه": 4534,
      "خستم": 4535,
      "سرو": 4536,
      "شايد": 4537,
      "عاط": 4538,
      "نشو": 4539,
      "کشد": 4540,
      "توو": 4541,
      "نگذ": 4542,
      "کسیو": 4543,
      "افس": 4544,
      "بله": 4545,
      "اعص": 4546,
      "جهانی": 4547,
      "قبانی": 4548,
      "صمیمی": 4549,
      "هدایت": 4550,
      "بماند": 4551,
      "بمیرم": 4552,
      "ببخشید": 4553,
      "تبری": 4554,
      "سمی": 4555,
      "وار": 4556,
      "درسته": 4557,
      "همدیگر": 4558,
      "همچنان": 4559,
      "هاتون": 4560,
      "تاسف": 4561,
      "لاح": 4562,
      "فرقی": 4563,
      "تهش": 4564,
      "قرص": 4565,
      "زمستان": 4566,
      "تکیه": 4567,
      "بروم": 4568,
      "رفتیم": 4569,
      "تماشای": 4570,
      "اپیزود": 4571,
      "Be": 4572,
      "طوف": 4573,
      "ﻫﻤ": 4574,
      "وید": 4575,
      "کشیدم": 4576,
      "راننده": 4577,
      "کافیه": 4578,
      "علیرضا": 4579,
      "ایستاده": 4580,
      "ندارن": 4581,
      "شکرت": 4582,
      "صاف": 4583,
      "عج": 4584,
      "مسی": 4585,
      "میکنید": 4586,
      "نداد": 4587,
      "سیو": 4588,
      "هرچیزی": 4589,
      "گردی": 4590,
      "مطال": 4591,
      "بنویسم": 4592,
      "محبوب": 4593,
      "!؟": 4594,
      ":\"": 4595,
      "don": 4596,
      "gh": 4597,
      "na": 4598,
      "نص": 4599,
      "میدن": 4600,
      "میخندی": 4601,
      "ترل": 4602,
      "عهد": 4603,
      "مغزم": 4604,
      "طبیعت": 4605,
      "لعنتی": 4606,
      "مهدیه_رضایی": 4607,
      "مجموعه": 4608,
      "جالب": 4609,
      "خشک": 4610,
      "ساح": 4611,
      "قسم": 4612,
      "وه": 4613,
      "میای": 4614,
      "خواند": 4615,
      "ریشه": 4616,
      "برن": 4617,
      "چیزها": 4618,
      "میرن": 4619,
      "ok": 4620,
      "بکش": 4621,
      "صوص": 4622,
      "راحتی": 4623,
      "لیل": 4624,
      "نگرانی": 4625,
      "موهای": 4626,
      "هرروز": 4627,
      "بزار": 4628,
      "اخلاق": 4629,
      "نابود": 4630,
      "ببینید": 4631,
      "جنگل": 4632,
      "op": 4633,
      "جاي": 4634,
      "طان": 4635,
      "وب": 4636,
      "بیای": 4637,
      "پیانو": 4638,
      "دستات": 4639,
      "out": 4640,
      "یاداوری": 4641,
      "بخواد": 4642,
      "فرستاد": 4643,
      "کودک": 4644,
      "تمرکز": 4645,
      "نشود": 4646,
      "کرا": 4647,
      "راضی": 4648,
      "اشتبا": 4649,
      "سرنوشت": 4650,
      "اطراف": 4651,
      "بخوابی": 4652,
      "اوردن": 4653,
      "جذاب": 4654,
      "مبارک": 4655,
      "بدو": 4656,
      "عک": 4657,
      "پاره": 4658,
      "گرا": 4659,
      "ﻣﺎ": 4660,
      "راستی": 4661,
      "امل": 4662,
      "دسته": 4663,
      "گوشت": 4664,
      "اختی": 4665,
      "بخوابم": 4666,
      "بردن": 4667,
      "توانست": 4668,
      "مجازی": 4669,
      "فروش": 4670,
      "فلان": 4671,
      "پرده": 4672,
      "سطح": 4673,
      "خاکست": 4674,
      "_شکرت": 4675,
      "ثر": 4676,
      "نادر": 4677,
      "هند": 4678,
      "پوش": 4679,
      "انش": 4680,
      "ارش": 4681,
      "امدن": 4682,
      "اونو": 4683,
      "چشمام": 4684,
      "لحاظ": 4685,
      "بدهد": 4686,
      ">>>>": 4687,
      "خارج": 4688,
      "حاضر": 4689,
      "ساکت": 4690,
      "وضعیت": 4691,
      "per": 4692,
      "گا": 4693,
      "گزی": 4694,
      "الف": 4695,
      "مواظ": 4696,
      "برادر": 4697,
      "چیزهای": 4698,
      "طرز": 4699,
      "بمونی": 4700,
      "رش": 4701,
      "شـ": 4702,
      "غد": 4703,
      "نن": 4704,
      "وقات": 4705,
      "قطعا": 4706,
      "تصاد": 4707,
      "فروغ": 4708,
      "چيزي": 4709,
      "بگوید": 4710,
      "احتمالا": 4711,
      "خدایا_شکرت": 4712,
      "دشمن": 4713,
      "نسخه": 4714,
      "رمان": 4715,
      "لام": 4716,
      "ﺗﻮ": 4717,
      "درمورد": 4718,
      "اینها": 4719,
      "پیو": 4720,
      "اونجایی": 4721,
      "گیرند": 4722,
      "ry": 4723,
      "خبری": 4724,
      "مری": 4725,
      "چال": 4726,
      "ستمی": 4727,
      "راک": 4728,
      "وقتى": 4729,
      "فیت": 4730,
      "دوران": 4731,
      "hen": 4732,
      "مسافر": 4733,
      "هنرم": 4734,
      "پسرم": 4735,
      "ابراز": 4736,
      "خوندم": 4737,
      "خداحافظی": 4738,
      "بنا": 4739,
      "حکم": 4740,
      "شدید": 4741,
      "ـا": 4742,
      "فو": 4743,
      "چایی": 4744,
      "𝗍𝗁": 4745,
      "ابری": 4746,
      "قطعه": 4747,
      "پرس": 4748,
      "صبور": 4749,
      "بشنو": 4750,
      "داشتیم": 4751,
      "ابا": 4752,
      "خفه": 4753,
      "عاد": 4754,
      "𝖺𝗇": 4755,
      "کنترل": 4756,
      "برس": 4757,
      "ترجمه": 4758,
      "پیشم": 4759,
      "مرسی": 4760,
      "بخوای": 4761,
      "تکراری": 4762,
      "كنيد": 4763,
      "افسانه": 4764,
      "بزند": 4765,
      "شاع": 4766,
      "ضا": 4767,
      "یون": 4768,
      "ﺧﻮﺩ": 4769,
      "ایمان": 4770,
      "تنت": 4771,
      "نیستیم": 4772,
      "حالش": 4773,
      "افری": 4774,
      "تعداد": 4775,
      "ببینیم": 4776,
      "منظور": 4777,
      "رار": 4778,
      "سای": 4779,
      "دوسم": 4780,
      "ميكنم": 4781,
      "بزرگترین": 4782,
      "هنری": 4783,
      "فراموشی": 4784,
      "قبلی": 4785,
      "بزرگی": 4786,
      "همیشگی": 4787,
      "سهم": 4788,
      "نبودنت": 4789,
      "چطوری": 4790,
      "کجای": 4791,
      "ﻣﯿ": 4792,
      "انان": 4793,
      "بابت": 4794,
      "دورم": 4795,
      "دولت": 4796,
      "اسمش": 4797,
      "خوشگل": 4798,
      "زیباست": 4799,
      "توانید": 4800,
      "هاشون": 4801,
      "مخصوص": 4802,
      "فکری": 4803,
      "جدایی": 4804,
      "معروفی": 4805,
      "عات": 4806,
      "غرور": 4807,
      "فوق": 4808,
      "نداشتی": 4809,
      "لیاقت": 4810,
      "داخل": 4811,
      "مدتی": 4812,
      "بهتره": 4813,
      "تماس": 4814,
      "ترکیب": 4815,
      "اوقات": 4816,
      "ببخش": 4817,
      "شا": 4818,
      "پره": 4819,
      "کجاست": 4820,
      "ﺍﯾ": 4821,
      "رده": 4822,
      "اینطوری": 4823,
      "اهدا": 4824,
      "موهات": 4825,
      "کمه": 4826,
      "مربو": 4827,
      "چراغ": 4828,
      "پوشی": 4829,
      "اومدم": 4830,
      "موندن": 4831,
      "ba": 4832,
      "nt": 4833,
      "shi": 4834,
      "دگر": 4835,
      "وانم": 4836,
      "کره": 4837,
      "یل": 4838,
      "ازین": 4839,
      "تورا": 4840,
      "بینیم": 4841,
      "اوند": 4842,
      "همینه": 4843,
      "جوانی": 4844,
      "گرده": 4845,
      "رسیدم": 4846,
      "پیشنهاد_": 4847,
      "Lo": 4848,
      "bo": 4849,
      "ـم": 4850,
      "امان": 4851,
      "دیدار": 4852,
      "پیشت": 4853,
      "سرعت": 4854,
      "نوعی": 4855,
      "گذاشتی": 4856,
      "گفتیم": 4857,
      "not": 4858,
      "کاغذ": 4859,
      ".-": 4860,
      "سود": 4861,
      "مکان": 4862,
      "نباشم": 4863,
      "گمان": 4864,
      "رادیو": 4865,
      "شهری": 4866,
      "خیس": 4867,
      "گذار": 4868,
      "خوبم": 4869,
      "دنیایی": 4870,
      "مرغ": 4871,
      "مراق": 4872,
      "اکاي": 4873,
      "ناراحتم": 4874,
      "مامانم": 4875,
      "شرایطی": 4876,
      "چسب": 4877,
      "پارتنر": 4878,
      "بکنم": 4879,
      "تحت": 4880,
      "طل": 4881,
      "طلو": 4882,
      "تويه": 4883,
      "نمیخوام": 4884,
      "زید": 4885,
      "شمند": 4886,
      "معرفی": 4887,
      "باهاشون": 4888,
      "time": 4889,
      "ضعف": 4890,
      "حذف": 4891,
      "زو": 4892,
      "س_": 4893,
      "✍🏻": 4894,
      "میاره": 4895,
      "شین": 4896,
      "بدان": 4897,
      "چیزا": 4898,
      "rea": 4899,
      "ضعیف": 4900,
      "جرا": 4901,
      "مهمی": 4902,
      "يدم": 4903,
      "نمیدونی": 4904,
      "سالها": 4905,
      "مهدی": 4906,
      "مردن": 4907,
      "نفرت": 4908,
      "tion": 4909,
      "ضربه": 4910,
      "زشت": 4911,
      "سازی": 4912,
      "قاب": 4913,
      "مها": 4914,
      "يش": 4915,
      "راجب": 4916,
      "بیام": 4917,
      "ترانه": 4918,
      "هیجان": 4919,
      "دستی": 4920,
      "بوم": 4921,
      "کله": 4922,
      "رویای": 4923,
      "شکلی": 4924,
      "نقاش": 4925,
      "عمرم": 4926,
      "now": 4927,
      "میگذره": 4928,
      "وابسته": 4929,
      "ساحل": 4930,
      "ning": 4931,
      "نون": 4932,
      "ان_": 4933,
      "ارا": 4934,
      "ارستمی": 4935,
      "اهنگی": 4936,
      "قیم": 4937,
      "حسابی": 4938,
      "اوردم": 4939,
      "چشات": 4940,
      "شنیدم": 4941,
      "ight": 4942,
      "دفت": 4943,
      "دغد": 4944,
      "کز": 4945,
      "درصد": 4946,
      "دیگ": 4947,
      "دیشب": 4948,
      "بالای": 4949,
      "طوفان": 4950,
      "ic": 4951,
      "بنده": 4952,
      "شبی": 4953,
      "عقل": 4954,
      "متاسف": 4955,
      "يع": 4956,
      "چک": 4957,
      "𝗆𝗒": 4958,
      "📻@": 4959,
      "توج": 4960,
      "رونی": 4961,
      "خودمم": 4962,
      "دانستم": 4963,
      "خداوند": 4964,
      "زیباترین": 4965,
      "very": 4966,
      "مدیریت": 4967,
      "متنفرم": 4968,
      "تنهام": 4969,
      "امیرعلی_ق": 4970,
      "by": 4971,
      "سقو": 4972,
      "چاله": 4973,
      "کشت": 4974,
      "𝖺𝗍": 4975,
      "𝗏𝖾": 4976,
      "میش": 4977,
      "بیت": 4978,
      "خیانت": 4979,
      "قلبش": 4980,
      "نیازی": 4981,
      "جمعی": 4982,
      "میگیرم": 4983,
      "هزاران": 4984,
      "خندم": 4985,
      "زندگى": 4986,
      "ناگهان": 4987,
      "مطالعه": 4988,
      "but": 4989,
      "do": 4990,
      "ght": 4991,
      "شاخه": 4992,
      "وسی": 4993,
      "گون": 4994,
      "گنج": 4995,
      "خوره": 4996,
      "گريه": 4997,
      "ویس": 4998,
      "عشقی": 4999,
      "سوار": 5000,
      "نگاهش": 5001,
      "پدرم": 5002,
      "راستش": 5003,
      "مف": 5004,
      "کفش": 5005,
      "گذرد": 5006,
      "اخت": 5007,
      "محل": 5008,
      "ندیده": 5009,
      "اتفاقات": 5010,
      "چشماتو": 5011,
      "چشمانت": 5012,
      "سقوط": 5013,
      "!»": 5014,
      "ru": 5015,
      "wor": 5016,
      "رسه": 5017,
      "غال": 5018,
      "ریخته": 5019,
      "یافت": 5020,
      "بعدا": 5021,
      "mor": 5022,
      "کیارستمی": 5023,
      "صداش": 5024,
      "مربوط": 5025,
      "ببو": 5026,
      "رست": 5027,
      "عبار": 5028,
      "عبور": 5029,
      "ﺩﯾ": 5030,
      "لیوان": 5031,
      "اوتی": 5032,
      "روزایی": 5033,
      "قطره": 5034,
      "رویش": 5035,
      "شونه": 5036,
      "شونو": 5037,
      "خندیدن": 5038,
      "وانمود": 5039,
      "بجای": 5040,
      "رح": 5041,
      "عمق": 5042,
      "غلط": 5043,
      "••": 5044,
      "امری": 5045,
      "البر": 5046,
      "استع": 5047,
      "فران": 5048,
      "سرخ": 5049,
      "بخوام": 5050,
      "لحظات": 5051,
      "فهمید": 5052,
      "ﺍﻧ": 5053,
      "ﺴﺘ": 5054,
      "ستین": 5055,
      "امکان": 5056,
      "ریا": 5057,
      "کردنش": 5058,
      "فرخ": 5059,
      "اریان": 5060,
      "بدهم": 5061,
      "کیفیت": 5062,
      "ولیت": 5063,
      "کارهای": 5064,
      "محو": 5065,
      "عاشقش": 5066,
      "چندتا": 5067,
      "همونقدر": 5068,
      "منطقی": 5069,
      "ممنونم": 5070,
      "-.-": 5071,
      "il": 5072,
      "دعا": 5073,
      "دقت": 5074,
      "پارت": 5075,
      "ریخت": 5076,
      "مناسب": 5077,
      "الع": 5078,
      "برسه": 5079,
      "اوض": 5080,
      "نمى": 5081,
      "معلوم": 5082,
      "وجودت": 5083,
      "نداشتن": 5084,
      "بچگی": 5085,
      "وطن": 5086,
      "اکايو": 5087,
      "»،": 5088,
      "لنگ": 5089,
      "مبا": 5090,
      "ﻧﻤ": 5091,
      "ندم": 5092,
      "راس": 5093,
      "استراحت": 5094,
      "اولی": 5095,
      "افز": 5096,
      "like": 5097,
      "نشانه": 5098,
      "مرح": 5099,
      "مشخص": 5100,
      "افتخار": 5101,
      "اغلب": 5102,
      "فراموشت": 5103,
      "اغوشت": 5104,
      "توقع": 5105,
      "pp": 5106,
      "ta": 5107,
      "بى": 5108,
      "بتونم": 5109,
      "روحت": 5110,
      "تیر": 5111,
      "chi": 5112,
      "پیچ": 5113,
      "روزهایی": 5114,
      "حتي": 5115,
      "زنند": 5116,
      "بساز": 5117,
      "طلوع": 5118,
      "ﺷﺪ": 5119,
      "گفتند": 5120,
      "کشف": 5121,
      "بیهوده": 5122,
      "پروانه": 5123,
      "بشیم": 5124,
      "مسيله": 5125,
      "موقعیت": 5126,
      "صندلی": 5127,
      "And": 5128,
      "Me": 5129,
      "بط": 5130,
      "حیا": 5131,
      "چپ": 5132,
      "امير": 5133,
      "وین": 5134,
      "شماره": 5135,
      "اقی": 5136,
      "کاره": 5137,
      "گذاشتن": 5138,
      "اومدن": 5139,
      "هنگامی": 5140,
      "لانگ": 5141,
      "بوسیدن": 5142,
      "دغدغه": 5143,
      "نکند": 5144,
      "یکبار": 5145,
      "نمیخواد": 5146,
      "انداز": 5147,
      "اطلا": 5148,
      "ناامید": 5149,
      "بخورم": 5150,
      "انتق": 5151,
      "نفری": 5152,
      "طرح": 5153,
      "سریع": 5154,
      "دفعه": 5155,
      "مصرف": 5156,
      "بمونم": 5157,
      "بدبختی": 5158,
      "مراقبت": 5159,
      "My": 5160,
      "شار": 5161,
      "عمو": 5162,
      "نادی": 5163,
      "شمع": 5164,
      "زندگیش": 5165,
      "کارت": 5166,
      "کردنت": 5167,
      "اعتقاد": 5168,
      "جرت": 5169,
      "خدای": 5170,
      "ذهنی": 5171,
      "افسرده": 5172,
      "میخواستم": 5173,
      "__": 5174,
      "تپ": 5175,
      "میرد": 5176,
      "بیو": 5177,
      "اورم": 5178,
      "اییم": 5179,
      "لاک": 5180,
      "our": 5181,
      "مونم": 5182,
      "کنارتم": 5183,
      "بخواب": 5184,
      "بخوریم": 5185,
      "همینقدر": 5186,
      "اولش": 5187,
      "روحم": 5188,
      "عجیبی": 5189,
      "گروه": 5190,
      "man": 5191,
      "هه": 5192,
      "پیک": 5193,
      "𝗈𝗇": 5194,
      "تین": 5195,
      "نگات": 5196,
      "گذره": 5197,
      "حسادت": 5198,
      "بخور": 5199,
      "خواستن": 5200,
      "خوردم": 5201,
      "www": 5202,
      "صاحب": 5203,
      "اختیار": 5204,
      "want": 5205,
      "بشود": 5206,
      "بپذی": 5207,
      "دس": 5208,
      "كش": 5209,
      "متر": 5210,
      "بیات": 5211,
      "تاحالا": 5212,
      "هرکاری": 5213,
      "دهی": 5214,
      "زندان": 5215,
      "هیشکی": 5216,
      "فرهنگ": 5217,
      "مين": 5218,
      "حرفات": 5219,
      "عید": 5220,
      "اورده": 5221,
      "ندارید": 5222,
      "زیبای": 5223,
      "اومدی": 5224,
      "هيچوقت": 5225,
      "عصبانیت": 5226,
      "سنگین": 5227,
      "نکته": 5228,
      "فرخزاد": 5229,
      "زبون": 5230,
      "نشدن": 5231,
      "کاه": 5232,
      "میخواهد": 5233,
      "راض": 5234,
      "راجع": 5235,
      "ادمهای": 5236,
      "مثه": 5237,
      "میخواهم": 5238,
      "اولویت": 5239,
      "ترسناک": 5240,
      "تمامی": 5241,
      "خرج": 5242,
      "هوشنگ": 5243,
      "صرفا": 5244,
      "اوضاع": 5245,
      "كاش": 5246,
      "مزخ": 5247,
      "انگلی": 5248,
      "موج": 5249,
      "روزم": 5250,
      "همینطور": 5251,
      "ارومم": 5252,
      "ther": 5253,
      "قلبی": 5254,
      "نادیده": 5255,
      "just": 5256,
      "بکنی": 5257,
      "بتونی": 5258,
      "فح": 5259,
      "لاز": 5260,
      "مهمه": 5261,
      "يب": 5262,
      "میریم": 5263,
      "ندگی": 5264,
      "درخ": 5265,
      "برنده": 5266,
      "هاج": 5267,
      "کردید": 5268,
      "قیمت": 5269,
      "هايي": 5270,
      ">>>": 5271,
      "پرسیدم": 5272,
      "عذاب": 5273,
      "زمه": 5274,
      "ظیم": 5275,
      "فن": 5276,
      "لال": 5277,
      "مض": 5278,
      "متو": 5279,
      "گله": 5280,
      "ازشون": 5281,
      "ادار": 5282,
      "ابان": 5283,
      "اقع": 5284,
      "مشترک": 5285,
      "مقای": 5286,
      "تکان": 5287,
      "علي": 5288,
      "دفاع": 5289,
      "feel": 5290,
      "شناخت": 5291,
      "فارسی": 5292,
      "اعصاب": 5293,
      "us": 5294,
      "جات": 5295,
      "طعم": 5296,
      "ﻤﺎ": 5297,
      "گرمی": 5298,
      "اساس": 5299,
      "دمت": 5300,
      "قرن": 5301,
      "خواندن": 5302,
      "چسبی": 5303,
      "میلیون": 5304,
      "مقایسه": 5305,
      "id": 5306,
      "شرم": 5307,
      "مارو": 5308,
      "هامو": 5309,
      "يار": 5310,
      "بودنش": 5311,
      "ویل": 5312,
      "یادته": 5313,
      "دورت": 5314,
      "زمزمه": 5315,
      "میشیم": 5316,
      "قیافه": 5317,
      "العاده": 5318,
      "مبادا": 5319,
      "ببرد": 5320,
      "زنش": 5321,
      "زدیم": 5322,
      "مشه": 5323,
      "ﻧﯿ": 5324,
      "𝖾𝖾": 5325,
      "ادمیز": 5326,
      "سرزمین": 5327,
      "some": 5328,
      "درونی": 5329,
      "مهربانی": 5330,
      "صحنه": 5331,
      "سیاهی": 5332,
      "میکشم": 5333,
      "بعضیا": 5334,
      "پیچیده": 5335,
      "Li": 5336,
      "سور": 5337,
      "شجریان": 5338,
      "قلم": 5339,
      "نع": 5340,
      "هری": 5341,
      "روي": 5342,
      "ریق": 5343,
      "اشکی": 5344,
      "الهی": 5345,
      "نگا": 5346,
      "شیرک": 5347,
      "اسف": 5348,
      "تونست": 5349,
      "قلبمو": 5350,
      "دخترم": 5351,
      "كسى": 5352,
      "چوب": 5353,
      "معروف": 5354,
      "مرحله": 5355,
      "if": 5356,
      "اجه": 5357,
      "بخواهد": 5358,
      "ثبت": 5359,
      "سپس": 5360,
      "فایده": 5361,
      "نصی": 5362,
      "کیه": 5363,
      "کامو": 5364,
      "توعه": 5365,
      "پرست": 5366,
      "کمال": 5367,
      "قشنگترین": 5368,
      "افته": 5369,
      "تعطی": 5370,
      "فضای": 5371,
      "مواظب": 5372,
      "Mo": 5373,
      "bot": 5374,
      "تفری": 5375,
      "ـت": 5376,
      "قصد": 5377,
      "نکردی": 5378,
      "همسر": 5379,
      "نگاهم": 5380,
      "دهنده": 5381,
      "ابدی": 5382,
      "اسان": 5383,
      "روزه": 5384,
      "حالمو": 5385,
      "کیو": 5386,
      "صدایی": 5387,
      "سوز": 5388,
      "چشمم": 5389,
      "رابط": 5390,
      "علت": 5391,
      "(:": 5392,
      "رز": 5393,
      "زهر": 5394,
      "ساي": 5395,
      "فسکی": 5396,
      "مکال": 5397,
      "کاب": 5398,
      "گانه": 5399,
      "ﺭﻭ": 5400,
      "میترسم": 5401,
      "میتونستم": 5402,
      "تونید": 5403,
      "برعکس": 5404,
      "تیک": 5405,
      "هرکس": 5406,
      "خیالی": 5407,
      "کیمی": 5408,
      "کارش": 5409,
      "دارین": 5410,
      "مردان": 5411,
      "عاشقتم": 5412,
      "تحصی": 5413,
      "كنى": 5414,
      "خوانده": 5415,
      "برگردی": 5416,
      "عدد": 5417,
      "ببری": 5418,
      "تسلی": 5419,
      "تظاهر": 5420,
      "جدیدی": 5421,
      "حک": 5422,
      "زير": 5423,
      "فوت": 5424,
      "ﺩﻭ": 5425,
      "کنج": 5426,
      "تمرین": 5427,
      "افل": 5428,
      "شنیده": 5429,
      "خلاف": 5430,
      "اینجوریه": 5431,
      "زمینی": 5432,
      "هندز": 5433,
      "دفتر": 5434,
      "امریکا": 5435,
      "day": 5436,
      "fa": 5437,
      "اتون": 5438,
      "شای": 5439,
      "🖖🏻": 5440,
      "دیست": 5441,
      "همسایه": 5442,
      "کنکور": 5443,
      "نگفتم": 5444,
      "زیم": 5445,
      "معلم": 5446,
      "نشستم": 5447,
      "مرتب": 5448,
      "ديد": 5449,
      "پيدا": 5450,
      "عاطفی": 5451,
      "ادمیزاد": 5452,
      "au": 5453,
      "um": 5454,
      "حواسش": 5455,
      "زا": 5456,
      "شك": 5457,
      "شجا": 5458,
      "مدار": 5459,
      "نـ": 5460,
      "يى": 5461,
      "ﺍﺭ": 5462,
      "دارو": 5463,
      "چهل": 5464,
      "داشتند": 5465,
      "گذاری": 5466,
      "گردان": 5467,
      "تلخی": 5468,
      "خوابت": 5469,
      "نزن": 5470,
      "ببینه": 5471,
      "شرکت": 5472,
      "نقص": 5473,
      "end": 5474,
      "ابتهاج": 5475,
      "قهرمان": 5476,
      "ترد": 5477,
      "عكس": 5478,
      "يدن": 5479,
      "ﺍﺳﺖ": 5480,
      "تیم": 5481,
      "نگفت": 5482,
      "محتا": 5483,
      "تحقی": 5484,
      "توانستم": 5485,
      "مادرش": 5486,
      "میوه": 5487,
      "ديگران": 5488,
      "بزرگم": 5489,
      "زرد": 5490,
      "عاقل": 5491,
      "فم": 5492,
      "مای": 5493,
      "مبت": 5494,
      "هور": 5495,
      "ادو": 5496,
      "اینطور": 5497,
      "استوری": 5498,
      "پیتز": 5499,
      "گذارد": 5500,
      "میخوره": 5501,
      "مشکلی": 5502,
      "افتادم": 5503,
      "کوچکی": 5504,
      "میرسه": 5505,
      "زياد": 5506,
      "حمایت": 5507,
      "دخترا": 5508,
      "حمیدسلیمی": 5509,
      "بکشیم": 5510,
      "هنرمند": 5511,
      "مزخرف": 5512,
      "انگلیسی": 5513,
      "=)": 5514,
      "ei": 5515,
      "ore": 5516,
      "دند": 5517,
      "رع": 5518,
      "رسم": 5519,
      "سپ": 5520,
      "شغل": 5521,
      "نخو": 5522,
      "کات": 5523,
      "کجایی": 5524,
      "ﯿﺪ": 5525,
      "ﻮﺭ": 5526,
      "بهمون": 5527,
      "امدی": 5528,
      "الود": 5529,
      "سیاست": 5530,
      "نمیکنی": 5531,
      "ميكنه": 5532,
      "بخانه": 5533,
      "برگردم": 5534,
      "اورند": 5535,
      "وایب": 5536,
      "غریب": 5537,
      "برقص": 5538,
      "شاعر": 5539,
      "ali": 5540,
      "ey": 5541,
      "بای": 5542,
      "ببرم": 5543,
      "حواس": 5544,
      "خرا": 5545,
      "رهایی": 5546,
      "سایت": 5547,
      "قات": 5548,
      "لز": 5549,
      "•#": 5550,
      "ادث": 5551,
      "برنگ": 5552,
      "مانه": 5553,
      "دستان": 5554,
      "فکرت": 5555,
      "پرسه": 5556,
      "morning": 5557,
      "طبق": 5558,
      "ظرف": 5559,
      "كت": 5560,
      "ﺎﺩ": 5561,
      "ﺑﻮﺩ": 5562,
      "ﺳﺘ": 5563,
      "𝗂𝗌": 5564,
      "میدهد": 5565,
      "خونم": 5566,
      "ang": 5567,
      "کارها": 5568,
      "جزيی": 5569,
      "مغازه": 5570,
      "جوره": 5571,
      "واکن": 5572,
      "خواننده": 5573,
      "حیف": 5574,
      "خوابیدن": 5575,
      "امیدوار": 5576,
      "چرخه": 5577,
      "مریض": 5578,
      "Ne": 5579,
      "بستگی": 5580,
      "درویش": 5581,
      "لبات": 5582,
      "نکنیم": 5583,
      "میکردی": 5584,
      "ارف": 5585,
      "ماجرا": 5586,
      "بدونه": 5587,
      "شوخی": 5588,
      "محی": 5589,
      "مشکی": 5590,
      "چشمت": 5591,
      "هوشی": 5592,
      "نگاهی": 5593,
      "جمشید": 5594,
      "خیالت": 5595,
      "اتیش": 5596,
      "بتی": 5597,
      "رحم": 5598,
      "زنیم": 5599,
      "سب": 5600,
      "ریش": 5601,
      "موی": 5602,
      "شمال": 5603,
      "پیراه": 5604,
      "تمند": 5605,
      "گول": 5606,
      "شبانه": 5607,
      "here": 5608,
      "هوم": 5609,
      "بینند": 5610,
      "سلول": 5611,
      "نميشه": 5612,
      "هواپی": 5613,
      "نشین": 5614,
      "کتابی": 5615,
      "ابادی": 5616,
      "شیرکاکايو": 5617,
      "lf": 5618,
      "بنی": 5619,
      "دشو": 5620,
      "نرگ": 5621,
      "رونم": 5622,
      "نمیده": 5623,
      "خوداگاه": 5624,
      "گران": 5625,
      "نوشی": 5626,
      "رفتنت": 5627,
      "براشون": 5628,
      "چیزیه": 5629,
      "ــی": 5630,
      "محدود": 5631,
      "چندین": 5632,
      "دونستم": 5633,
      "اهنگای": 5634,
      "بفرستید": 5635,
      "نصفه": 5636,
      "Love": 5637,
      "مهاجرت": 5638,
      "کابوس": 5639,
      "دیستنس": 5640,
      "know": 5641,
      "شریک": 5642,
      "كسی": 5643,
      "مالی": 5644,
      "نترس": 5645,
      "پاشو": 5646,
      "دوت": 5647,
      "ترش": 5648,
      "اخلا": 5649,
      "شوهر": 5650,
      "life": 5651,
      "تلگ": 5652,
      "انسوی": 5653,
      "بردی": 5654,
      "have": 5655,
      "فلانی": 5656,
      "افزایش": 5657,
      "ia": 5658,
      "تخ": 5659,
      "حدی": 5660,
      "زارم": 5661,
      "فعالی": 5662,
      "نکردن": 5663,
      "پژ": 5664,
      "ژی": 5665,
      "ژان": 5666,
      "ﺮﻭ": 5667,
      "ﻧﻪ": 5668,
      "انل": 5669,
      "راکی": 5670,
      "بام": 5671,
      "امسال": 5672,
      "همچون": 5673,
      "اینارو": 5674,
      "سیل": 5675,
      "اوست": 5676,
      "اشتباهات": 5677,
      "معین": 5678,
      "حرفایی": 5679,
      "حساس": 5680,
      "تابستون": 5681,
      "پایه": 5682,
      "وصل": 5683,
      "کانال": 5684,
      "عمیقا": 5685,
      "طبیعی": 5686,
      "لعنت": 5687,
      "قسمتی": 5688,
      "im": 5689,
      "حتا": 5690,
      "حرم": 5691,
      "حجم": 5692,
      "خن": 5693,
      "ريی": 5694,
      "سار": 5695,
      "ل_": 5696,
      "لبه": 5697,
      "ملاق": 5698,
      "يده": 5699,
      "چاق": 5700,
      "کشته": 5701,
      "الله": 5702,
      "اهمی": 5703,
      "چیو": 5704,
      "دمه": 5705,
      "never": 5706,
      "need": 5707,
      "گوشم": 5708,
      "بونی": 5709,
      "کارهایی": 5710,
      "دنیاست": 5711,
      "انتهای": 5712,
      "son": 5713,
      "بردار": 5714,
      "تصمی": 5715,
      "ملت": 5716,
      "حقیق": 5717,
      "حافظه": 5718,
      "شکوفه": 5719,
      "عبارت": 5720,
      "ﻧﻤﯽ": 5721,
      "فحش": 5722,
      "ببي": 5723,
      "بفهمه": 5724,
      "زمين": 5725,
      "لى": 5726,
      "ملی": 5727,
      "وظ": 5728,
      "ومد": 5729,
      "ﺑﺮﺍ": 5730,
      "توي": 5731,
      "ادمو": 5732,
      "دیدیم": 5733,
      "همزمان": 5734,
      "همچین": 5735,
      "بیار": 5736,
      "برنمی": 5737,
      "لید": 5738,
      "مواجه": 5739,
      "معاش": 5740,
      "عشقت": 5741,
      "نزد": 5742,
      "بزرگتر": 5743,
      "مسايل": 5744,
      "ory": 5745,
      "چنل": 5746,
      "ساختن": 5747,
      "حوصل": 5748,
      "بدست": 5749,
      "ببره": 5750,
      "تج": 5751,
      "طاقت": 5752,
      "قبر": 5753,
      "مدل": 5754,
      "کص": 5755,
      "گاز": 5756,
      "اشاره": 5757,
      ".....": 5758,
      "اوه": 5759,
      "دلمون": 5760,
      "شمارو": 5761,
      "ould": 5762,
      "خواهر": 5763,
      "قربون": 5764,
      "چشماش": 5765,
      "بدین": 5766,
      "کوچول": 5767,
      "گير": 5768,
      "thin": 5769,
      "تقص": 5770,
      "قلاب": 5771,
      "سرمایه": 5772,
      "میرند": 5773,
      "چهرازی": 5774,
      "مسيولیت": 5775,
      "وابستگی": 5776,
      "احتمال": 5777,
      "شنوم": 5778,
      "هندزفری": 5779,
      "Bot": 5780,
      "get": 5781,
      "po": 5782,
      "خرم": 5783,
      "قند": 5784,
      "محسن": 5785,
      "ژگی": 5786,
      "ﮐﻨ": 5787,
      "ﺍﻭ": 5788,
      "میشوند": 5789,
      "اردی": 5790,
      "راد": 5791,
      "هايم": 5792,
      "سیب": 5793,
      "اهسته": 5794,
      "ویر": 5795,
      "پیرم": 5796,
      "دادیم": 5797,
      "دردناک": 5798,
      "پوچ": 5799,
      "when": 5800,
      "بندی": 5801,
      "بگن": 5802,
      "ذرت": 5803,
      "رشته": 5804,
      "زح": 5805,
      "شازده": 5806,
      "غافل": 5807,
      "هرد": 5808,
      "کشن": 5809,
      "𝖺𝗋𝖾": 5810,
      "ایر": 5811,
      "اینم": 5812,
      "لیلی": 5813,
      "ویديو": 5814,
      "زندگیتون": 5815,
      "میزان": 5816,
      "هایتان": 5817,
      "کافکا": 5818,
      "تقری": 5819,
      "پارک": 5820,
      "غذای": 5821,
      "دریغ": 5822,
      "منطق": 5823,
      "زمینه": 5824,
      "جستجوی": 5825,
      "کثی": 5826,
      "تایپ": 5827,
      "ملاقات": 5828,
      ")،": 5829,
      "No": 5830,
      "_s": 5831,
      "بلی": 5832,
      "جشن": 5833,
      "فنج": 5834,
      "قفل": 5835,
      "ناس": 5836,
      "ﯿﻢ": 5837,
      "انا": 5838,
      "کهنه": 5839,
      "ابق": 5840,
      "نمایش": 5841,
      "نوتی": 5842,
      "کارو": 5843,
      "روید": 5844,
      "لوس": 5845,
      "بردم": 5846,
      "بيرون": 5847,
      "اولين": 5848,
      "شرط": 5849,
      "چشام": 5850,
      "غمگینم": 5851,
      "خيال": 5852,
      "اتاقم": 5853,
      "قانع": 5854,
      "ابراهیمی": 5855,
      "قایم": 5856,
      "مچاله": 5857,
      "يادم": 5858,
      "پخش": 5859,
      "ﯾﺪ": 5860,
      "انوس": 5861,
      "ازتون": 5862,
      "توهم": 5863,
      "همچنین": 5864,
      "برند": 5865,
      "برسی": 5866,
      "فتد": 5867,
      "دوستام": 5868,
      "ایدا": 5869,
      "ايم": 5870,
      "حرفا": 5871,
      "باشین": 5872,
      "حسود": 5873,
      "res": 5874,
      "نفرو": 5875,
      "میزد": 5876,
      "تعجب": 5877,
      "نویسم": 5878,
      "سلط": 5879,
      "بالاتر": 5880,
      "منتظرم": 5881,
      "تغیی": 5882,
      "اثار": 5883,
      "سلامتی": 5884,
      "صورتی": 5885,
      "خاکستری": 5886,
      "what": 5887,
      "حاصل": 5888,
      "علم": 5889,
      "پات": 5890,
      "چنگ": 5891,
      "توت": 5892,
      "درخواست": 5893,
      "هممون": 5894,
      "اینگونه": 5895,
      "اینجاست": 5896,
      "نمیره": 5897,
      "ویژگی": 5898,
      "داي": 5899,
      "کیف": 5900,
      "اطرافی": 5901,
      "iss": 5902,
      "heart": 5903,
      "پسری": 5904,
      "دیوانگی": 5905,
      "سنگینی": 5906,
      "ﺍﯾﻦ": 5907,
      "حیاط": 5908,
      "ep": 5909,
      "اگاهی": 5910,
      "بتونه": 5911,
      "خنک": 5912,
      "سون": 5913,
      "ﯾﮏ": 5914,
      "ستانی": 5915,
      "بیاری": 5916,
      "بیداری": 5917,
      "سیاسی": 5918,
      "اهی": 5919,
      "نمیشود": 5920,
      "دهان": 5921,
      "وران": 5922,
      "زندگیمو": 5923,
      "دستای": 5924,
      "دستمو": 5925,
      "کرم": 5926,
      "کسیه": 5927,
      "اصط": 5928,
      "خوشگلی": 5929,
      "محمدر": 5930,
      "دقیق": 5931,
      "تکلی": 5932,
      "دوسشون": 5933,
      "بگویید": 5934,
      "بکشد": 5935,
      "زيبا": 5936,
      "ببینمت": 5937,
      "مسيول": 5938,
      "ابراهیم": 5939,
      "فرستادید": 5940,
      "تلگرام": 5941,
      "تقریبا": 5942,
      "con": 5943,
      "was": 5944,
      "بــ": 5945,
      "بشر": 5946,
      "تایم": 5947,
      "خج": 5948,
      "دانه": 5949,
      "طلب": 5950,
      "فق": 5951,
      "کـ": 5952,
      "𝖸𝗈𝗎": 5953,
      "توص": 5954,
      "البوم": 5955,
      "ویزی": 5956,
      "لاف": 5957,
      "گوگ": 5958,
      "کارم": 5959,
      "دادند": 5960,
      "ish": 5961,
      "مرت": 5962,
      "دختره": 5963,
      "ببیند": 5964,
      "hast": 5965,
      "بگذره": 5966,
      "میگیری": 5967,
      "حیوان": 5968,
      "سلامت": 5969,
      "حمله": 5970,
      "دقي": 5971,
      "شیرینی": 5972,
      "عکاسی": 5973,
      "فعالیت": 5974,
      "!\"": 5975,
      "ea": 5976,
      "اپل": 5977,
      "رخت": 5978,
      "سقف": 5979,
      "میکشی": 5980,
      "میشوم": 5981,
      "اني": 5982,
      "امام": 5983,
      "برت": 5984,
      "نگرا": 5985,
      "نگفته": 5986,
      "تمون": 5987,
      "اونقد": 5988,
      "کارایی": 5989,
      "گرفتار": 5990,
      "باشي": 5991,
      "ديدم": 5992,
      "اشتیاق": 5993,
      "فروشی": 5994,
      "کودکان": 5995,
      "صالح": 5996,
      "اهداف": 5997,
      "استعداد": 5998,
      "chiz": 5999,
      "لازمه": 6000,
      "خان": 6001,
      "عر": 6002,
      "مکن": 6003,
      "مفی": 6004,
      "کرو": 6005,
      "گلو": 6006,
      "ﮔﺮ": 6007,
      "ﻫﻢ": 6008,
      "رافت": 6009,
      "بیر": 6010,
      "بیاره": 6011,
      "هرشب": 6012,
      "نمای": 6013,
      "زندگیتو": 6014,
      "زندگیمون": 6015,
      "ميگه": 6016,
      "اينه": 6017,
      "اعتی": 6018,
      "ناخوداگاه": 6019,
      "سهراب": 6020,
      "قربانی": 6021,
      "تلویزی": 6022,
      "خاطرا": 6023,
      "زیباتر": 6024,
      "this": 6025,
      "بذاری": 6026,
      "مخفی": 6027,
      "دعوت": 6028,
      "وعده": 6029,
      "حسین_": 6030,
      "اشتباهی": 6031,
      "بنابر": 6032,
      "محیط": 6033,
      "انلاین": 6034,
      "ain": 6035,
      "ببرید": 6036,
      "زانو": 6037,
      "كوت": 6038,
      "لغ": 6039,
      "ﻣﻦ": 6040,
      "🖕🏻": 6041,
      "انهایی": 6042,
      "انگاه": 6043,
      "ازون": 6044,
      "روبرو": 6045,
      "یهویی": 6046,
      "روزنوشت": 6047,
      "فرانسوی": 6048,
      "سرزنش": 6049,
      "حرفه": 6050,
      "تونستی": 6051,
      "اکثر": 6052,
      "haei": 6053,
      "درونم": 6054,
      "بگذارید": 6055,
      "صورتت": 6056,
      "خطا": 6057,
      "جنون": 6058,
      "معشوقه": 6059,
      "علي_ق": 6060,
      "اهمیتی": 6061,
      "chizhaei": 6062,
      "chizhaeihast": 6063,
      ":«": 6064,
      "بنو": 6065,
      "تس": 6066,
      "جانی": 6067,
      "سفت": 6068,
      "لج": 6069,
      "𝖻𝖾": 6070,
      "درمی": 6071,
      "اسمت": 6072,
      "تنهای": 6073,
      "دايم": 6074,
      "قطار": 6075,
      "بوری": 6076,
      "کوفسکی": 6077,
      "ven": 6078,
      "اصرار": 6079,
      "محض": 6080,
      "سوس": 6081,
      "درستی": 6082,
      "میدانم": 6083,
      "تشکر": 6084,
      "جلسه": 6085,
      "ted": 6086,
      "حلقه": 6087,
      "چارلز": 6088,
      "سازد": 6089,
      "وحشی": 6090,
      "پارتنرم": 6091,
      "اندیشه": 6092,
      "کوچولوی": 6093,
      "زحمت": 6094,
      "ct": 6095,
      "gi": 6096,
      "بکن": 6097,
      "جايي": 6098,
      "درام": 6099,
      "لبخندی": 6100,
      "نخواهم": 6101,
      "هل": 6102,
      "ﮐﺮﺩ": 6103,
      "ﻬﺎ": 6104,
      "انکار": 6105,
      "بهونه": 6106,
      "ادبیات": 6107,
      "بیل": 6108,
      "بیچاره": 6109,
      "ویران": 6110,
      "شماست": 6111,
      "حالتو": 6112,
      "کوب": 6113,
      "بازار": 6114,
      "دنیارو": 6115,
      "فراتر": 6116,
      "نظرت": 6117,
      "نگیر": 6118,
      "دخترک": 6119,
      "خیالم": 6120,
      "خدایی": 6121,
      "فهمد": 6122,
      "کلافه": 6123,
      "میدونه": 6124,
      "عباس_": 6125,
      "اینستاگ": 6126,
      "مسافرت": 6127,
      "تفریح": 6128,
      "co": 6129,
      "عده": 6130,
      "عاق": 6131,
      "نتوان": 6132,
      "𝗈𝗈": 6133,
      "اراده": 6134,
      "ندید": 6135,
      "بهمن": 6136,
      "اشپز": 6137,
      "دلار": 6138,
      "تنش": 6139,
      "بارانی": 6140,
      "بارونی": 6141,
      "بزارم": 6142,
      "بخوان": 6143,
      "همانطور": 6144,
      "گلوله": 6145,
      "جیب": 6146,
      "رسند": 6147,
      "تحلیل": 6148,
      "هايت": 6149,
      "نزدیکی": 6150,
      "چيزی": 6151,
      "جنسی": 6152,
      "دانیم": 6153,
      "ضربان": 6154,
      "متوقف": 6155,
      "خجالت": 6156,
      "بنابراین": 6157,
      "ill": 6158,
      "up": 6159,
      "wan": 6160,
      "بستم": 6161,
      "جویی": 6162,
      "ناه": 6163,
      "وضع": 6164,
      "ﯿﺮ": 6165,
      "میانه": 6166,
      "میشدم": 6167,
      "بیاورد": 6168,
      "الن": 6169,
      "روزانه": 6170,
      "رفتنش": 6171,
      "بخونید": 6172,
      "احساساتی": 6173,
      "بگذرد": 6174,
      "کلید": 6175,
      "گشتم": 6176,
      "تقسیم": 6177,
      "فلس": 6178,
      "will": 6179,
      "جذب": 6180,
      "حاضرم": 6181,
      "بفهمم": 6182,
      "sain": 6183,
      "پايولو": 6184,
      "ﺩﯾﮕ": 6185,
      "Re": 6186,
      "ثی": 6187,
      "خصو": 6188,
      "دما": 6189,
      "ذاره": 6190,
      "سحر": 6191,
      "كان": 6192,
      "میند": 6193,
      "میگفتم": 6194,
      "میرود": 6195,
      "تونیم": 6196,
      "خوراکی": 6197,
      "همتون": 6198,
      "بیارم": 6199,
      "ورژن": 6200,
      "اونها": 6201,
      "احوال": 6202,
      "بودید": 6203,
      "بداند": 6204,
      "شنوی": 6205,
      "برامون": 6206,
      "شانس": 6207,
      "خوردی": 6208,
      "کشند": 6209,
      "رنجی": 6210,
      "علق": 6211,
      "بذارم": 6212,
      "مدیتی": 6213,
      "تصویری": 6214,
      "حمید_": 6215,
      "shk": 6216,
      "تبریک": 6217,
      "متاسفانه": 6218,
      "کاهش": 6219,
      "واکنش": 6220,
      "نوتیف": 6221,
      "یاس": 6222,
      "انقلاب": 6223,
      "نیا": 6224,
      "سیاره": 6225,
      "نمیشم": 6226,
      "نمیگم": 6227,
      "بدانی": 6228,
      "کیل": 6229,
      "بخشه": 6230,
      "بخنده": 6231,
      "اخم": 6232,
      "اندکی": 6233,
      "شبایی": 6234,
      "بخونم": 6235,
      "دیوون": 6236,
      "مقصد": 6237,
      "میتواند": 6238,
      "زمستون": 6239,
      "بروند": 6240,
      "فرود": 6241,
      "بشین": 6242,
      "اذیتت": 6243,
      "میکشه": 6244,
      "میخام": 6245,
      "جالبی": 6246,
      "پیشنهاد_کتاب": 6247,
      "اعتیاد": 6248,
      "فلسفه": 6249,
      "fore": 6250,
      "عرض": 6251,
      "قي": 6252,
      "قایق": 6253,
      "هـ": 6254,
      "پتو": 6255,
      "یجوری": 6256,
      "ﺒﺎ": 6257,
      "رودی": 6258,
      "منف": 6259,
      "دودی": 6260,
      "ماق": 6261,
      "گرما": 6262,
      "شمس": 6263,
      "نمون": 6264,
      "فرض": 6265,
      "دستتو": 6266,
      "دستام": 6267,
      "دستاتو": 6268,
      "ميدون": 6269,
      "بزاری": 6270,
      "فکرم": 6271,
      "ولى": 6272,
      "حسودی": 6273,
      "ist": 6274,
      "متعلق": 6275,
      "گمشده": 6276,
      "بخوره": 6277,
      "فراوان": 6278,
      "نفره": 6279,
      "فهمیدی": 6280,
      "باورم": 6281,
      "كنن": 6282,
      "عالمه": 6283,
      "صورتم": 6284,
      "اریانفر": 6285,
      "اميرعلي_ق": 6286,
      "بگ": 6287,
      "حاج": 6288,
      "دایی": 6289,
      "نخور": 6290,
      "يز": 6291,
      "ﯾﻢ": 6292,
      "میمیرم": 6293,
      "میمونی": 6294,
      "توس": 6295,
      "راح": 6296,
      "امر": 6297,
      "ردم": 6298,
      "منز": 6299,
      "الهام": 6300,
      "گین": 6301,
      "...\"": 6302,
      "داشتنش": 6303,
      "قید": 6304,
      "فکرش": 6305,
      "قشنگت": 6306,
      "صدایت": 6307,
      "طرفه": 6308,
      "میدانی": 6309,
      "بشینم": 6310,
      "ابتدا": 6311,
      "تقصیر": 6312,
      "اپلود": 6313,
      "St": 6314,
      "mu": 6315,
      "جاف": 6316,
      "حبس": 6317,
      "دندان": 6318,
      "دکمه": 6319,
      "شف": 6320,
      "عجب": 6321,
      "غمی": 6322,
      "فك": 6323,
      "مظ": 6324,
      "مایی": 6325,
      "ممنو": 6326,
      "نمانده": 6327,
      "وج": 6328,
      "پـ": 6329,
      "کــ": 6330,
      "یك": 6331,
      "ﺑﺮ": 6332,
      "ﺷﺘ": 6333,
      "😂😂": 6334,
      "رویم": 6335,
      "الوده": 6336,
      "گیریم": 6337,
      "نمیدم": 6338,
      "اسپ": 6339,
      "دلبری": 6340,
      "اشته": 6341,
      "قدری": 6342,
      "شنا": 6343,
      "براورد": 6344,
      "مترو": 6345,
      "میخوان": 6346,
      "بخوری": 6347,
      "رسیدی": 6348,
      "انجامش": 6349,
      "فراموشش": 6350,
      "هايى": 6351,
      "پسره": 6352,
      "رقصی": 6353,
      "بگویی": 6354,
      "كوچ": 6355,
      "سادگی": 6356,
      "مفهوم": 6357,
      "توصیه": 6358,
      "We": 6359,
      "every": 6360,
      "بپرسی": 6361,
      "تمو": 6362,
      "شگفت": 6363,
      "ماری": 6364,
      "متولد": 6365,
      "ﺧﻮﺍ": 6366,
      "خوانی": 6367,
      "داري": 6368,
      "اهو": 6369,
      "چینی": 6370,
      "ورزی": 6371,
      "سرباز": 6372,
      "حالتی": 6373,
      "پرتق": 6374,
      "بعدها": 6375,
      "دنیام": 6376,
      "چشمه": 6377,
      "وصف": 6378,
      "لینک": 6379,
      "مطمينم": 6380,
      "کتابخانه": 6381,
      "لومتر": 6382,
      "عذر": 6383,
      "ممنون": 6384,
      "خصوصی": 6385,
      "shkb": 6386,
      "جافکری": 6387,
      "=))": 6388,
      "But": 6389,
      "Go": 6390,
      "Ma": 6391,
      "km": 6392,
      "دز": 6393,
      "قادر": 6394,
      "ینی": 6395,
      "ﻫﺮ": 6396,
      "𝗁𝖾": 6397,
      "𝗈𝗋": 6398,
      "خونی": 6399,
      "بینید": 6400,
      "گیاه": 6401,
      "داريم": 6402,
      "ادمارو": 6403,
      "معصو": 6404,
      "معذرت": 6405,
      "مثال": 6406,
      "مونو": 6407,
      "مردها": 6408,
      "تابستان": 6409,
      "تنهات": 6410,
      "امین": 6411,
      "قراری": 6412,
      "ارزشمند": 6413,
      "ديم": 6414,
      "اغما": 6415,
      "اموزش": 6416,
      "گیرن": 6417,
      "کلاسی": 6418,
      "ـیـ": 6419,
      "برگشتم": 6420,
      "عروس": 6421,
      "ways": 6422,
      "a_shkb": 6423,
      "اخلاقی": 6424,
      "تلویزیون": 6425,
      "It": 6426,
      "who": 6427,
      "بایی": 6428,
      "جرات": 6429,
      "سند": 6430,
      "ضبط": 6431,
      "كتاب": 6432,
      "مک": 6433,
      "محال": 6434,
      "نسیم": 6435,
      "هدر": 6436,
      "وي": 6437,
      "چرت": 6438,
      "چاپ": 6439,
      "گام": 6440,
      "𝗂𝗍": 6441,
      "میکردیم": 6442,
      "میبینه": 6443,
      "راج": 6444,
      "باکس": 6445,
      "نیچه": 6446,
      "ادل": 6447,
      "برفی": 6448,
      "تیره": 6449,
      "سیمین": 6450,
      "استی": 6451,
      "دلتون": 6452,
      "نمایی": 6453,
      "زندگیمی": 6454,
      "اخته": 6455,
      "بلدی": 6456,
      "خیلیا": 6457,
      "نيم": 6458,
      "شایدم": 6459,
      "نظام": 6460,
      "نسل": 6461,
      "ari": 6462,
      "علی_": 6463,
      "self": 6464,
      "روشنایی": 6465,
      "بوسید": 6466,
      "بشناسی": 6467,
      "همواره": 6468,
      "فارغ": 6469,
      "نذار": 6470,
      "معتاد": 6471,
      "𝗂𝗇𝗀": 6472,
      "توجهی": 6473,
      "هواپیما": 6474,
      "مدیتیشن": 6475,
      "Mi": 6476,
      "Th": 6477,
      "ex": 6478,
      "بمو": 6479,
      "بتواند": 6480,
      "داو": 6481,
      "طریق": 6482,
      "ظم": 6483,
      "كشي": 6484,
      "نبینم": 6485,
      "هراس": 6486,
      "کاس": 6487,
      "باتو": 6488,
      "نیاد": 6489,
      "روست": 6490,
      "ریختن": 6491,
      "ماتم": 6492,
      "اسایش": 6493,
      "نمونه": 6494,
      "شتن": 6495,
      "نواز": 6496,
      "ment": 6497,
      "جودی": 6498,
      "mir": 6499,
      "چیزو": 6500,
      "ناامیدی": 6501,
      "مهارت": 6502,
      "بخونی": 6503,
      "بخواند": 6504,
      "جایش": 6505,
      "جایگزی": 6506,
      "وجودش": 6507,
      "ندیدی": 6508,
      "درستش": 6509,
      "let": 6510,
      "شعور": 6511,
      "مطلق": 6512,
      "see": 6513,
      "دیدنت": 6514,
      "دیدنش": 6515,
      "بزنن": 6516,
      "ایستاد": 6517,
      "دریایی": 6518,
      "خصوص": 6519,
      "kimi": 6520,
      "اذر": 6521,
      "حکایت": 6522,
      "اصطلاح": 6523,
      ").": 6524,
      "By": 6525,
      "تشوی": 6526,
      "خرو": 6527,
      "ذارم": 6528,
      "رند": 6529,
      "قاع": 6530,
      "نای": 6531,
      "ناشی": 6532,
      "پزش": 6533,
      "میکس": 6534,
      "باف": 6535,
      "بیایی": 6536,
      "کنسرت": 6537,
      "برسیم": 6538,
      "دني": 6539,
      "بدنم": 6540,
      "کوبی": 6541,
      "افق": 6542,
      "ound": 6543,
      "حسای": 6544,
      "مرهم": 6545,
      "میخورم": 6546,
      "یادمان": 6547,
      "تعلق": 6548,
      "کشتی": 6549,
      "ars": 6550,
      "اوردی": 6551,
      "صورتش": 6552,
      "دریای": 6553,
      "حرص": 6554,
      "سفره": 6555,
      "امونو": 6556,
      "یواشکی": 6557,
      "aby": 6558,
      "رنگین": 6559,
      "ﺩﺍﺭ": 6560,
      "پشیمون": 6561,
      "تسلیم": 6562,
      "تردید": 6563,
      "hy": 6564,
      "use": 6565,
      "تخم": 6566,
      "ثال": 6567,
      "جرم": 6568,
      "جین": 6569,
      "فعال": 6570,
      "مبل": 6571,
      "هول": 6572,
      "پله": 6573,
      "چاه": 6574,
      "چتر": 6575,
      "‏-": 6576,
      "میزند": 6577,
      "میتونن": 6578,
      "خورم": 6579,
      "روایت": 6580,
      "شیوه": 6581,
      "ایینه": 6582,
      "روزبه": 6583,
      "چهارم": 6584,
      "ميگم": 6585,
      "کیلومتر": 6586,
      "miss": 6587,
      "عشقش": 6588,
      "شونت": 6589,
      "پسرا": 6590,
      "نزدي": 6591,
      "ream": 6592,
      "مهمونی": 6593,
      "مقصر": 6594,
      "تحویل": 6595,
      "شکلات": 6596,
      "شرح": 6597,
      "تکون": 6598,
      "حقوق": 6599,
      "یادمه": 6600,
      "اثری": 6601,
      "برگرده": 6602,
      "خانوم": 6603,
      "ایستگاه": 6604,
      "انداخته": 6605,
      "میلیارد": 6606,
      "محمود_": 6607,
      "saina_shkb": 6608,
      "To": 6609,
      "ge": 6610,
      "kh": 6611,
      "بخواهی": 6612,
      "تض": 6613,
      "جلب": 6614,
      "حادث": 6615,
      "دزد": 6616,
      "سکو": 6617,
      "شباه": 6618,
      "عض": 6619,
      "عك": 6620,
      "فامی": 6621,
      "ملا": 6622,
      "نشم": 6623,
      "نات": 6624,
      "یابد": 6625,
      "ﺪﺍ": 6626,
      "🤘🏻": 6627,
      "میگ": 6628,
      "میداد": 6629,
      "مناس": 6630,
      "برسم": 6631,
      "اینهمه": 6632,
      "تاکسی": 6633,
      "نمیدانم": 6634,
      "زندانی": 6635,
      "سرطان": 6636,
      "افی": 6637,
      "رفتند": 6638,
      "کارای": 6639,
      "رویی": 6640,
      "رویایی": 6641,
      "عیب": 6642,
      "چندان": 6643,
      "اتفاقا": 6644,
      "بهترين": 6645,
      "بگذارم": 6646,
      "پاتر": 6647,
      "رضایت": 6648,
      "مستقیم": 6649,
      "قفلی": 6650,
      "بستنی": 6651,
      "مزاح": 6652,
      "بشنوم": 6653,
      "اطلاعات": 6654,
      "eyes": 6655,
      "ie": 6656,
      "night": 6657,
      "بنف": 6658,
      "تغ": 6659,
      "سپری": 6660,
      "ضای": 6661,
      "عن": 6662,
      "عدم": 6663,
      "ـو": 6664,
      "فاج": 6665,
      "قور": 6666,
      "پرید": 6667,
      "کشه": 6668,
      "درحال": 6669,
      "همشون": 6670,
      "وره": 6671,
      "لااقل": 6672,
      "بارد": 6673,
      "افسوس": 6674,
      "خواهرم": 6675,
      "نشونه": 6676,
      "عاشقم": 6677,
      "ندیدم": 6678,
      "بيدار": 6679,
      "مقدار": 6680,
      "har": 6681,
      "ent": 6682,
      "خيلى": 6683,
      "تفاوتی": 6684,
      "موندم": 6685,
      "لایق": 6686,
      "ترسیدم": 6687,
      "مصط": 6688,
      "right": 6689,
      "بعضي": 6690,
      "اقیانوس": 6691,
      "مکالمه": 6692,
      "معاشرت": 6693,
      "اینستاگرام": 6694,
      "حادثه": 6695,
      "فاجعه": 6696,
      "Man": 6697,
      "Ro": 6698,
      "gra": 6699,
      "ye": 6700,
      "تفکر": 6701,
      "تــ": 6702,
      "جار": 6703,
      "جاری": 6704,
      "حي": 6705,
      "خسرو": 6706,
      "سبب": 6707,
      "صفر": 6708,
      "قاط": 6709,
      "مطرح": 6710,
      "هار": 6711,
      "ولا": 6712,
      "گست": 6713,
      "یارو": 6714,
      "ﺘﯽ": 6715,
      "ﺳﺎ": 6716,
      "رومن": 6717,
      "درحالی": 6718,
      "ونگوگ": 6719,
      "اشغال": 6720,
      "موجب": 6721,
      "زیاده": 6722,
      "دلخور": 6723,
      "روزنامه": 6724,
      "ميره": 6725,
      "more": 6726,
      "lie": 6727,
      "بلندی": 6728,
      "جوون": 6729,
      "زنن": 6730,
      "لبخندت": 6731,
      "دنبالت": 6732,
      "بینمون": 6733,
      "دفن": 6734,
      "خطاب": 6735,
      "پناهی": 6736,
      "قفس": 6737,
      "شلوغی": 6738,
      "میخاد": 6739,
      "انداخت": 6740,
      "لبام": 6741,
      "ople": 6742,
      "تپش": 6743,
      "دشوار": 6744,
      "حرمت": 6745,
      "ara": 6746,
      "بگرد": 6747,
      "بایست": 6748,
      "حج": 6749,
      "عز": 6750,
      "قورت": 6751,
      "كنی": 6752,
      "مقی": 6753,
      "نحو": 6754,
      "𝗈𝗐": 6755,
      "میـ": 6756,
      "روى": 6757,
      "بررسی": 6758,
      "لیت": 6759,
      "نگری": 6760,
      "دهن": 6761,
      "ابرو": 6762,
      "ابقه": 6763,
      "دلمان": 6764,
      "دليل": 6765,
      "ادمهایی": 6766,
      "اتم": 6767,
      "نوش": 6768,
      "شبيه": 6769,
      "اعماق": 6770,
      "مشتا": 6771,
      ":)💔": 6772,
      "اجرا": 6773,
      "میزنن": 6774,
      "صبحانه": 6775,
      "همونجا": 6776,
      "lea": 6777,
      "میگیرد": 6778,
      "صداتو": 6779,
      "اتوبوس": 6780,
      "پلک": 6781,
      "how": 6782,
      "کالکشن": 6783,
      "وظی": 6784,
      "Don": 6785,
      "Ha": 6786,
      "rom": 6787,
      "اباد": 6788,
      "تاز": 6789,
      "دشت": 6790,
      "شرا": 6791,
      "شکن": 6792,
      "مــ": 6793,
      "نباشید": 6794,
      "کج": 6795,
      "گى": 6796,
      "𝗈𝗏𝖾": 6797,
      "اندر": 6798,
      "انصاف": 6799,
      "سیگاری": 6800,
      "نگفتی": 6801,
      "زیستن": 6802,
      "ویدیو": 6803,
      "هیم": 6804,
      "نمره": 6805,
      "روزگاری": 6806,
      "ميان": 6807,
      "ميشد": 6808,
      "بدت": 6809,
      "بدانم": 6810,
      "ايی": 6811,
      "کنده": 6812,
      "حسم": 6813,
      "نفسم": 6814,
      "برداری": 6815,
      "فردای": 6816,
      "اعتراض": 6817,
      "دیدمت": 6818,
      "مهربونی": 6819,
      "هواتو": 6820,
      "خندیدم": 6821,
      "بشنوی": 6822,
      "افتادن": 6823,
      "سینما": 6824,
      "دراورد": 6825,
      "فرهاد": 6826,
      "يعني": 6827,
      "انتقام": 6828,
      "محتاج": 6829,
      "مبتلا": 6830,
      "جزيیات": 6831,
      "دوتایی": 6832,
      "ty": 6833,
      "دد": 6834,
      "سپه": 6835,
      "لاس": 6836,
      "مذه": 6837,
      "نبودیم": 6838,
      "کشان": 6839,
      "ﺗﺎ": 6840,
      "ﺯﻧﺪ": 6841,
      "ندن": 6842,
      "منح": 6843,
      "ترتی": 6844,
      "ترکم": 6845,
      "موهایت": 6846,
      "نمیشن": 6847,
      "اوار": 6848,
      "اومت": 6849,
      "اسمی": 6850,
      "دلگیر": 6851,
      "اشتم": 6852,
      "ness": 6853,
      "کارات": 6854,
      "براه": 6855,
      "لبم": 6856,
      "مرگی": 6857,
      "بخونیم": 6858,
      "ارزشی": 6859,
      "ارامشی": 6860,
      "مجله": 6861,
      "بگذاریم": 6862,
      "دنبالش": 6863,
      "گرمای": 6864,
      "چوبی": 6865,
      "اغوشم": 6866,
      "تراپی": 6867,
      "ﻫﺎﯼ": 6868,
      "چرخی": 6869,
      "بروید": 6870,
      "صالحی": 6871,
      "think": 6872,
      "پیرمرد": 6873,
      "کثیف": 6874,
      "عكاس": 6875,
      ".🥺": 6876,
      "Is": 6877,
      "بشید": 6878,
      "بپو": 6879,
      "بمانی": 6880,
      "بتوانم": 6881,
      "تمیز": 6882,
      "تعهد": 6883,
      "ثروت": 6884,
      "جزی": 6885,
      "سـ": 6886,
      "سابق": 6887,
      "عرف": 6888,
      "فقر": 6889,
      "ناد": 6890,
      "نشدم": 6891,
      "پرم": 6892,
      "گش": 6893,
      "میفر": 6894,
      "میارم": 6895,
      "میشوی": 6896,
      "نداده": 6897,
      "امدم": 6898,
      "درجه": 6899,
      "اینقد": 6900,
      "ماتی": 6901,
      "دلخوشی": 6902,
      "دلخوری": 6903,
      "برایشان": 6904,
      "مانع": 6905,
      "ادمک": 6906,
      "هیچگاه": 6907,
      "بدانید": 6908,
      "کیوت": 6909,
      "اعلام": 6910,
      "نشنی": 6911,
      "کشیدی": 6912,
      "مهمترین": 6913,
      "نیازمند": 6914,
      "مقاومت": 6915,
      "رسول": 6916,
      "درونگرا": 6917,
      "هايش": 6918,
      "داستای": 6919,
      "بسيار": 6920,
      "خلاص": 6921,
      "جنبه": 6922,
      "پاکت": 6923,
      "چشمانم": 6924,
      "اشنایی": 6925,
      "about": 6926,
      "خالیه": 6927,
      "ربطی": 6928,
      "پشیمان": 6929,
      "خوشمزه": 6930,
      "فنجان": 6931,
      "su": 6932,
      "بروز": 6933,
      "تسکی": 6934,
      "خام": 6935,
      "شل": 6936,
      "صرافی": 6937,
      "عبد": 6938,
      "فدای": 6939,
      "قايل": 6940,
      "پاه": 6941,
      "چل": 6942,
      "ژاپ": 6943,
      "گزار": 6944,
      "➖➖": 6945,
      "ﺑﯿ": 6946,
      "ﻓﺘ": 6947,
      "𝗅𝖾": 6948,
      "𝗎𝗍": 6949,
      "باله": 6950,
      "روبه": 6951,
      "نمیشی": 6952,
      "ویلی": 6953,
      "احمدی": 6954,
      "مياد": 6955,
      "بخت": 6956,
      "بخشم": 6957,
      "قین": 6958,
      "پرسم": 6959,
      "صدام": 6960,
      "خوشایند": 6961,
      "ful": 6962,
      "story": 6963,
      "دخانه": 6964,
      "فهمیدن": 6965,
      "مینوی": 6966,
      "برویم": 6967,
      "بنداز": 6968,
      "فهمند": 6969,
      "صداها": 6970,
      "ماله": 6971,
      "بگویند": 6972,
      "على": 6973,
      "غمگینی": 6974,
      "هاشو": 6975,
      "پرداز": 6976,
      "خوابیده": 6977,
      "خارجی": 6978,
      "تولدت": 6979,
      "وفادار": 6980,
      "شناخته": 6981,
      "فضا": 6982,
      "جعبه": 6983,
      "بمانم": 6984,
      "پزشک": 6985,
      "عجله": 6986,
      "رستوران": 6987,
      "پیراهن": 6988,
      "پرتقال": 6989,
      "سپهری": 6990,
      "Har": 6991,
      "bod": 6992,
      "fi": 6993,
      "hu": 6994,
      "ving": 6995,
      "بپوش": 6996,
      "تك": 6997,
      "خست": 6998,
      "زنج": 6999,
      "شير": 7000,
      "فرف": 7001,
      "نری": 7002,
      "ناخ": 7003,
      "نتونی": 7004,
      "ﻧﺎ": 7005,
      "𝖺𝗒": 7006,
      "میدان": 7007,
      "میخنده": 7008,
      "میفهمم": 7009,
      "ارایش": 7010,
      "ستار": 7011,
      "باورت": 7012,
      "رودخانه": 7013,
      "دارایی": 7014,
      "مول": 7015,
      "خودتم": 7016,
      "گرگ": 7017,
      "زین": 7018,
      "اسون": 7019,
      "کید": 7020,
      "بخرم": 7021,
      "معرفت": 7022,
      "معتق": 7023,
      "گذارم": 7024,
      "توني": 7025,
      "کلاه": 7026,
      "ــا": 7027,
      "قلبتو": 7028,
      "گرفتند": 7029,
      "نياز": 7030,
      "پادشاه": 7031,
      "يكى": 7032,
      "درواقع": 7033,
      "بذارید": 7034,
      "شامل": 7035,
      "میومد": 7036,
      "نشدنی": 7037,
      "طبیع": 7038,
      "!!!": 7039,
      "محمد_": 7040,
      "علاقم": 7041,
      "اندیشی": 7042,
      "هشتاد": 7043,
      "own": 7044,
      "world": 7045,
      "هورمون": 7046,
      "پیتزا": 7047,
      "مفید": 7048,
      "منزوی": 7049,
      "وظیفه": 7050,
      "Gen": 7051,
      "خشونت": 7052,
      "زب": 7053,
      "شراب": 7054,
      "عمه": 7055,
      "غمت": 7056,
      "ـن": 7057,
      "فاع": 7058,
      "محس": 7059,
      "میگوید": 7060,
      "دري": 7061,
      "همسرش": 7062,
      "دول": 7063,
      "لیو": 7064,
      "وقفه": 7065,
      "تابی": 7066,
      "ابله": 7067,
      "لامی": 7068,
      "رفاقت": 7069,
      "new": 7070,
      "کینه": 7071,
      "حرفاش": 7072,
      "لبت": 7073,
      "نشدی": 7074,
      "قران": 7075,
      "جایزه": 7076,
      "بینن": 7077,
      "بدهی": 7078,
      "بگذارد": 7079,
      "اصلاح": 7080,
      "بکشه": 7081,
      "هامان": 7082,
      "توییت": 7083,
      "خانواد": 7084,
      "گوشیم": 7085,
      "سراسر": 7086,
      "پناهگاه": 7087,
      "سرشار": 7088,
      "دایره": 7089,
      "شکیبایی": 7090,
      "جالبه": 7091,
      "عکاس": 7092,
      "افریده": 7093,
      "مخصوصا": 7094,
      "روزمره": 7095,
      "رعایت": 7096,
      "نرگس": 7097,
      "براورده": 7098,
      "براهنی": 7099,
      "ژاپنی": 7100,
      "If": 7101,
      "ببریم": 7102,
      "تعی": 7103,
      "ثرو": 7104,
      "شادم": 7105,
      "فان": 7106,
      "كی": 7107,
      "ناق": 7108,
      "نتونستم": 7109,
      "يط": 7110,
      "يق": 7111,
      "انــ": 7112,
      "تولید": 7113,
      "بیفتد": 7114,
      "استخوان": 7115,
      "دهه": 7116,
      "ابرا": 7117,
      "دلشون": 7118,
      "خیص": 7119,
      "همیم": 7120,
      "سره": 7121,
      "نیستید": 7122,
      "حالمون": 7123,
      "اونوقت": 7124,
      "ميكرد": 7125,
      "اخبار": 7126,
      "ايه": 7127,
      "جاهایی": 7128,
      "کنارمی": 7129,
      "سوزان": 7130,
      "مشاه": 7131,
      "هوس": 7132,
      "هوایی": 7133,
      "میزدم": 7134,
      "گلوی": 7135,
      "وسایل": 7136,
      "مغرور": 7137,
      "always": 7138,
      "بگوییم": 7139,
      "دلتنگت": 7140,
      "شاهین": 7141,
      "قضیه": 7142,
      "شتیم": 7143,
      "مبارزه": 7144,
      "احمقانه": 7145,
      "عروسک": 7146,
      "تصادف": 7147,
      "منظورم": 7148,
      "چسبیده": 7149,
      "kmz": 7150,
      "تعیین": 7151,
      "Wi": 7152,
      "qu": 7153,
      "ببوس": 7154,
      "حموم": 7155,
      "عود": 7156,
      "فکت": 7157,
      "لک": 7158,
      "مخاط": 7159,
      "نر": 7160,
      "نما": 7161,
      "واض": 7162,
      "چمد": 7163,
      "ﮑﯽ": 7164,
      "ﺁﻥ": 7165,
      "ﻣﺎﻥ": 7166,
      "ﻭﻗ": 7167,
      "𝖾𝗌": 7168,
      "𝗅𝗅": 7169,
      "میفته": 7170,
      "ایلی": 7171,
      "ادب": 7172,
      "برقرار": 7173,
      "اینتر": 7174,
      "بودنم": 7175,
      "نمیکند": 7176,
      "نهفته": 7177,
      "سرانجام": 7178,
      "oul": 7179,
      "حرفام": 7180,
      "بازگشت": 7181,
      "نشستن": 7182,
      "صدتا": 7183,
      "دوربین": 7184,
      "اموز": 7185,
      "میتونید": 7186,
      "منتشر": 7187,
      "صداي": 7188,
      "حدود": 7189,
      "ساختم": 7190,
      "بذاره": 7191,
      "غذایی": 7192,
      "هيچكس": 7193,
      "حقیقی": 7194,
      "بوسیدم": 7195,
      "نازک": 7196,
      "بفهمد": 7197,
      "نخستین": 7198,
      "فیلمی": 7199,
      "گندم": 7200,
      "ساعتی": 7201,
      "بفرس": 7202,
      "تبریزی": 7203,
      "گذارند": 7204,
      "طلایی": 7205,
      "تعطیل": 7206,
      "سبزی": 7207,
      "ترتیب": 7208,
      "ol": 7209,
      "sk": 7210,
      "اکی": 7211,
      "بدر": 7212,
      "تکنی": 7213,
      "زای": 7214,
      "عقی": 7215,
      "قق": 7216,
      "قاي": 7217,
      "مریم": 7218,
      "نخواست": 7219,
      "نخواهی": 7220,
      "پاشی": 7221,
      "گاو": 7222,
      "یاری": 7223,
      "ندگان": 7224,
      "خودی": 7225,
      "ادا": 7226,
      "المل": 7227,
      "برتر": 7228,
      "دوچرخه": 7229,
      "بودي": 7230,
      "مواد": 7231,
      "موندی": 7232,
      "...»": 7233,
      "نميك": 7234,
      "پیپر": 7235,
      "خیل": 7236,
      "ميكردم": 7237,
      "وقتها": 7238,
      "اختل": 7239,
      "اندازد": 7240,
      "اطمین": 7241,
      "شما_": 7242,
      "مهتاب": 7243,
      "میخورد": 7244,
      "یادداشت": 7245,
      "بخورید": 7246,
      "باشيد": 7247,
      "افتم": 7248,
      "نظری": 7249,
      "مجنون": 7250,
      "پیام_": 7251,
      "رضا_": 7252,
      "والپیپر": 7253,
      "فرزندان": 7254,
      "ساعته": 7255,
      "عقاید": 7256,
      "ببندی": 7257,
      "چالش": 7258,
      "پارتنرتون": 7259,
      "اختلاف": 7260,
      "مشهور": 7261,
      "تحصیل": 7262,
      "محمدرضا": 7263,
      "کرونا": 7264,
      "ناهار": 7265,
      "body": 7266,
      "De": 7267,
      "mb": 7268,
      "اخی": 7269,
      "جس": 7270,
      "جسمی": 7271,
      "خـ": 7272,
      "دع": 7273,
      "زاری": 7274,
      "صابر": 7275,
      "طب": 7276,
      "عـ": 7277,
      "لایه": 7278,
      "نترسی": 7279,
      "وز": 7280,
      "وحد": 7281,
      "چمن": 7282,
      "ﺑﺪ": 7283,
      "ﻧﯽ": 7284,
      "نیک": 7285,
      "درختی": 7286,
      "الم": 7287,
      "فتن": 7288,
      "نگام": 7289,
      "مور": 7290,
      "اوریم": 7291,
      "any": 7292,
      "دوستای": 7293,
      "پیری": 7294,
      "ميرم": 7295,
      "ميبي": 7296,
      "گوگل": 7297,
      "هیچکی": 7298,
      "بوکوفسکی": 7299,
      "کوم": 7300,
      "رفتاری": 7301,
      "کمرنگ": 7302,
      "خواهش": 7303,
      "میخونم": 7304,
      "یادتون": 7305,
      "سوخته": 7306,
      "بگین": 7307,
      "چشمش": 7308,
      "بدونم": 7309,
      "گلستان": 7310,
      "دختران": 7311,
      "عوضی": 7312,
      "مادرت": 7313,
      "پاییزی": 7314,
      "مادربزرگ": 7315,
      "الوم": 7316,
      "حلش": 7317,
      "mahi": 7318,
      "میوفته": 7319,
      "فرصتی": 7320,
      "چيزى": 7321,
      "صمیمیت": 7322,
      "خریده": 7323,
      "درامد": 7324,
      "نزار_": 7325,
      "گرفتیم": 7326,
      "بنشین": 7327,
      "مهدی_": 7328,
      "مشتاق": 7329,
      "اطمینان": 7330,
      "mind": 7331,
      "other": 7332,
      "pl": 7333,
      "qal": 7334,
      "va": 7335,
      "؟”": 7336,
      "سانس": 7337,
      "سعادت": 7338,
      "شری": 7339,
      "فون": 7340,
      "نرفته": 7341,
      "نمونده": 7342,
      "وون": 7343,
      "ورود": 7344,
      "پونه": 7345,
      "چى": 7346,
      "کادو": 7347,
      "یالوم": 7348,
      "ﺗﺮ": 7349,
      "𝗈𝗆": 7350,
      "میدارم": 7351,
      "میبره": 7352,
      "بالم": 7353,
      "خواید": 7354,
      "منزل": 7355,
      "تربیت": 7356,
      "موراک": 7357,
      "برایمان": 7358,
      "ميگي": 7359,
      "بوت": 7360,
      "بدانیم": 7361,
      "ولش": 7362,
      "بلده": 7363,
      "فیز": 7364,
      "کسب": 7365,
      "مهند": 7366,
      "میخوری": 7367,
      "hile": 7368,
      "تنهاست": 7369,
      "بگیم": 7370,
      "قربان": 7371,
      "خوابش": 7372,
      "red": 7373,
      "حتى": 7374,
      "مهمون": 7375,
      "تنگه": 7376,
      "فهمیده": 7377,
      "ers": 7378,
      "پنجم": 7379,
      "ارتفاع": 7380,
      "جورج": 7381,
      "تشخیص": 7382,
      "مخالف": 7383,
      "شکستن": 7384,
      "قفسه": 7385,
      "هفتاد": 7386,
      "شلوغه": 7387,
      "سيگار": 7388,
      "شناختم": 7389,
      "عروسی": 7390,
      "people": 7391,
      "خطرناک": 7392,
      "جنگیدن": 7393,
      "معتقد": 7394,
      "پیوند": 7395,
      "جمعیت": 7396,
      "گنجشک": 7397,
      "••••": 7398,
      "سلطانی": 7399,
      "نزار_قبانی": 7400,
      "موراکامی": 7401,
      "((": 7402,
      "*-": 7403,
      "ame": 7404,
      "ron": 7405,
      "جغ": 7406,
      "خطی": 7407,
      "ذات": 7408,
      "شال": 7409,
      "ظلم": 7410,
      "عظیم": 7411,
      "غو": 7412,
      "غام": 7413,
      "قدیم": 7414,
      "لاو": 7415,
      "نباشیم": 7416,
      "ﻣﻮ": 7417,
      "𝖻𝖺": 7418,
      "میرسی": 7419,
      "ایشان": 7420,
      "برج": 7421,
      "نگاش": 7422,
      "هرچند": 7423,
      "...؟": 7424,
      "ادمه": 7425,
      "پیره": 7426,
      "سرچ": 7427,
      "انین": 7428,
      "بارم": 7429,
      "دستامو": 7430,
      "کمر": 7431,
      "مونن": 7432,
      "محافظ": 7433,
      "همینجوری": 7434,
      "جایگاه": 7435,
      "مهمانی": 7436,
      "مسابقه": 7437,
      "كردي": 7438,
      "ark": 7439,
      "حسینی": 7440,
      "bemahi": 7441,
      "مارک": 7442,
      "معنیش": 7443,
      "پردازی": 7444,
      "بگیرند": 7445,
      "بابام": 7446,
      "هاروکی": 7447,
      "احمد_": 7448,
      "خنثی": 7449,
      "حقیقتا": 7450,
      "حوصلگی": 7451,
      "مصطفی": 7452,
      "پیام_ناشناس": 7453,
      "طبقه": 7454,
      "qalbemahi": 7455,
      "Gm": 7456,
      "Just": 7457,
      "say": 7458,
      "بایل": 7459,
      "جارو": 7460,
      "حمل": 7461,
      "شاخ": 7462,
      "شکم": 7463,
      "ضرو": 7464,
      "كام": 7465,
      "كود": 7466,
      "پرا": 7467,
      "پاری": 7468,
      "پدید": 7469,
      "ﮔﻔ": 7470,
      "ﯾﯽ": 7471,
      "ﺷﻮ": 7472,
      "میخندم": 7473,
      "ایز": 7474,
      "بهاری": 7475,
      "خوانم": 7476,
      "درکش": 7477,
      "مناف": 7478,
      "دوبار": 7479,
      "لیک": 7480,
      "شیمی": 7481,
      "نمیکردم": 7482,
      "نمیدونه": 7483,
      "دلایل": 7484,
      "لاتی": 7485,
      "روزت": 7486,
      "فرمان": 7487,
      "نوری": 7488,
      "دستانت": 7489,
      "die": 7490,
      "ميشن": 7491,
      "بوسم": 7492,
      "دارمت": 7493,
      "وقتش": 7494,
      "ings": 7495,
      "مرک": 7496,
      "چیزیو": 7497,
      "انتها": 7498,
      "دورتر": 7499,
      "گردند": 7500,
      "بریده": 7501,
      "پیشش": 7502,
      "کشیم": 7503,
      "بدهند": 7504,
      "ste": 7505,
      "اسیر": 7506,
      "زدند": 7507,
      "نویسی": 7508,
      "داستانی": 7509,
      "تشنه": 7510,
      "جلال": 7511,
      "بزنند": 7512,
      "بحران": 7513,
      "مصاح": 7514,
      "جذابی": 7515,
      "سفارش": 7516,
      "بنویسید": 7517,
      "سخنرانی": 7518,
      "بفهمیم": 7519,
      "وحشتناک": 7520,
      "یلدا": 7521,
      "بدانند": 7522,
      "ali_": 7523,
      "ﺑﺮﺍﯼ": 7524,
      "هردو": 7525,
      "اشپزخانه": 7526,
      "حمید_سلیمی": 7527,
      "ویلیام": 7528,
      "مشاهده": 7529,
      "*-*": 7530,
      "When": 7531,
      "برون": 7532,
      "بشوم": 7533,
      "بکشید": 7534,
      "بنظرم": 7535,
      "بمیرد": 7536,
      "حیر": 7537,
      "خاست": 7538,
      "سپی": 7539,
      "طرا": 7540,
      "طلاق": 7541,
      "عظ": 7542,
      "نكن": 7543,
      "نرود": 7544,
      "نخورده": 7545,
      "يير": 7546,
      "کد": 7547,
      "کیک": 7548,
      "کبو": 7549,
      "کامی": 7550,
      "گشته": 7551,
      "ﯿﺰ": 7552,
      "اروین": 7553,
      "ستو": 7554,
      "توى": 7555,
      "باغه": 7556,
      "امریک": 7557,
      "درکت": 7558,
      "لیلا": 7559,
      "موبایل": 7560,
      "نمیخوای": 7561,
      "مانم": 7562,
      "یافته": 7563,
      "انیمیشن": 7564,
      "رهاش": 7565,
      "ميز": 7566,
      "بخر": 7567,
      "افش": 7568,
      "اختص": 7569,
      "بازهم": 7570,
      "داداش": 7571,
      "نشر": 7572,
      "ناپذیر": 7573,
      "حساسی": 7574,
      "گاهي": 7575,
      "صداقت": 7576,
      "امیز": 7577,
      "دير": 7578,
      "بخندیم": 7579,
      "اعتراف": 7580,
      "ناراحته": 7581,
      "بندم": 7582,
      "پسرش": 7583,
      "ارزوهای": 7584,
      "کلاغ": 7585,
      "اشکالی": 7586,
      "خلاقی": 7587,
      "عجیبه": 7588,
      "ابرها": 7589,
      "ــــــــ": 7590,
      "Your": 7591,
      "پذیرش": 7592,
      "بیشترین": 7593,
      "برداشته": 7594,
      "back": 7595,
      "وسیله": 7596,
      "ببوسمت": 7597,
      "شجاعت": 7598,
      "نزديك": 7599,
      "فامیل": 7600,
      "ali_gh": 7601,
      ".♥": 7602,
      "_به": 7603,
      "from": 7604,
      "tle": 7605,
      "جنو": 7606,
      "حما": 7607,
      "خصی": 7608,
      "طلا": 7609,
      "عکسی": 7610,
      "ـد": 7611,
      "فند": 7612,
      "كاف": 7613,
      "لش": 7614,
      "موقت": 7615,
      "نبرد": 7616,
      "وند": 7617,
      "ویک": 7618,
      "يند": 7619,
      "ﺑﮕ": 7620,
      "ﺸﻪ": 7621,
      "میون": 7622,
      "انرا": 7623,
      "اردو": 7624,
      "بها": 7625,
      "بهبود": 7626,
      "نیکو": 7627,
      "ادام": 7628,
      "امار": 7629,
      "دره": 7630,
      "گیج": 7631,
      "سیستم": 7632,
      "ترسه": 7633,
      "ورق": 7634,
      "نمک": 7635,
      "وقتیه": 7636,
      "رفع": 7637,
      "تنفر": 7638,
      "کیشن": 7639,
      "گذران": 7640,
      "جوش": 7641,
      "کمبود": 7642,
      "ناگفته": 7643,
      "عشقم": 7644,
      "مردمی": 7645,
      "سوزد": 7646,
      "گریز": 7647,
      "دردت": 7648,
      "گردنت": 7649,
      "خواستنی": 7650,
      "فراهم": 7651,
      "تصو": 7652,
      "همانند": 7653,
      "گلدان": 7654,
      "رسان": 7655,
      "اتفاقای": 7656,
      "چشمی": 7657,
      "نقشه": 7658,
      "نقاط": 7659,
      "علاقت": 7660,
      "پروفایل": 7661,
      "لذتی": 7662,
      "درونت": 7663,
      "شادمانی": 7664,
      "بدنت": 7665,
      "نشینی": 7666,
      "عملی": 7667,
      "مستقل": 7668,
      "خوابید": 7669,
      "چشمانش": 7670,
      "خودتونو": 7671,
      "بپرس": 7672,
      "بدبخت": 7673,
      "جستجو": 7674,
      "عطار": 7675,
      "میدونستم": 7676,
      "دویدن": 7677,
      "بگير": 7678,
      "عجيب": 7679,
      "بخوابیم": 7680,
      "shid": 7681,
      "شهریار": 7682,
      "ببوسم": 7683,
      "حیوانات": 7684,
      "تغيير": 7685,
      "منحصر": 7686,
      "تسکین": 7687,
      "تکنیک": 7688,
      "Gn": 7689,
      "Of": 7690,
      "jo": 7691,
      "ni": 7692,
      "بدل": 7693,
      "بدا": 7694,
      "بجز": 7695,
      "حاش": 7696,
      "خفن": 7697,
      "زر": 7698,
      "سپرد": 7699,
      "قتل": 7700,
      "كى": 7701,
      "لپ": 7702,
      "لابد": 7703,
      "مژه": 7704,
      "يح": 7705,
      "پنی": 7706,
      "ﺩﻡ": 7707,
      "ﺳﺮ": 7708,
      "ﻣﺪ": 7709,
      "ارايه": 7710,
      "خوشت": 7711,
      "خونده": 7712,
      "نیامده": 7713,
      "همانی": 7714,
      "اشفته": 7715,
      "اینجام": 7716,
      "دورد": 7717,
      "ترند": 7718,
      "تامین": 7719,
      "تابلو": 7720,
      "کردین": 7721,
      "زیست": 7722,
      "دوستات": 7723,
      "فرم": 7724,
      "سرتو": 7725,
      "هیچکدوم": 7726,
      "افرین": 7727,
      "جوم": 7728,
      "سوزه": 7729,
      "her": 7730,
      "گوییم": 7731,
      "باشگاه": 7732,
      "ren": 7733,
      "الیف": 7734,
      "اجبار": 7735,
      "فراق": 7736,
      "مهمان": 7737,
      "خوردیم": 7738,
      "جزو": 7739,
      "there": 7740,
      "بگذاری": 7741,
      "فهمن": 7742,
      "خاطرش": 7743,
      "خواندم": 7744,
      "شخصیتی": 7745,
      "بگیرن": 7746,
      "روانشناس": 7747,
      "شاهکار": 7748,
      "بلوغ": 7749,
      "book": 7750,
      "لنگرودی": 7751,
      "بیوفته": 7752,
      "ﻧﯿﺎ": 7753,
      "کیمیا": 7754,
      "شایع": 7755,
      "دندون": 7756,
      "دماغ": 7757,
      "پزشکی": 7758,
      "عكاسي": 7759,
      "\"،": 7760,
      "/?": 7761,
      ":|": 7762,
      "Mon": 7763,
      "Se": 7764,
      "_و": 7765,
      "baby": 7766,
      "ms": 7767,
      "اپلی": 7768,
      "تهی": 7769,
      "تخته": 7770,
      "حص": 7771,
      "صلح": 7772,
      "مبهم": 7773,
      "ننه": 7774,
      "نکردیم": 7775,
      "هزی": 7776,
      "چاو": 7777,
      "گـ": 7778,
      "یری": 7779,
      "میس": 7780,
      "میگفتی": 7781,
      "بهای": 7782,
      "توهی": 7783,
      "روباه": 7784,
      "بیایید": 7785,
      "اشکار": 7786,
      "موهاتو": 7787,
      "مواقع": 7788,
      "نهنگ": 7789,
      "ماندم": 7790,
      "رفین": 7791,
      "زندگیه": 7792,
      "زندگیشون": 7793,
      "فراری": 7794,
      "تنظیم": 7795,
      "ough": 7796,
      "جاود": 7797,
      "حسش": 7798,
      "سوت": 7799,
      "سواد": 7800,
      "دردش": 7801,
      "ندیدن": 7802,
      "بدهیم": 7803,
      "اينجا": 7804,
      "نتي": 7805,
      "پایدار": 7806,
      "چشاش": 7807,
      "منتقل": 7808,
      "یادمون": 7809,
      "جنگم": 7810,
      "خيلی": 7811,
      "خاطراتت": 7812,
      "قوانین": 7813,
      "بشنویم": 7814,
      "مغزت": 7815,
      "igshid": 7816,
      "بنویسی": 7817,
      "irl": 7818,
      "sic": 7819,
      "بلاک": 7820,
      "اغوشی": 7821,
      "نگرش": 7822,
      "بپرسم": 7823,
      "تيوری": 7824,
      "ربط": 7825,
      "ساختمان": 7826,
      "کراش": 7827,
      "دیوونگی": 7828,
      "ثالث": 7829,
      "زنجیر": 7830,
      "واضح": 7831,
      "احمد_شاملو": 7832,
      "):": 7833,
      ".⁣": 7834,
      ".🤍": 7835,
      "Do": 7836,
      "La": 7837,
      "Sun": 7838,
      "_ف": 7839,
      "ds": 7840,
      "wall": 7841,
      "بکنید": 7842,
      "تدری": 7843,
      "طاه": 7844,
      "فاض": 7845,
      "نژ": 7846,
      "نود": 7847,
      "هجوم": 7848,
      "يو": 7849,
      "پاب": 7850,
      "یوس": 7851,
      "ﻳﺪ": 7852,
      "𝗄𝖾": 7853,
      "𝗇𝖺": 7854,
      "𝗌𝗍": 7855,
      "𝗼𝘂": 7856,
      "میدیم": 7857,
      "میخند": 7858,
      "ازمون": 7859,
      "باهاتون": 7860,
      "ادع": 7861,
      "اشق": 7862,
      "الانم": 7863,
      "دورو": 7864,
      "استان": 7865,
      "ترکت": 7866,
      "شیدی": 7867,
      "موارد": 7868,
      "گرایی": 7869,
      "اوکی": 7870,
      "فرنگی": 7871,
      "حالتون": 7872,
      "دستور": 7873,
      "ميكند": 7874,
      "گوه": 7875,
      "ايران": 7876,
      "حرفاتو": 7877,
      "شبای": 7878,
      "اعتن": 7879,
      "خوشش": 7880,
      "محدودی": 7881,
      "بخورد": 7882,
      "سوء": 7883,
      "گارسی": 7884,
      "ارومت": 7885,
      "قشنگم": 7886,
      "پسش": 7887,
      "دیدگاه": 7888,
      "نفهم": 7889,
      "نفرین": 7890,
      "اجرای": 7891,
      "دونن": 7892,
      "نوزاد": 7893,
      "بالغ": 7894,
      "رساند": 7895,
      "happ": 7896,
      "مادری": 7897,
      "سلطان": 7898,
      "بگذرونم": 7899,
      "پنجاه": 7900,
      "alk": 7901,
      "شعری": 7902,
      "شعله": 7903,
      "پرورش": 7904,
      "منتظرت": 7905,
      "sed": 7906,
      "تفاهم": 7907,
      "بشناس": 7908,
      "شاهد": 7909,
      "رویاهای": 7910,
      "غلام": 7911,
      "paper": 7912,
      "خاکستر": 7913,
      "متاسفم": 7914,
      "اسفند": 7915,
      "ساينا": 7916,
      "ريیس": 7917,
      "دايما": 7918,
      "wanna": 7919,
      "فرودگاه": 7920,
      "_پور": 7921,
      "az": 7922,
      "ci": 7923,
      "ny": 7924,
      "wish": 7925,
      "بك": 7926,
      "بگردم": 7927,
      "ببين": 7928,
      "زون": 7929,
      "زله": 7930,
      "سنی": 7931,
      "شص": 7932,
      "شلیک": 7933,
      "عار": 7934,
      "عامل": 7935,
      "فاط": 7936,
      "لانه": 7937,
      "ماشی": 7938,
      "نــ": 7939,
      "هق": 7940,
      "وسو": 7941,
      "پولی": 7942,
      "‏«": 7943,
      "ﮐﻨﺪ": 7944,
      "ﮐﺎﺭ": 7945,
      "ﯾﮑﯽ": 7946,
      "ﺧﺎ": 7947,
      "𝖺𝗋": 7948,
      "🤌🏻": 7949,
      "میشدی": 7950,
      "میخواهی": 7951,
      "رال": 7952,
      "باهوش": 7953,
      "باختی": 7954,
      "همسرم": 7955,
      "بیژن": 7956,
      "التی": 7957,
      "المان": 7958,
      "دونیم": 7959,
      "لیه": 7960,
      "تاکید": 7961,
      "نگرفته": 7962,
      "موذی": 7963,
      "اسمانی": 7964,
      "دلمو": 7965,
      "هیز": 7966,
      "دستاشو": 7967,
      "بوسمت": 7968,
      "بزارید": 7969,
      "ايب": 7970,
      "پرسن": 7971,
      "ناکی": 7972,
      "مرانــ": 7973,
      "low": 7974,
      "سوخت": 7975,
      "چشمامو": 7976,
      "بریزم": 7977,
      "شدنت": 7978,
      "نزده": 7979,
      "نارنجی": 7980,
      "مقام": 7981,
      "مقدس": 7982,
      "رانندگی": 7983,
      "تحسین": 7984,
      "سمتت": 7985,
      "سرده": 7986,
      "انقدری": 7987,
      "علیه": 7988,
      "فریب": 7989,
      "علاوه": 7990,
      "پدرش": 7991,
      "اتاقت": 7992,
      "حیات": 7993,
      "خوابیدم": 7994,
      "چهارشنبه": 7995,
      "بوسیده": 7996,
      "پریشان": 7997,
      "برمیگرده": 7998,
      "کشیدند": 7999,
      "جونم": 8000,
      "كاري": 8001,
      "انداختن": 8002,
      "برداشتم": 8003,
      "هرچقدرم": 8004,
      "a_kmz": 8005,
      "شبها": 8006,
      "ﻫﻤﯿ": 8007,
      "بسازیم": 8008,
      "____": 8009,
      "شجاع": 8010,
      "جایگزین": 8011,
      "kimia_kmz": 8012,
      "محسوب": 8013,
      "اختلال": 8014,
      "شما_فرستادید": 8015,
      "محافظت": 8016,
      "هزینه": 8017,
      "On": 8018,
      "ap": 8019,
      "care": 8020,
      "ime": 8021,
      "sun": 8022,
      "اخوان": 8023,
      "تام": 8024,
      "دمی": 8025,
      "رسو": 8026,
      "سكوت": 8027,
      "شنید": 8028,
      "شقایق": 8029,
      "صبوری": 8030,
      "ضد": 8031,
      "غن": 8032,
      "فقی": 8033,
      "مایه": 8034,
      "مساله": 8035,
      "نبینی": 8036,
      "يس": 8037,
      "پان": 8038,
      "پوی": 8039,
      "یس": 8040,
      "ﮔﯽ": 8041,
      "میمونم": 8042,
      "نیروی": 8043,
      "ادرس": 8044,
      "دريا": 8045,
      "ریختم": 8046,
      "بیفته": 8047,
      "اشك": 8048,
      "دارى": 8049,
      "شدنش": 8050,
      "گرسنگی": 8051,
      "اویر": 8052,
      "هرچیز": 8053,
      "اسدی": 8054,
      "دلق": 8055,
      "ran": 8056,
      "شمار": 8057,
      "پیغام": 8058,
      "گذروند": 8059,
      "بلر": 8060,
      "متعهد": 8061,
      "میخونه": 8062,
      "گریست": 8063,
      "بریزد": 8064,
      "نيستم": 8065,
      "نفست": 8066,
      "بدهید": 8067,
      "میزارم": 8068,
      "بالش": 8069,
      "مقص": 8070,
      "تنهاییم": 8071,
      "اخرين": 8072,
      "پایانی": 8073,
      "چشاتو": 8074,
      "دلیلش": 8075,
      "فریدون": 8076,
      "علمی": 8077,
      "تشکیل": 8078,
      "امدند": 8079,
      "my_": 8080,
      "لطف": 8081,
      "قوت": 8082,
      "http": 8083,
      "زلزله": 8084,
      "دانید": 8085,
      "غربت": 8086,
      "برگشته": 8087,
      "زندگيت": 8088,
      "اذیتم": 8089,
      "تلفنی": 8090,
      "شناسد": 8091,
      "داغون": 8092,
      "رایگان": 8093,
      "میذارم": 8094,
      "گذاشتیم": 8095,
      "نعمت": 8096,
      "New": 8097,
      "اسایشگاه": 8098,
      "شباهت": 8099,
      "قورباغه": 8100,
      "توهین": 8101,
      "Al": 8102,
      "alo": 8103,
      "come": 8104,
      "ka": 8105,
      "kri": 8106,
      "kiss": 8107,
      "ph": 8108,
      "دك": 8109,
      "سپید": 8110,
      "عسل": 8111,
      "ناش": 8112,
      "نکنین": 8113,
      "وزن": 8114,
      "وفا": 8115,
      "پخته": 8116,
      "کون": 8117,
      "ﺑﺰ": 8118,
      "ﻴﺪ": 8119,
      "𝗐𝗂": 8120,
      "میمیره": 8121,
      "میرسد": 8122,
      "میفهمه": 8123,
      "کهـ": 8124,
      "باخت": 8125,
      "روسی": 8126,
      "هاتم": 8127,
      "تاوان": 8128,
      "نگوی": 8129,
      "موهاش": 8130,
      "نمیشد": 8131,
      "نماد": 8132,
      "روزمرگی": 8133,
      "سرمو": 8134,
      "تمایل": 8135,
      "کیان": 8136,
      "معیار": 8137,
      "معارف": 8138,
      "حرفهای": 8139,
      "بازه": 8140,
      "جاى": 8141,
      "جاها": 8142,
      "شبکه": 8143,
      "یدونه": 8144,
      "باهار": 8145,
      "افتابی": 8146,
      "بخندم": 8147,
      "کاشکی": 8148,
      "نگید": 8149,
      "جیغ": 8150,
      "ممكن": 8151,
      "them": 8152,
      "they": 8153,
      "جمال": 8154,
      "دیدمش": 8155,
      "مخال": 8156,
      "دانشجو": 8157,
      "درختان": 8158,
      "ally": 8159,
      "برگشتن": 8160,
      "بدونید": 8161,
      "صادقانه": 8162,
      "ﻫﻤﻪ": 8163,
      "گزینه": 8164,
      "الودگی": 8165,
      "تکلیف": 8166,
      "عاقبت": 8167,
      "حاجی": 8168,
      "معتقدم": 8169,
      "عقیده": 8170,
      "مصاحبه": 8171,
      "اختصاص": 8172,
      ".🖤": 8173,
      ":]": 8174,
      "Every": 8175,
      "He": 8176,
      "Ja": 8177,
      "bi": 8178,
      "pho": 8179,
      "vo": 8180,
      "بکنه": 8181,
      "تكر": 8182,
      "سرود": 8183,
      "فس": 8184,
      "لخت": 8185,
      "مستی": 8186,
      "ناله": 8187,
      "هس": 8188,
      "وو": 8189,
      "يخ": 8190,
      "پام": 8191,
      "کتک": 8192,
      "یجا": 8193,
      "ﺷﺎ": 8194,
      "ﻧﺸ": 8195,
      "ﻫﯿ": 8196,
      "𝗅𝗈𝗏𝖾": 8197,
      "رامی": 8198,
      "بابک": 8199,
      "خوابه": 8200,
      "منبع": 8201,
      "برش": 8202,
      "تیغ": 8203,
      "ماس": 8204,
      "ماتو": 8205,
      "روزي": 8206,
      "سرگرمی": 8207,
      "یابی": 8208,
      "دنبالم": 8209,
      "بعید": 8210,
      "_channel": 8211,
      "بخشد": 8212,
      "ولم": 8213,
      "حرفم": 8214,
      "سالهاست": 8215,
      "روین": 8216,
      "ــه": 8217,
      "مردمان": 8218,
      "محص": 8219,
      "محکوم": 8220,
      "بخواهم": 8221,
      "باشى": 8222,
      "بردارم": 8223,
      "ممل": 8224,
      "صدایش": 8225,
      "موقه": 8226,
      "بگذر": 8227,
      "تقویت": 8228,
      "نشیند": 8229,
      "جنازه": 8230,
      "بخشیدن": 8231,
      "جادو": 8232,
      "متفاوتی": 8233,
      "تـو": 8234,
      "things": 8235,
      "موجودات": 8236,
      "ندادن": 8237,
      "نادر_": 8238,
      "شرمنده": 8239,
      "نصیحت": 8240,
      "تازگی": 8241,
      "شکنجه": 8242,
      "طراحی": 8243,
      "پابلو": 8244,
      "فاطمه": 8245,
      "_کو": 8246,
      "over": 8247,
      "she": 8248,
      "بنگ": 8249,
      "بستن": 8250,
      "تبی": 8251,
      "زودی": 8252,
      "غان": 8253,
      "لطی": 8254,
      "نند": 8255,
      "نرفت": 8256,
      "چـ": 8257,
      "چرو": 8258,
      "چته": 8259,
      "یروز": 8260,
      "𝖺𝗆": 8261,
      "میشید": 8262,
      "انا_": 8263,
      "توری": 8264,
      "نیش": 8265,
      "نیگا": 8266,
      "نیومد": 8267,
      "اميد": 8268,
      "درسی": 8269,
      "اینبار": 8270,
      "دارای": 8271,
      "ماجر": 8272,
      "موود": 8273,
      "گرس": 8274,
      "اوش": 8275,
      "هرموقع": 8276,
      "اسکار": 8277,
      "نماز": 8278,
      "پیشو": 8279,
      "سرگرد": 8280,
      "دستاش": 8281,
      "دستشو": 8282,
      "ميكني": 8283,
      "خواهيم": 8284,
      "بخوانید": 8285,
      "تصمي": 8286,
      "فرداش": 8287,
      "نتای": 8288,
      "رسن": 8289,
      "اهنگایی": 8290,
      "شکایت": 8291,
      "انسانها": 8292,
      "میتوانی": 8293,
      "had": 8294,
      "يكی": 8295,
      "قبلش": 8296,
      "les": 8297,
      "فهميدم": 8298,
      "جوري": 8299,
      "حقي": 8300,
      "قاضی": 8301,
      "پولدار": 8302,
      "جلد": 8303,
      "دلتنگم": 8304,
      "عمری": 8305,
      "واستون": 8306,
      "age": 8307,
      "افکارم": 8308,
      "فضایی": 8309,
      "موضو": 8310,
      "باغچه": 8311,
      "میدونستی": 8312,
      "پرسش": 8313,
      "نداشتیم": 8314,
      "فرانسه": 8315,
      "ریاضی": 8316,
      "story_channel": 8317,
      "ناقص": 8318,
      "my_story_channel": 8319,
      "𝗐𝗂𝗍𝗁": 8320,
      "bit": 8321,
      "est": 8322,
      "soul": 8323,
      "اکسی": 8324,
      "بوق": 8325,
      "تست": 8326,
      "حا": 8327,
      "حات": 8328,
      "حین": 8329,
      "زایی": 8330,
      "شکار": 8331,
      "ظرفی": 8332,
      "قلی": 8333,
      "قبال": 8334,
      "يف": 8335,
      "پرف": 8336,
      "پهن": 8337,
      "پدیده": 8338,
      "گود": 8339,
      "𝖾𝗒": 8340,
      "𝗮𝘁": 8341,
      "میاری": 8342,
      "انق": 8343,
      "انچنان": 8344,
      "ارسال": 8345,
      "راهم": 8346,
      "روس": 8347,
      "رونه": 8348,
      "امنی": 8349,
      "درشت": 8350,
      "همگی": 8351,
      "التماس": 8352,
      "..؟": 8353,
      "دوام": 8354,
      "ترن": 8355,
      "موثر": 8356,
      "خودتی": 8357,
      "گرچه": 8358,
      "ابند": 8359,
      "دلشان": 8360,
      "ance": 8361,
      "دوستشون": 8362,
      "پیروزی": 8363,
      "نوبت": 8364,
      "حاله": 8365,
      "بارو": 8366,
      "گفتگو": 8367,
      "ميشود": 8368,
      "اقتص": 8369,
      "بزودی": 8370,
      "نشستی": 8371,
      "صدقه": 8372,
      "بخونه": 8373,
      "انتقاد": 8374,
      "دردهای": 8375,
      "پسند": 8376,
      "نظم": 8377,
      "همونجایی": 8378,
      "صدایم": 8379,
      "وسعت": 8380,
      "سردی": 8381,
      "only": 8382,
      "پوچی": 8383,
      "پروژه": 8384,
      "منتظره": 8385,
      "تقدیر": 8386,
      "مارکز": 8387,
      "پارتی": 8388,
      "جلوه": 8389,
      "داشتید": 8390,
      "جناب": 8391,
      "احساساتم": 8392,
      "پریدن": 8393,
      "کوتاهی": 8394,
      "riend": 8395,
      "رویاها": 8396,
      "جادویی": 8397,
      "بستر": 8398,
      "میگذرد": 8399,
      "پرسیدند": 8400,
      "سکانس": 8401,
      "مندان": 8402,
      "side": 8403,
      "پیدات": 8404,
      "cause": 8405,
      "vie": 8406,
      "اطلاع": 8407,
      "مترجم": 8408,
      "someone": 8409,
      "توسعه": 8410,
      "ورزیدن": 8411,
      "Genres": 8412,
      "پنیر": 8413,
      "wallpaper": 8414,
      "تكرار": 8415,
      "*.": 8416,
      "Jo": 8417,
      "_bot": 8418,
      "cry": 8419,
      "pla": 8420,
      "بض": 8421,
      "بچسب": 8422,
      "تراف": 8423,
      "تایید": 8424,
      "جری": 8425,
      "خدمت": 8426,
      "سنت": 8427,
      "سجاد": 8428,
      "شاف": 8429,
      "ظریف": 8430,
      "غبار": 8431,
      "غير": 8432,
      "فاز": 8433,
      "فونی": 8434,
      "قص": 8435,
      "قرم": 8436,
      "مذ": 8437,
      "ه_": 8438,
      "هویت": 8439,
      "وجه": 8440,
      "کپ": 8441,
      "کہ": 8442,
      "کشو": 8443,
      "کبری": 8444,
      "کویر": 8445,
      "گابری": 8446,
      "ﺷﻤﺎ": 8447,
      "ﻟﯽ": 8448,
      "𝗌𝗈": 8449,
      "𝗍𝗈": 8450,
      "𝗐𝖺𝗇": 8451,
      "مینی": 8452,
      "میرفت": 8453,
      "میشویم": 8454,
      "میگویم": 8455,
      "ستال": 8456,
      "نیو": 8457,
      "روف": 8458,
      "برمي": 8459,
      "موری": 8460,
      "نمیکنن": 8461,
      "خودته": 8462,
      "هره": 8463,
      "دهانم": 8464,
      "چیشد": 8465,
      "اسوده": 8466,
      "دوستشان": 8467,
      "did": 8468,
      "هستيم": 8469,
      "بوست": 8470,
      "حرفش": 8471,
      "حرفامو": 8472,
      "پرسد": 8473,
      "جوجه": 8474,
      "سالن": 8475,
      "امیدم": 8476,
      "لحن": 8477,
      "نين": 8478,
      "لحظاتی": 8479,
      "پایش": 8480,
      "جملات": 8481,
      "بقيه": 8482,
      "انونی": 8483,
      "میدادم": 8484,
      "mad": 8485,
      "حرک": 8486,
      "میریزه": 8487,
      "خویشتن": 8488,
      "ببندید": 8489,
      "اجتماع": 8490,
      "زندگانی": 8491,
      "پیداش": 8492,
      "عمومی": 8493,
      "Life": 8494,
      "ترشح": 8495,
      "تصمیمات": 8496,
      "وجدان": 8497,
      "اینترنت": 8498,
      "کبوتر": 8499,
      "امریکایی": 8500,
      "دلقک": 8501,
      "مملکت": 8502,
      "اقتصادی": 8503,
      "\"...": 8504,
      "=]": 8505,
      "Per": 8506,
      "ft": 8507,
      "pro": 8508,
      "uck": 8509,
      "برین": 8510,
      "بقی": 8511,
      "بکند": 8512,
      "ببخشی": 8513,
      "خاله": 8514,
      "رر": 8515,
      "زبانی": 8516,
      "سکه": 8517,
      "سمان": 8518,
      "سنج": 8519,
      "عزي": 8520,
      "لاشی": 8521,
      "مرو": 8522,
      "مصی": 8523,
      "نتون": 8524,
      "هان": 8525,
      "هرا": 8526,
      "چيه": 8527,
      "گس": 8528,
      "گشود": 8529,
      "یسری": 8530,
      "ﺍﺳﺘ": 8531,
      "ﻮﻥ": 8532,
      "𝖼𝖺𝗍": 8533,
      "𝗋𝗒": 8534,
      "🚶🏻": 8535,
      "انف": 8536,
      "کهکشان": 8537,
      "ازل": 8538,
      "درکم": 8539,
      "همکار": 8540,
      "بیایم": 8541,
      "بیاور": 8542,
      "اشپ": 8543,
      "دووم": 8544,
      "لیم": 8545,
      "شهرو": 8546,
      "نگم": 8547,
      "نگار": 8548,
      "نگرد": 8549,
      "مودی": 8550,
      "ابون": 8551,
      "لابه": 8552,
      "دستگاه": 8553,
      "دسترس": 8554,
      "ميخوام": 8555,
      "ميشي": 8556,
      "بدي": 8557,
      "شناسم": 8558,
      "اخترا": 8559,
      "ايت": 8560,
      "ايست": 8561,
      "اندک": 8562,
      "ولت": 8563,
      "شوپن": 8564,
      "رویاه": 8565,
      "ناکه": 8566,
      "ناظم": 8567,
      "حسو": 8568,
      "یکیشون": 8569,
      "گردیم": 8570,
      "گوینده": 8571,
      "ارزد": 8572,
      "بهشتی": 8573,
      "دونست": 8574,
      "همانقدر": 8575,
      "بيا": 8576,
      "جزء": 8577,
      "کشاور": 8578,
      "بانک": 8579,
      "ham": 8580,
      "هايی": 8581,
      "بازیگر": 8582,
      "than": 8583,
      "دریاچه": 8584,
      "برهنه": 8585,
      "ساختی": 8586,
      "رفتارهای": 8587,
      "tiful": 8588,
      "دانشجوی": 8589,
      "موزیکام": 8590,
      "fekri": 8591,
      "معنایی": 8592,
      "پیرزن": 8593,
      "نازنین": 8594,
      "انگیزشی": 8595,
      "لرزید": 8596,
      "بمانیم": 8597,
      "پهلو": 8598,
      "cast": 8599,
      "میذاره": 8600,
      "بیمارستان": 8601,
      "حکمت": 8602,
      "پیشنهاد_فیلم": 8603,
      "مرتضی": 8604,
      "دقيقا": 8605,
      "وحدانی": 8606,
      "اپلیکیشن": 8607,
      "نتيجه": 8608,
      "شصت": 8609,
      "ماجرای": 8610,
      ".❤": 8611,
      "ak": 8612,
      "tter": 8613,
      "wa": 8614,
      "بسه": 8615,
      "جما": 8616,
      "حوا": 8617,
      "خاور": 8618,
      "دمو": 8619,
      "غلی": 8620,
      "ـر": 8621,
      "فدا": 8622,
      "قاشق": 8623,
      "قانونی": 8624,
      "نتونه": 8625,
      "وذ": 8626,
      "ورا": 8627,
      "واح": 8628,
      "يادت": 8629,
      "چادر": 8630,
      "ژو": 8631,
      "گنده": 8632,
      "یکه": 8633,
      "‏⁧": 8634,
      "ﯾﺎ": 8635,
      "ﻣﺜ": 8636,
      "ﻫﺴﺘ": 8637,
      "میبرم": 8638,
      "میگیرن": 8639,
      "از_": 8640,
      "خوار": 8641,
      "نیما": 8642,
      "همدردی": 8643,
      "ریمیکس": 8644,
      "المانی": 8645,
      "برخلاف": 8646,
      "دوازده": 8647,
      "نمیز": 8648,
      "نمیتونن": 8649,
      "اوز": 8650,
      "اورید": 8651,
      "اسو": 8652,
      "فرس": 8653,
      "اونجاست": 8654,
      "اقتصاد": 8655,
      "گوار": 8656,
      "گوست": 8657,
      "mon": 8658,
      "بوسد": 8659,
      "کندن": 8660,
      "mine": 8661,
      "اعضای": 8662,
      "اطرافت": 8663,
      "لوب": 8664,
      "صدها": 8665,
      "خوشگله": 8666,
      "good": 8667,
      "باشيم": 8668,
      "شدیدا": 8669,
      "نقل": 8670,
      "ایتالی": 8671,
      "دامن": 8672,
      "beau": 8673,
      "نویسد": 8674,
      "میرسم": 8675,
      "ترینم": 8676,
      "زلف": 8677,
      "again": 8678,
      "تتلو": 8679,
      "تبلی": 8680,
      "علاقتو": 8681,
      "مسیری": 8682,
      "person": 8683,
      "ﺗﻮﯼ": 8684,
      "𝗍𝗁𝖾": 8685,
      "یافتن": 8686,
      "درخشان": 8687,
      "تغییرات": 8688,
      "اطرافیان": 8689,
      "فقدان": 8690,
      "شادمهر": 8691,
      "فیزیکی": 8692,
      "منافع": 8693,
      "دوردست": 8694,
      "نژاد": 8695,
      "شافاک": 8696,
      "Some": 8697,
      "_دو": 8698,
      "جیم": 8699,
      "حول": 8700,
      "شست": 8701,
      "شات": 8702,
      "شکوه": 8703,
      "عقر": 8704,
      "قاف": 8705,
      "وانی": 8706,
      "وگو": 8707,
      "ﯾﺎﺩ": 8708,
      "ﺘﺮ": 8709,
      "ﺠﺎ": 8710,
      "ﺧﻮ": 8711,
      "ﺴﺎ": 8712,
      "ﺴﺖ": 8713,
      "ﺷﻮﺩ": 8714,
      "ﻭﺍ": 8715,
      "میدید": 8716,
      "میکردند": 8717,
      "ایراد": 8718,
      "ازای": 8719,
      "راقی": 8720,
      "نیفت": 8721,
      "همچی": 8722,
      "رییس": 8723,
      "بیزارم": 8724,
      "برگه": 8725,
      "ماها": 8726,
      "ماسک": 8727,
      "موجودی": 8728,
      "مورفین": 8729,
      "cho": 8730,
      "زیسته": 8731,
      "اسک": 8732,
      "اساسی": 8733,
      "پین": 8734,
      "فرسود": 8735,
      "نوجوان": 8736,
      "نوستال": 8737,
      "تناب": 8738,
      "اونور": 8739,
      "ding": 8740,
      "قطعی": 8741,
      "ous": 8742,
      "کارگر": 8743,
      "بعدشم": 8744,
      "سالت": 8745,
      "کلبه": 8746,
      "کمون": 8747,
      "نشانی": 8748,
      "ناخواسته": 8749,
      "نجفی": 8750,
      "همینجا": 8751,
      "نامجو": 8752,
      "میزاره": 8753,
      "start": 8754,
      "still": 8755,
      "مجتبی": 8756,
      "جريت": 8757,
      "میتونین": 8758,
      "ard": 8759,
      "ازمایش": 8760,
      "خدافظ": 8761,
      "ذهنش": 8762,
      "خلاق": 8763,
      "make": 8764,
      "ترسیم": 8765,
      "حضرت": 8766,
      "میلر": 8767,
      "ﻧﺪﺍﺭ": 8768,
      "پايين": 8769,
      "نفهمیدم": 8770,
      "یونان": 8771,
      "times": 8772,
      "رحمی": 8773,
      "قاتل": 8774,
      "اردیبهشت": 8775,
      "نتوانسته": 8776,
      "𝗈𝗈𝖽": 8777,
      "قاطی": 8778,
      "عزت": 8779,
      "نحوه": 8780,
      "طبیعیه": 8781,
      "ثروتمند": 8782,
      "ویکتور": 8783,
      "یوسف": 8784,
      "مخالفت": 8785,
      "*.*": 8786,
      "Amir": 8787,
      "Ba": 8788,
      "dream": 8789,
      "بمیری": 8790,
      "خف": 8791,
      "دبی": 8792,
      "شــ": 8793,
      "ظل": 8794,
      "قدرد": 8795,
      "كدام": 8796,
      "نهای": 8797,
      "نماند": 8798,
      "نرسیدن": 8799,
      "نخواهیم": 8800,
      "هارا": 8801,
      "يست": 8802,
      "پاست": 8803,
      "یجور": 8804,
      "✌🏻": 8805,
      "ﺑﺨ": 8806,
      "𝖬𝗒": 8807,
      "𝖼𝗁": 8808,
      "𝗎𝗇": 8809,
      "𝙄𝙉": 8810,
      "𝙆𝙄𝙉": 8811,
      "𝙈𝙊": 8812,
      "𝙎𝙈𝙊": 8813,
      "میماند": 8814,
      "میارن": 8815,
      "ندادی": 8816,
      "بهره": 8817,
      "راق": 8818,
      "باخته": 8819,
      "نیوم": 8820,
      "ادعا": 8821,
      "امور": 8822,
      "دیگرو": 8823,
      "ریزد": 8824,
      "ریــا": 8825,
      "الل": 8826,
      "گیلاس": 8827,
      "اوره": 8828,
      "اسن": 8829,
      "پیچه": 8830,
      "انیایی": 8831,
      "اونارو": 8832,
      "ميد": 8833,
      "کوک": 8834,
      "کوری": 8835,
      "معده": 8836,
      "جاهای": 8837,
      "جوابی": 8838,
      "کمد": 8839,
      "کمکت": 8840,
      "اعدام": 8841,
      "ناخوشایند": 8842,
      "جهانم": 8843,
      "مرث": 8844,
      "یادگاری": 8845,
      "سورا": 8846,
      "مراسم": 8847,
      "نزنید": 8848,
      "نيس": 8849,
      "قهقه": 8850,
      "اجتناب": 8851,
      "اکث": 8852,
      "رسیدیم": 8853,
      "همونجوری": 8854,
      "امواج": 8855,
      "اموخته": 8856,
      "نبودنش": 8857,
      "مسکن": 8858,
      "تعصب": 8859,
      "بگذریم": 8860,
      "ترسند": 8861,
      "علاء": 8862,
      "شعار": 8863,
      "رقم": 8864,
      "صداهای": 8865,
      "کامنت": 8866,
      "بشکنه": 8867,
      "اغوشش": 8868,
      "مادربزرگم": 8869,
      "فلک": 8870,
      "میشناسی": 8871,
      "میشنوید": 8872,
      "عزیزی": 8873,
      "پلیش": 8874,
      "خيابان": 8875,
      "عمرش": 8876,
      "میوم": 8877,
      "يیلو": 8878,
      "ترسید": 8879,
      "کافیست": 8880,
      "بخاطرش": 8881,
      "میکشد": 8882,
      "خصص": 8883,
      "irst": 8884,
      "منظره": 8885,
      "انداختم": 8886,
      "مشغله": 8887,
      "زندگيم": 8888,
      "نگرانت": 8889,
      "نشستیم": 8890,
      "اینستا": 8891,
      "فيلم": 8892,
      "توجیه": 8893,
      "نوشیدنی": 8894,
      "عباس_کیارستمی": 8895,
      "پـریــا": 8896,
      "تشویق": 8897,
      "مزاحم": 8898,
      "شرايط": 8899,
      "اختراع": 8900,
      "𝙆𝙄𝙉𝙂": 8901,
      "𝙎𝙈𝙊𝙆𝙄𝙉𝙂": 8902,
      "Ar": 8903,
      "NE": 8904,
      "So": 8905,
      "_ال": 8906,
      "sp": 8907,
      "اژ": 8908,
      "اخیر": 8909,
      "بدارد": 8910,
      "بچس": 8911,
      "جاب": 8912,
      "خشن": 8913,
      "رج": 8914,
      "صدمه": 8915,
      "عرق": 8916,
      "غمه": 8917,
      "فال": 8918,
      "نسی": 8919,
      "نصب": 8920,
      "واج": 8921,
      "يهو": 8922,
      "گال": 8923,
      "ﮔﻮ": 8924,
      "𝗅𝗂": 8925,
      "ایقی": 8926,
      "اریا": 8927,
      "باتن": 8928,
      "بافی": 8929,
      "روشنی": 8930,
      "ریفی": 8931,
      "اشه": 8932,
      "بري": 8933,
      "دومی": 8934,
      "فتح": 8935,
      "شدي": 8936,
      "شدنی": 8937,
      "بودنه": 8938,
      "موهایش": 8939,
      "اسباب": 8940,
      "دلداری": 8941,
      "ایین": 8942,
      "دوستانم": 8943,
      "نمود": 8944,
      "فرانت": 8945,
      "هستین": 8946,
      "هیچکسی": 8947,
      "پرستی": 8948,
      "دادنش": 8949,
      "کمتری": 8950,
      "چیزارو": 8951,
      "خوبت": 8952,
      "یادگیری": 8953,
      "مردگان": 8954,
      "محروم": 8955,
      "بخوانیم": 8956,
      "دردها": 8957,
      "بریزی": 8958,
      "ديدن": 8959,
      "میزدیم": 8960,
      "بالایی": 8961,
      "بالشت": 8962,
      "اهنگو": 8963,
      "مسل": 8964,
      "بانو": 8965,
      "hate": 8966,
      "سمتش": 8967,
      "نقاب": 8968,
      "مرگش": 8969,
      "میگید": 8970,
      "مطل": 8971,
      "بسازم": 8972,
      "میشینه": 8973,
      "بویی": 8974,
      "خورند": 8975,
      "مارا": 8976,
      "میشنوی": 8977,
      "tive": 8978,
      "صفا": 8979,
      "پنجه": 8980,
      "ببینند": 8981,
      "زيرا": 8982,
      "mag": 8983,
      "ترسیدیم": 8984,
      "وفسکی": 8985,
      "ماشين": 8986,
      "معناست": 8987,
      "مجبورم": 8988,
      "سيدم": 8989,
      "ضرر": 8990,
      "urt": 8991,
      "لقمه": 8992,
      "نگرانم": 8993,
      "𝗒𝗈𝗎𝗋": 8994,
      "پیچید": 8995,
      "شارژ": 8996,
      "پژمرده": 8997,
      "قاعده": 8998,
      "مقیمی": 8999,
      "leave": 9000,
      "مخاطب": 9001,
      "جغرافی": 9002,
      "گرسنه": 9003,
      "حقيقت": 9004,
      "𝗐𝖺𝗇𝗇𝖺": 9005,
      "تبلیغ": 9006,
      "DB": 9007,
      "_الف": 9008,
      "bad": 9009,
      "brea": 9010,
      "ris": 9011,
      "tu": 9012,
      "мо": 9013,
      "بنظر": 9014,
      "ترو": 9015,
      "تجسم": 9016,
      "ثبات": 9017,
      "حکو": 9018,
      "خنج": 9019,
      "رل": 9020,
      "طبي": 9021,
      "طناب": 9022,
      "غزل": 9023,
      "قبی": 9024,
      "مداد": 9025,
      "مندی": 9026,
      "مدیر": 9027,
      "مکث": 9028,
      "يان": 9029,
      "پستی": 9030,
      "پشتی": 9031,
      "یجایی": 9032,
      "یقین": 9033,
      "ﭼﯿﺰ": 9034,
      "ﺟﺎ": 9035,
      "ﺩﻟ": 9036,
      "ﻣﻨ": 9037,
      "👌🏻": 9038,
      "میبینیم": 9039,
      "ایام": 9040,
      "ارامی": 9041,
      "خوایم": 9042,
      "درگیری": 9043,
      "درخش": 9044,
      "بیدارم": 9045,
      "بیاورم": 9046,
      "اینجور": 9047,
      "استو": 9048,
      "شیفته": 9049,
      "خودخواه": 9050,
      "چیکه": 9051,
      "اسما": 9052,
      "دلهره": 9053,
      "اشتراک": 9054,
      "لابی": 9055,
      "پیشه": 9056,
      "بعدم": 9057,
      "کران": 9058,
      "بوک": 9059,
      "رمض": 9060,
      "ايا": 9061,
      "اينده": 9062,
      "live": 9063,
      "شبت": 9064,
      "جوانه": 9065,
      "عیبی": 9066,
      "ناپدید": 9067,
      "تمامش": 9068,
      "راهه": 9069,
      "انتان": 9070,
      "دورش": 9071,
      "مشق": 9072,
      "قشنگن": 9073,
      "پیشانی": 9074,
      "ret": 9075,
      "قهری": 9076,
      "stant": 9077,
      "نظریه": 9078,
      "نگیره": 9079,
      "روحش": 9080,
      "روحیه": 9081,
      "len": 9082,
      "طرب": 9083,
      "ارزوها": 9084,
      "مطلب": 9085,
      "اشکال": 9086,
      "فرستاده": 9087,
      "بشینیم": 9088,
      "ماریا": 9089,
      "میم_الف": 9090,
      "اثبات": 9091,
      "بخشش": 9092,
      "جلوتر": 9093,
      "پرداخت": 9094,
      "ترسیده": 9095,
      "سازند": 9096,
      "ليون": 9097,
      "سراغم": 9098,
      "مدرن": 9099,
      "شناسند": 9100,
      "معشوقش": 9101,
      "هدفی": 9102,
      "خالص": 9103,
      "لباسی": 9104,
      "Instagram": 9105,
      "یونگ": 9106,
      "رابطمون": 9107,
      "سپهر": 9108,
      "مظلوم": 9109,
      "کاسه": 9110,
      "محمود_دولت": 9111,
      "ﺯﻧﺪﮔﯽ": 9112,
      "جزیره": 9113,
      "فرفری": 9114,
      "مهندس": 9115,
      "فاضل": 9116,
      "alone": 9117,
      "محصول": 9118,
      "نادر_ابراهیمی": 9119,
      "چروک": 9120,
      "نتایج": 9121,
      "اشپزی": 9122,
      "حکومت": 9123,
      "!...": 9124,
      ".💕": 9125,
      "Bo": 9126,
      "Sha": 9127,
      "Ta": 9128,
      "ble": 9129,
      "cking": 9130,
      "ix": 9131,
      "؟:)": 9132,
      "اکس": 9133,
      "بکار": 9134,
      "ببوسی": 9135,
      "بخواهید": 9136,
      "جديد": 9137,
      "دزدی": 9138,
      "صايب": 9139,
      "طنز": 9140,
      "فروید": 9141,
      "مبه": 9142,
      "نى": 9143,
      "پير": 9144,
      "ژرف": 9145,
      "کـی": 9146,
      "یبار": 9147,
      "ﺗﻨ": 9148,
      "ﺘﻪ": 9149,
      "ﻫﺪ": 9150,
      "𝖻𝗒": 9151,
      "میبرد": 9152,
      "انز": 9153,
      "ارض": 9154,
      "بافت": 9155,
      "بامزه": 9156,
      "نیمی": 9157,
      "منـ": 9158,
      "خودشه": 9159,
      "هرکدوم": 9160,
      "شمام": 9161,
      "تنبلی": 9162,
      "اونجوری": 9163,
      "ميشم": 9164,
      "کیت": 9165,
      "کوفتی": 9166,
      "بختی": 9167,
      "رفتنی": 9168,
      "پرتاب": 9169,
      "لبای": 9170,
      "لبان": 9171,
      "لبریز": 9172,
      "تهیه": 9173,
      "اگرچه": 9174,
      "گاهى": 9175,
      "مرض": 9176,
      "مردانه": 9177,
      "نجار": 9178,
      "نجور": 9179,
      "long": 9180,
      "بغلی": 9181,
      "چشمهای": 9182,
      "got": 9183,
      "قشنگتر": 9184,
      "نزنم": 9185,
      "خواستیم": 9186,
      "همونطور": 9187,
      "تعبیر": 9188,
      "مجس": 9189,
      "میتونیم": 9190,
      "وصال": 9191,
      "بلندتر": 9192,
      "اشکات": 9193,
      "فرستادم": 9194,
      "خندد": 9195,
      "اومدیم": 9196,
      "خیابانی": 9197,
      "موده": 9198,
      "گذشتن": 9199,
      "تفسیر": 9200,
      "ترینی": 9201,
      "میوفتم": 9202,
      "رفیقم": 9203,
      "))))": 9204,
      "ity": 9205,
      "ثانيه": 9206,
      "اونقدری": 9207,
      "تاریکه": 9208,
      "سعي": 9209,
      "خاکی": 9210,
      "اشونو": 9211,
      "منظم": 9212,
      "جعفری": 9213,
      "فیلتر": 9214,
      "بعضى": 9215,
      "حوالی": 9216,
      "یخچال": 9217,
      "para": 9218,
      "pain": 9219,
      "بفرستم": 9220,
      "قابلیت": 9221,
      "پیکاسو": 9222,
      "نرگس_": 9223,
      "چاقو": 9224,
      "تجاوز": 9225,
      "میندازه": 9226,
      "اسپانیایی": 9227,
      "عذرخواهی": 9228,
      "پاریس": 9229,
      "فرسوده": 9230,
      "سوراخ": 9231,
      "Da": 9232,
      "Le": 9233,
      "VE": 9234,
      "ces": 9235,
      "gu": 9236,
      "lt": 9237,
      "sc": 9238,
      "sha": 9239,
      "where": 9240,
      "||": 9241,
      "اپن": 9242,
      "بکنیم": 9243,
      "بشوی": 9244,
      "بترس": 9245,
      "بـه": 9246,
      "تال": 9247,
      "دال": 9248,
      "ذکر": 9249,
      "سروش": 9250,
      "شتاب": 9251,
      "ضا_": 9252,
      "فیک": 9253,
      "لس": 9254,
      "نبر": 9255,
      "نکنن": 9256,
      "نازی": 9257,
      "نبات": 9258,
      "هج": 9259,
      "هوی": 9260,
      "يلیو": 9261,
      "پايي": 9262,
      "کاک": 9263,
      "گين": 9264,
      "”.": 9265,
      "ﭘﺎ": 9266,
      "ﺍﯼ": 9267,
      "ﺗﻮﺍ": 9268,
      "ﺮﮊ": 9269,
      "ﺷﺖ": 9270,
      "ﻛﻪ": 9271,
      "ﻨﯽ": 9272,
      "𝗂𝖾": 9273,
      "میه": 9274,
      "میدیدم": 9275,
      "میرید": 9276,
      "میگویند": 9277,
      "میشنوم": 9278,
      "انبو": 9279,
      "انتوان": 9280,
      "ارسالی": 9281,
      "ستایش": 9282,
      "توپ": 9283,
      "نیوی": 9284,
      "ردن": 9285,
      "همدلی": 9286,
      "اینکار": 9287,
      "استیک": 9288,
      "شدنه": 9289,
      "ترك": 9290,
      "ترسو": 9291,
      "کردنم": 9292,
      "خودکار": 9293,
      "اوا": 9294,
      "اوایل": 9295,
      "نهادی": 9296,
      "ورک": 9297,
      "ادمي": 9298,
      "رفه": 9299,
      "رفقا": 9300,
      "سرگردان": 9301,
      "هستي": 9302,
      "گوسف": 9303,
      "معلو": 9304,
      "افشین": 9305,
      "ايى": 9306,
      "فکرشو": 9307,
      "یمون": 9308,
      "سوزن": 9309,
      "دردم": 9310,
      "بریز": 9311,
      "زمانه": 9312,
      "باشمت": 9313,
      "نفوذ": 9314,
      "ماهان": 9315,
      "دانستن": 9316,
      "ینچی": 9317,
      "زنانه": 9318,
      "فهمیم": 9319,
      "پشتت": 9320,
      "سردرد": 9321,
      "وصله": 9322,
      "چشای": 9323,
      "چشامو": 9324,
      "خیالش": 9325,
      "less": 9326,
      "میشینم": 9327,
      "بشینه": 9328,
      "مامانت": 9329,
      "جلوش": 9330,
      "برگردیم": 9331,
      "مدتها": 9332,
      "دریچه": 9333,
      "مستور": 9334,
      "مهیار": 9335,
      "موندگار": 9336,
      "ﺑﺎﺷ": 9337,
      "دیالوگی": 9338,
      "خاك": 9339,
      "ببندم": 9340,
      "خریدن": 9341,
      "غلبه": 9342,
      "لرز": 9343,
      "نفهمید": 9344,
      "دانستیم": 9345,
      "پیوسته": 9346,
      "پرسيد": 9347,
      "سایر": 9348,
      "ﺍﻧﺮﮊ": 9349,
      "𝖾𝖾𝗉": 9350,
      "ﺩﻭﺳﺖ": 9351,
      "ژانر": 9352,
      "عربی": 9353,
      "ممنوعه": 9354,
      "𝗁𝖾𝗋𝖾": 9355,
      "داوینچی": 9356,
      "بنفش": 9357,
      "حماقت": 9358,
      "حاشیه": 9359,
      "محدودیت": 9360,
      "تصميم": 9361,
      "موضوعی": 9362,
      "ایتالیایی": 9363,
      ".✨": 9364,
      "ice": 9365,
      "zo": 9366,
      "بکو": 9367,
      "بشو": 9368,
      "بتوانیم": 9369,
      "بجنگی": 9370,
      "تمن": 9371,
      "خنگ": 9372,
      "خلو": 9373,
      "خلیل": 9374,
      "ذاری": 9375,
      "رعه": 9376,
      "رازی": 9377,
      "سکس": 9378,
      "سامو": 9379,
      "شریف": 9380,
      "عتی": 9381,
      "غز": 9382,
      "غش": 9383,
      "فعلی": 9384,
      "كجا": 9385,
      "لن": 9386,
      "نخواد": 9387,
      "نخواستی": 9388,
      "وض": 9389,
      "گف": 9390,
      "ﮑﻪ": 9391,
      "ﺑﯽ": 9392,
      "ﺯﺩ": 9393,
      "ﻣﺮﺩ": 9394,
      "𝖿𝗈𝗋": 9395,
      "👐🏻": 9396,
      "میکردن": 9397,
      "میبری": 9398,
      "میگردم": 9399,
      "میگیرند": 9400,
      "انده": 9401,
      "ارتور": 9402,
      "بهرام": 9403,
      "نیرو": 9404,
      "نیاید": 9405,
      "دیدید": 9406,
      "مني": 9407,
      "برخاست": 9408,
      "هاور": 9409,
      "لینگ": 9410,
      "سیس": 9411,
      "فتگی": 9412,
      "استیو": 9413,
      "وقوع": 9414,
      "تاپ": 9415,
      "تابه": 9416,
      "iine": 9417,
      "ابي": 9418,
      "لاط": 9419,
      "پیرا": 9420,
      "سربازی": 9421,
      "اونه": 9422,
      "ميش": 9423,
      "ميكنن": 9424,
      "کین": 9425,
      "قدرتمند": 9426,
      "کوله": 9427,
      "بخار": 9428,
      "گذرونی": 9429,
      "بازنده": 9430,
      "ــت": 9431,
      "مرگم": 9432,
      "اصفه": 9433,
      "میخونی": 9434,
      "میخوابی": 9435,
      "میخوابم": 9436,
      "محتو": 9437,
      "سوزی": 9438,
      "گرفتاری": 9439,
      "هودی": 9440,
      ":)💙": 9441,
      "زماني": 9442,
      "نيد": 9443,
      "تصاویر": 9444,
      "نظیر": 9445,
      "اعتبار": 9446,
      "جانب": 9447,
      "تعارف": 9448,
      "تعادل": 9449,
      "ين_": 9450,
      "مجاز": 9451,
      "ارتبا": 9452,
      "پروکسی": 9453,
      "بسازی": 9454,
      "ماندگار": 9455,
      "علایق": 9456,
      "بذاریم": 9457,
      "برگردد": 9458,
      "كنين": 9459,
      "خاطراتش": 9460,
      "معمول": 9461,
      "احساساتت": 9462,
      "چسبه": 9463,
      "سطحی": 9464,
      "عینک": 9465,
      "ضرب": 9466,
      "بچرخ": 9467,
      "خشکی": 9468,
      "بلافاصله": 9469,
      "ﺮﺍﻥ": 9470,
      "اگاهانه": 9471,
      "were": 9472,
      "مزرعه": 9473,
      "نگذار": 9474,
      "کراشم": 9475,
      "فروشنده": 9476,
      "یونانی": 9477,
      "ﺧﻮﺩﺵ": 9478,
      "shine": 9479,
      "قیمتی": 9480,
      "بپذیری": 9481,
      "بپذیریم": 9482,
      "لالایی": 9483,
      "تحقیر": 9484,
      "constant": 9485,
      "give": 9486,
      "ممنوع": 9487,
      "بمونیم": 9488,
      "داستایوفسکی": 9489,
      "مهدی_معارف": 9490,
      "سانسور": 9491,
      "فقیر": 9492,
      "ﻫﯿﭻ": 9493,
      "خاورمیانه": 9494,
      "واحد": 9495,
      "نهایتا": 9496,
      "اللهی": 9497,
      "قبیله": 9498,
      "سامويل": 9499,
      "constantiine": 9500,
      "For": 9501,
      "Te": 9502,
      "find": 9503,
      "girl": 9504,
      "ide": 9505,
      "tru": 9506,
      "بتوانی": 9507,
      "حـ": 9508,
      "شبو": 9509,
      "شروین": 9510,
      "صبا": 9511,
      "قالب": 9512,
      "لوی": 9513,
      "لزو": 9514,
      "نشن": 9515,
      "نخوای": 9516,
      "نبض": 9517,
      "چم": 9518,
      "کالی": 9519,
      "گنگ": 9520,
      "یح": 9521,
      "ﺁﺩﻡ": 9522,
      "ﺍﻣﺎ": 9523,
      "ﺎﻩ": 9524,
      "𝗅𝖾𝖾𝗉": 9525,
      "میتوان": 9526,
      "ایتی": 9527,
      "انج": 9528,
      "انى": 9529,
      "انار": 9530,
      "ندهی": 9531,
      "بهـ": 9532,
      "باختم": 9533,
      "رويا": 9534,
      "روتین": 9535,
      "اداره": 9536,
      "همکاری": 9537,
      "منجر": 9538,
      "بیخود": 9539,
      "ودور": 9540,
      "وداع": 9541,
      "تیپ": 9542,
      "شیدم": 9543,
      "موسوی": 9544,
      "نمیتوانم": 9545,
      "ویروس": 9546,
      "ans": 9547,
      "فرش": 9548,
      "فراز": 9549,
      "گويد": 9550,
      "بخدا": 9551,
      "بخرید": 9552,
      "افتی": 9553,
      "شويم": 9554,
      "بلدم": 9555,
      "سالهای": 9556,
      "کلم": 9557,
      "تهدید": 9558,
      "ناتوان": 9559,
      "عشقه": 9560,
      "اصالت": 9561,
      "یادگار": 9562,
      "صدق": 9563,
      "محترم": 9564,
      "سوالی": 9565,
      "تلاشی": 9566,
      "سمفونی": 9567,
      "میزنیم": 9568,
      "صبحی": 9569,
      "رسيد": 9570,
      "مجبوری": 9571,
      "پشتش": 9572,
      "پشتم": 9573,
      "بقل": 9574,
      "انواع": 9575,
      "کتری": 9576,
      "مغرو": 9577,
      "org": 9578,
      "هزارتا": 9579,
      "میدهم": 9580,
      "best": 9581,
      "خندان": 9582,
      "عوضش": 9583,
      "عصبیم": 9584,
      "دانشور": 9585,
      "ببینمش": 9586,
      "کوچکترین": 9587,
      "بخاطرت": 9588,
      "شلوار": 9589,
      "میلادی": 9590,
      "شناختی": 9591,
      "خاموشی": 9592,
      "پارتنرت": 9593,
      "بفهمید": 9594,
      "خریدم": 9595,
      "پیدایش": 9596,
      "رقصید": 9597,
      "𝗂𝗇𝖾": 9598,
      "اطرافم": 9599,
      "شکلیه": 9600,
      "فوتبال": 9601,
      "شكست": 9602,
      "برنگرد": 9603,
      "هوشیار": 9604,
      "خرمالو": 9605,
      "رختخواب": 9606,
      "ﺩﯾﮕﺮ": 9607,
      "کلاسیک": 9608,
      "Harf": 9609,
      "حصار": 9610,
      "کپشن": 9611,
      "محمود_دولت_": 9612,
      "نیویورک": 9613,
      ":>": 9614,
      "Blu": 9615,
      "Co": 9616,
      "Day": 9617,
      "Fe": 9618,
      "She": 9619,
      "away": 9620,
      "bl": 9621,
      "rin": 9622,
      "would": 9623,
      "بستی": 9624,
      "بمیره": 9625,
      "بمانند": 9626,
      "بپرسید": 9627,
      "جک": 9628,
      "جسمت": 9629,
      "حامی": 9630,
      "حفره": 9631,
      "خدار": 9632,
      "دبیر": 9633,
      "ذوب": 9634,
      "زاو": 9635,
      "زجر": 9636,
      "شکند": 9637,
      "طاق": 9638,
      "عاج": 9639,
      "قله": 9640,
      "كمي": 9641,
      "كدوم": 9642,
      "مکر": 9643,
      "نبايد": 9644,
      "هیک": 9645,
      "هلاک": 9646,
      "يون": 9647,
      "کدا": 9648,
      "کانس": 9649,
      "گشتی": 9650,
      "یقه": 9651,
      "ﺭﻓﺘ": 9652,
      "ﻭﺭ": 9653,
      "میروم": 9654,
      "میتونست": 9655,
      "ارس": 9656,
      "خوشب": 9657,
      "خوریم": 9658,
      "درگذشت": 9659,
      "ریب": 9660,
      "ریختی": 9661,
      "بیخ": 9662,
      "بیاریم": 9663,
      "الدا": 9664,
      "الزای": 9665,
      "سیزده": 9666,
      "داريد": 9667,
      "استین": 9668,
      "استایل": 9669,
      "استکان": 9670,
      "بوديم": 9671,
      "موزه": 9672,
      "نمیگیره": 9673,
      "نمیدونستم": 9674,
      "chang": 9675,
      "دلتو": 9676,
      "لاغر": 9677,
      "نوه": 9678,
      "ميگن": 9679,
      "ميكنى": 9680,
      "بخاری": 9681,
      "معل": 9682,
      "پرهیز": 9683,
      "ــم": 9684,
      "اصر": 9685,
      "مردیم": 9686,
      "صدبار": 9687,
      "سوپر": 9688,
      "قرض": 9689,
      "مشرو": 9690,
      "yourself": 9691,
      "مداوم": 9692,
      "هوشمند": 9693,
      "گردنم": 9694,
      "سمتم": 9695,
      "کشیدیم": 9696,
      "نيمه": 9697,
      "رسیم": 9698,
      "نیازهای": 9699,
      "مقاله": 9700,
      "مقابله": 9701,
      "اموزد": 9702,
      "دخترش": 9703,
      "عواط": 9704,
      "ملکه": 9705,
      "جمالی": 9706,
      "میکنین": 9707,
      "پاهای": 9708,
      "طرفی": 9709,
      "رقابت": 9710,
      "صداهایی": 9711,
      "کلیک": 9712,
      "اسمشو": 9713,
      "جوابش": 9714,
      "قلعه": 9715,
      "خوانند": 9716,
      "رفتارش": 9717,
      "ارزشش": 9718,
      "ناراحتت": 9719,
      "غیرقابل": 9720,
      "اونیکه": 9721,
      "میوفتی": 9722,
      "زشتی": 9723,
      "رژیم": 9724,
      "ـــــ": 9725,
      "اشنای": 9726,
      "برگزار": 9727,
      "برگشتی": 9728,
      "اظهار": 9729,
      "ظاهرا": 9730,
      "ظاهری": 9731,
      "پذیرفتن": 9732,
      "تاریخی": 9733,
      "بمونن": 9734,
      "سبزه": 9735,
      "یواش": 9736,
      "دیالوگ_": 9737,
      "بابای": 9738,
      "مختل": 9739,
      "منطقه": 9740,
      "عملکرد": 9741,
      "چرخد": 9742,
      "ديوونه": 9743,
      "تزریق": 9744,
      "انسانیت": 9745,
      "ناگهانی": 9746,
      "بنشیند": 9747,
      "بدونیم": 9748,
      "تصادفی": 9749,
      "پوشیدن": 9750,
      "box": 9751,
      "رحمانه": 9752,
      "اولیه": 9753,
      "پرستار": 9754,
      "ﺭﻭﺯ": 9755,
      "مدارا": 9756,
      "غافلگیر": 9757,
      "خاطراتم": 9758,
      "𝗂𝗍𝗍": 9759,
      "راجبش": 9760,
      "اندیشیدن": 9761,
      "ادعای": 9762,
      "دكتر": 9763,
      "Jafekri": 9764,
      "ظرفیت": 9765,
      "جماعت": 9766,
      "الزایمر": 9767,
      ".🥹": 9768,
      "IM": 9769,
      "One": 9770,
      "_من": 9771,
      "friend": 9772,
      "tou": 9773,
      "wo": 9774,
      "xy": 9775,
      "بته": 9776,
      "بگری": 9777,
      "بکت": 9778,
      "تنی": 9779,
      "تدا": 9780,
      "تلو": 9781,
      "تخری": 9782,
      "حميد": 9783,
      "خــ": 9784,
      "ساس": 9785,
      "شاپ": 9786,
      "ضمن": 9787,
      "فاح": 9788,
      "لنتی": 9789,
      "مدرک": 9790,
      "نال": 9791,
      "نتونم": 9792,
      "نخواهند": 9793,
      "يديم": 9794,
      "ژاپن": 9795,
      "کاو": 9796,
      "کمان": 9797,
      "کیا": 9798,
      "یچیزی": 9799,
      "ﺪﺭ": 9800,
      "ﻨﮓ": 9801,
      "𝗈𝗆𝖾": 9802,
      "🙌🏻": 9803,
      "میرفتم": 9804,
      "انگي": 9805,
      "ستر": 9806,
      "توقف": 9807,
      "نیلو": 9808,
      "رولان": 9809,
      "اداری": 9810,
      "امله": 9811,
      "دیدنی": 9812,
      "همت": 9813,
      "ریسک": 9814,
      "منس": 9815,
      "بیبی": 9816,
      "بیزار": 9817,
      "ودم": 9818,
      "کنيم": 9819,
      "دوا": 9820,
      "سینگ": 9821,
      "سیاوش": 9822,
      "استقل": 9823,
      "اهوی": 9824,
      "شیط": 9825,
      "شیطان": 9826,
      "کردنه": 9827,
      "نمیفهمه": 9828,
      "دلنشین": 9829,
      "اتشی": 9830,
      "زندگیو": 9831,
      "نوک": 9832,
      "ميگفت": 9833,
      "معرض": 9834,
      "ايده": 9835,
      "بلایی": 9836,
      "نشوی": 9837,
      "ناك": 9838,
      "ناتوانی": 9839,
      "ناچار": 9840,
      "میخواید": 9841,
      "یادشون": 9842,
      "صداشو": 9843,
      "خوشا": 9844,
      "شونم": 9845,
      "محلی": 9846,
      "محله": 9847,
      "انتشار": 9848,
      "صبحت": 9849,
      "نامريی": 9850,
      "جاییه": 9851,
      "نفسی": 9852,
      "مهمتر": 9853,
      "بياد": 9854,
      "مقدمه": 9855,
      "اموخت": 9856,
      "رسمی": 9857,
      "کوچیکی": 9858,
      "كردند": 9859,
      "زمستانی": 9860,
      "بگذرو": 9861,
      "بگذری": 9862,
      "غیب": 9863,
      "شدیدی": 9864,
      "پسرک": 9865,
      "منتظری": 9866,
      "علف": 9867,
      "حدس": 9868,
      "بشری": 9869,
      "نگهت": 9870,
      "برگردان": 9871,
      "مودم": 9872,
      "مخدر": 9873,
      "اونیه": 9874,
      "ایستادم": 9875,
      "خندیدیم": 9876,
      "عالیه": 9877,
      "سياه": 9878,
      "پذير": 9879,
      "سخنان": 9880,
      "انگشتان": 9881,
      "گروهی": 9882,
      "بلاخره": 9883,
      "ببرند": 9884,
      "ديوار": 9885,
      "قیافم": 9886,
      "بیندازد": 9887,
      "عقده": 9888,
      "جفتمون": 9889,
      "BeMan": 9890,
      "علیرضا_": 9891,
      "𝖺𝗇𝖽": 9892,
      "کشتن": 9893,
      "وسیع": 9894,
      "غالبا": 9895,
      "انتقال": 9896,
      "خدایان": 9897,
      "هوشنگ_": 9898,
      "تصمیمی": 9899,
      "ميدوني": 9900,
      "رقصیدن": 9901,
      "Good": 9902,
      "روزبه_": 9903,
      "ناتمام": 9904,
      "مذهبی": 9905,
      "With": 9906,
      "حیرت": 9907,
      "عظمت": 9908,
      "گارسیا": 9909,
      "غنچه": 9910,
      "پرفروش": 9911,
      "beautiful": 9912,
      "مجسمه": 9913,
      "نرگس_صرافی": 9914,
      "HarfBeMan": 9915,
      "عواطف": 9916,
      "استقلال": 9917,
      "-|": 9918,
      ".😂": 9919,
      ".🥲": 9920,
      ":(": 9921,
      "All": 9922,
      "Ho": 9923,
      "Po": 9924,
      "bir": 9925,
      "could": 9926,
      "hand": 9927,
      "kon": 9928,
      "ting": 9929,
      "اك": 9930,
      "بخواه": 9931,
      "بارید": 9932,
      "ت_": 9933,
      "تبر": 9934,
      "تبد": 9935,
      "تختم": 9936,
      "حرام": 9937,
      "خس": 9938,
      "ذبه": 9939,
      "ربات": 9940,
      "زباله": 9941,
      "سپرده": 9942,
      "شکس": 9943,
      "طو": 9944,
      "طرد": 9945,
      "ـتـ": 9946,
      "فلا": 9947,
      "فانی": 9948,
      "ملو": 9949,
      "نفت": 9950,
      "نقد": 9951,
      "وادار": 9952,
      "پچ": 9953,
      "کوی": 9954,
      "یابم": 9955,
      "…!": 9956,
      "….": 9957,
      "ﭘﺲ": 9958,
      "ﮕﯽ": 9959,
      "ﻓﺮ": 9960,
      "ﻘﺎ": 9961,
      "𝗀𝖾": 9962,
      "😂:": 9963,
      "میمونن": 9964,
      "اینی": 9965,
      "انتی": 9966,
      "انگونه": 9967,
      "انگاری": 9968,
      "ندادم": 9969,
      "باقر": 9970,
      "درمانی": 9971,
      "ریح": 9972,
      "اشعار": 9973,
      "دوز": 9974,
      "گیم": 9975,
      "گیسو": 9976,
      "سیده": 9977,
      "استانه": 9978,
      "کردنی": 9979,
      "ماهم": 9980,
      "نمیام": 9981,
      "نمیفهمی": 9982,
      "نمیزنم": 9983,
      "دلخواه": 9984,
      "هیاهو": 9985,
      "زندگیمان": 9986,
      "فرند": 9987,
      "فرکانس": 9988,
      "سرگرم": 9989,
      "سرکوب": 9990,
      "بارش": 9991,
      "احمدر": 9992,
      "ميدونم": 9993,
      "ميخواد": 9994,
      "بوف": 9995,
      "قدرشو": 9996,
      "کول": 9997,
      "کوهی": 9998,
      "گذرو": 9999,
      "کارتون": 10000,
      "ولنت": 10001,
      "خوبي": 10002,
      "داریوش": 10003,
      "مرکز": 10004,
      "him": 10005,
      "سواری": 10006,
      "قشاع": 10007,
      "مشابه": 10008,
      "چشمهایش": 10009,
      "واسطه": 10010,
      "fucking": 10011,
      "نامرد": 10012,
      "ادین": 10013,
      "غمگين": 10014,
      "نزدن": 10015,
      "نفع": 10016,
      "اکبری": 10017,
      "ندین": 10018,
      "بردارید": 10019,
      "نارنگی": 10020,
      "نیمکت": 10021,
      "بيست": 10022,
      "بينم": 10023,
      "عهده": 10024,
      "دخترت": 10025,
      "شویی": 10026,
      "سلي": 10027,
      "غیبت": 10028,
      "عکسای": 10029,
      "فرورد": 10030,
      "زدنت": 10031,
      "گزاری": 10032,
      "ارزوهات": 10033,
      "تفنگ": 10034,
      "شکستم": 10035,
      "کاتی": 10036,
      "چهارراه": 10037,
      "گوشیمو": 10038,
      "قهرم": 10039,
      "ولوژی": 10040,
      "مصنوعی": 10041,
      "احترامی": 10042,
      "عزیزترین": 10043,
      "والدین": 10044,
      "عدالت": 10045,
      "غلطی": 10046,
      "لرزه": 10047,
      "كوه": 10048,
      "شنوه": 10049,
      "حوادث": 10050,
      "ساعات": 10051,
      "ساکن": 10052,
      "مسیج": 10053,
      "گمانم": 10054,
      "ببينم": 10055,
      "مواجهه": 10056,
      "دقيقه": 10057,
      "كوتاه": 10058,
      "much": 10059,
      "گزارش": 10060,
      "مینویسم": 10061,
      "خانوادگی": 10062,
      "ﻭﻗﺘﯽ": 10063,
      "شوپنهاور": 10064,
      "ارتباطی": 10065,
      "تبديل": 10066,
      ".)": 10067,
      "Are": 10068,
      "EN": 10069,
      "IS": 10070,
      "_م": 10071,
      "ac": 10072,
      "bu": 10073,
      "da": 10074,
      "em": 10075,
      "hurt": 10076,
      "ser": 10077,
      "ton": 10078,
      "بشک": 10079,
      "بمیریم": 10080,
      "ببارد": 10081,
      "تقلب": 10082,
      "تغذ": 10083,
      "ثریا": 10084,
      "حست": 10085,
      "حرفت": 10086,
      "ذخیره": 10087,
      "سام": 10088,
      "ساق": 10089,
      "سپاس": 10090,
      "سامان": 10091,
      "صخره": 10092,
      "ظه": 10093,
      "عکست": 10094,
      "عين": 10095,
      "ـکــ": 10096,
      "فعه": 10097,
      "مسو": 10098,
      "مامو": 10099,
      "ملاح": 10100,
      "ماییم": 10101,
      "نشید": 10102,
      "پون": 10103,
      "کاين": 10104,
      "کـه": 10105,
      "ﯾﻦ": 10106,
      "ﺁﻧ": 10107,
      "ﺑﻌ": 10108,
      "𝖽𝖾": 10109,
      "𝗀𝗂": 10110,
      "ارند": 10111,
      "ازرده": 10112,
      "تومان": 10113,
      "خوبیه": 10114,
      "نیکی": 10115,
      "روبروی": 10116,
      "ادای": 10117,
      "املی": 10118,
      "امروزی": 10119,
      "دیره": 10120,
      "ریتم": 10121,
      "ریزم": 10122,
      "منصف": 10123,
      "بیرونی": 10124,
      "اشکام": 10125,
      "برطرف": 10126,
      "دومین": 10127,
      "لیمو": 10128,
      "شیش": 10129,
      "موش": 10130,
      "نمیرسه": 10131,
      "هرموقه": 10132,
      "دهاز": 10133,
      "اسانی": 10134,
      "اسمم": 10135,
      "اسرار": 10136,
      "دلگرمی": 10137,
      "...؟!": 10138,
      "پیروز": 10139,
      "پیامی": 10140,
      "سرشان": 10141,
      "دستانش": 10142,
      "گويند": 10143,
      "کیلو": 10144,
      "معنوی": 10145,
      "کارما": 10146,
      "اندي": 10147,
      "پررنگ": 10148,
      "بازو": 10149,
      "جاتو": 10150,
      "lit": 10151,
      "جوراب": 10152,
      "دادید": 10153,
      "کمدی": 10154,
      "عیدی": 10155,
      "مرخصی": 10156,
      "مرداد": 10157,
      "کنارشون": 10158,
      "lose": 10159,
      "بخوانی": 10160,
      "سوف": 10161,
      "گویید": 10162,
      "ارزه": 10163,
      "نزدم": 10164,
      "ديده": 10165,
      "ديگری": 10166,
      "ماهـکــ": 10167,
      "بهمنی": 10168,
      "sta": 10169,
      "فردایی": 10170,
      "نگیرید": 10171,
      "نبودت": 10172,
      "مسجد": 10173,
      "جانش": 10174,
      "عوری": 10175,
      "اخرشم": 10176,
      "leg": 10177,
      "باورش": 10178,
      "انگیزی": 10179,
      "بسپ": 10180,
      "تقویم": 10181,
      "علوی": 10182,
      "غمگینه": 10183,
      "جلوت": 10184,
      "پياده": 10185,
      "......": 10186,
      "منتظرش": 10187,
      "عمرت": 10188,
      "نشیم": 10189,
      "جنایت": 10190,
      "حالیکه": 10191,
      "پذیری": 10192,
      "پذیرفته": 10193,
      "sian": 10194,
      "زمینم": 10195,
      "ﺩﺍﺷﺘ": 10196,
[...]
