{"[PAD]": 0, "[SEP]": 1, "[CLS]": 2, "[MASK]": 3, "[UNK]": 4, "!": 5, "\"": 6, "#": 7, "$": 8, "%": 9, "&": 10, "'": 11, "(": 12, ")": 13, "*": 14, "+": 15, ",": 16, "-": 17, ".": 18, "/": 19, "0": 20, "1": 21, "2": 22, "3": 23, "4": 24, "5": 25, "6": 26, "7": 27, "8": 28, "9": 29, ":": 30, ";": 31, "<": 32, "=": 33, ">": 34, "?": 35, "@": 36, "A": 37, "B": 38, "C": 39, "D": 40, "E": 41, "F": 42, "G": 43, "H": 44, "I": 45, "J": 46, "K": 47, "L": 48, "M": 49, "N": 50, "O": 51, "P": 52, "Q": 53, "R": 54, "S": 55, "T": 56, "U": 57, "V": 58, "W": 59, "X": 60, "Y": 61, "Z": 62, "[": 63, "\\": 64, "]": 65, "^": 66, "_": 67, "`": 68, "a": 69, "b": 70, "c": 71, "d": 72, "e": 73, "f": 74, "g": 75, "h": 76, "i": 77, "j": 78, "k": 79, "l": 80, "m": 81, "n": 82, "o": 83, "p": 84, "q": 85, "r": 86, "s": 87, "t": 88, "u": 89, "v": 90, "w": 91, "x": 92, "y": 93, "z": 94, "{": 95, "|": 96, "}": 97, "~": 98, "¢": 99, "¨": 100, "©": 101, "«": 102, "¬": 103, "­": 104, "°": 105, "±": 106, "²": 107, "³": 108, "¹": 109, "»": 110, "Æ": 111, "×": 112, "ß": 113, "æ": 114, "ð": 115, "ı": 116, "ĸ": 117, "ł": 118, "ŋ": 119, "œ": 120, "Ƅ": 121, "ƒ": 122, "ƨ": 123, "ɑ": 124, "ɔ": 125, "ɕ": 126, "ə": 127, "ɛ": 128, "ɢ": 129, "ɦ": 130, "ɪ": 131, "ɴ": 132, "ʀ": 133, "ʋ": 134, "ʍ": 135, "ʏ": 136, "ʙ": 137, "ʜ": 138, "ʝ": 139, "ʟ": 140, "ʰ": 141, "ʳ": 142, "ʷ": 143, "ʸ": 144, "ˈ": 145, "˘": 146, "˝": 147, "ˡ": 148, "ˢ": 149, "Α": 150, "Δ": 151, "Θ": 152, "Ι": 153, "Ο": 154, "Σ": 155, "α": 156, "β": 157, "γ": 158, "δ": 159, "ε": 160, "η": 161, "ι": 162, "κ": 163, "λ": 164, "μ": 165, "ν": 166, "ο": 167, "π": 168, "ρ": 169, "ς": 170, "σ": 171, "τ": 172, "υ": 173, "φ": 174, "χ": 175, "ω": 176, "Б": 177, "В": 178, "Д": 179, "З": 180, "И": 181, "К": 182, "М": 183, "Н": 184, "О": 185, "П": 186, "С": 187, "Т": 188, "Ц": 189, "Я": 190, "а": 191, "б": 192, "в": 193, "г": 194, "д": 195, "е": 196, "ж": 197, "з": 198, "и": 199, "к": 200, "л": 201, "м": 202, "н": 203, "о": 204, "п": 205, "р": 206, "с": 207, "т": 208, "у": 209, "ф": 210, "х": 211, "ц": 212, "ч": 213, "ш": 214, "щ": 215, "ъ": 216, "ы": 217, "ь": 218, "э": 219, "ю": 220, "я": 221, "є": 222, "ѕ": 223, "і": 224, "ғ": 225, "ү": 226, "ө": 227, "Ք": 228, "ա": 229, "բ": 230, "ե": 231, "զ": 232, "ի": 233, "կ": 234, "հ": 235, "մ": 236, "ն": 237, "ո": 238, "չ": 239, "ս": 240, "տ": 241, "ց": 242, "ւ": 243, "נ": 244, "؋": 245, "،": 246, "؛": 247, "؟": 248, "ء": 249, "ا": 250, "ب": 251, "ة": 252, "ت": 253, "ث": 254, "ج": 255, "ح": 256, "خ": 257, "د": 258, "ذ": 259, "ر": 260, "ز": 261, "س": 262, "ش": 263, "ص": 264, "ض": 265, "ط": 266, "ظ": 267, "ع": 268, "غ": 269, "ـ": 270, "ف": 271, "ق": 272, "ك": 273, "ل": 274, "م": 275, "ن": 276, "ه": 277, "و": 278, "ى": 279, "ي": 280, "٠": 281, "١": 282, "٢": 283, "٣": 284, "٤": 285, "٥": 286, "٦": 287, "٧": 288, "٨": 289, "٩": 290, "٪": 291, "٫": 292, "٬": 293, "٭": 294, "ٱ": 295, "ٵ": 296, "ٶ": 297, "ٹ": 298, "ٺ": 299, "ٻ": 300, "ټ": 301, "پ": 302, "ڂ": 303, "ڄ": 304, "چ": 305, "ڇ": 306, "ڈ": 307, "ډ": 308, "ڊ": 309, "ړ": 310, "ڔ": 311, "ڕ": 312, "ږ": 313, "ژ": 314, "ښ": 315, "ڝ": 316, "ک": 317, "ڪ": 318, "ګ": 319, "گ": 320, "ڰ": 321, "ڱ": 322, "ڵ": 323, "ڶ": 324, "ڷ": 325, "ڹ": 326, "ڼ": 327, "ھ": 328, "ہ": 329, "ۄ": 330, "ۅ": 331, "ۆ": 332, "ۇ": 333, "ۈ": 334, "ۋ": 335, "ی": 336, "ۍ": 337, "ێ": 338, "ۏ": 339, "ې": 340, "ے": 341, "۔": 342, "ە": 343, "۰": 344, "۱": 345, "۲": 346, "۳": 347, "۴": 348, "۵": 349, "۶": 350, "۷": 351, "۸": 352, "۹": 353, "ۺ": 354, "۾": 355, "ۿ": 356, "ܝ": 357, "ܠ": 358, "ܥ": 359, "ܦ": 360, "ܩ": 361, "ݐ": 362, "ݜ": 363, "ݦ": 364, "ݩ": 365, "ތ": 366, "ߺ": 367, "ࡄ": 368, "ࡅ": 369, "ࡆ": 370, "ࡊ": 371, "ࡎ": 372, "ࡏ": 373, "ࡐ": 374, "अ": 375, "आ": 376, "ई": 377, "ए": 378, "क": 379, "ख": 380, "च": 381, "छ": 382, "ज": 383, "झ": 384, "त": 385, "थ": 386, "द": 387, "ध": 388, "न": 389, "प": 390, "ब": 391, "म": 392, "य": 393, "र": 394, "ल": 395, "व": 396, "श": 397, "स": 398, "ह": 399, "ঔ": 400, "๛": 401, "ᄀ": 402, "ᄁ": 403, "ᄂ": 404, "ᄃ": 405, "ᄅ": 406, "ᄆ": 407, "ᄇ": 408, "ᄉ": 409, "ᄋ": 410, "ᄌ": 411, "ᄍ": 412, "ᄎ": 413, "ᄐ": 414, "ᄒ": 415, "ᅡ": 416, "ᅢ": 417, "ᅣ": 418, "ᅥ": 419, "ᅦ": 420, "ᅧ": 421, "ᅩ": 422, "ᅪ": 423, "ᅬ": 424, "ᅭ": 425, "ᅮ": 426, "ᅯ": 427, "ᅱ": 428, "ᅳ": 429, "ᅴ": 430, "ᅵ": 431, "ᆨ": 432, "ᆫ": 433, "ᆬ": 434, "ᆭ": 435, "ᆯ": 436, "ᆷ": 437, "ᆸ": 438, "ᆺ": 439, "ᆻ": 440, "ᆼ": 441, "ᆾ": 442, "ᇀ": 443, "ᇁ": 444, "ᇂ": 445, "ᐧ": 446, "ᐯ": 447, "ᑌ": 448, "ᑎ": 449, "ᑭ": 450, "ᒪ": 451, "ᕼ": 452, "ᖇ": 453, "ᗰ": 454, "ᴀ": 455, "ᴄ": 456, "ᴅ": 457, "ᴇ": 458, "ᴊ": 459, "ᴋ": 460, "ᴍ": 461, "ᴏ": 462, "ᴗ": 463, "ᴘ": 464, "ᴛ": 465, "ᴜ": 466, "ᴠ": 467, "ᴡ": 468, "ᴥ": 469, "ᵃ": 470, "ᵇ": 471, "ᵈ": 472, "ᵉ": 473, "ᵐ": 474, "ᵒ": 475, "ᵖ": 476, "ᵗ": 477, "ᵘ": 478, "ᶠ": 479, "​": 480, "‍": 481, "‎": 482, "‏": 483, "–": 484, "—": 485, "―": 486, "‘": 487, "’": 488, "‚": 489, "“": 490, "”": 491, "†": 492, "•": 493, "…": 494, "′": 495, "″": 496, "‴": 497, "‷": 498, "‹": 499, "›": 500, "‼": 501, "⁃": 502, "⁉": 503, "⁠": 504, "⁣": 505, "⁦": 506, "⁧": 507, "⁩": 508, "⁪": 509, "⁫": 510, "⁬": 511, "⁭": 512, "⁮": 513, "⁰": 514, "ⁱ": 515, "⁴": 516, "⁵": 517, "⁶": 518, "⁷": 519, "⁸": 520, "⁹": 521, "ⁿ": 522, "ℓ": 523, "™": 524, "ℳ": 525, "→": 526, "↔": 527, "↪": 528, "↫": 529, "↬": 530, "⇜": 531, "⇤": 532, "∂": 533, "∆": 534, "√": 535, "∞": 536, "∣": 537, "⊰": 538, "⋅": 539, "⋆": 540, "⋯": 541, "⌚": 542, "⌛": 543, "⌝": 544, "⌞": 545, "⍉": 546, "⏤": 547, "⏰": 548, "⏱": 549, "⏳": 550, "─": 551, "┼": 552, "■": 553, "▪": 554, "▫": 555, "▲": 556, "△": 557, "▶": 558, "▸": 559, "▼": 560, "◁": 561, "◂": 562, "◃": 563, "◇": 564, "○": 565, "●": 566, "◕": 567, "◡": 568, "◣": 569, "◥": 570, "◼": 571, "◽": 572, "◾": 573, "☀": 574, "☁": 575, "☂": 576, "☃": 577, "☄": 578, "☆": 579, "☑": 580, "☔": 581, "☕": 582, "☘": 583, "☝": 584, "☞": 585, "☠": 586, "☩": 587, "☹": 588, "☺": 589, "☻": 590, "♀": 591, "♂": 592, "♟": 593, "♡": 594, "♥": 595, "♦": 596, "♫": 597, "♱": 598, "♻": 599, "♾": 600, "⚉": 601, "⚓": 602, "⚔": 603, "⚖": 604, "⚜": 605, "⚠": 606, "⚡": 607, "⚢": 608, "⚪": 609, "⚫": 610, "⚰": 611, "⚽": 612, "⛄": 613, "⛅": 614, "⛈": 615, "⛏": 616, "⛑": 617, "⛓": 618, "⛔": 619, "⛰": 620, "⛱": 621, "⛵": 622, "⛸": 623, "⛺": 624, "✂": 625, "✅": 626, "✈": 627, "✉": 628, "✊": 629, "✋": 630, "✌": 631, "✍": 632, "✏": 633, "✒": 634, "✔": 635, "✖": 636, "✨": 637, "✿": 638, "❄": 639, "❇": 640, "❌": 641, "❔": 642, "❕": 643, "❗": 644, "❣": 645, "❤": 646, "❥": 647, "➕": 648, "➖": 649, "➡": 650, "➰": 651, "➷": 652, "⤶": 653, "⨺": 654, "⬅": 655, "⬇": 656, "⬛": 657, "⭐": 658, "⭕": 659, "《": 660, "》": 661, "「": 662, "」": 663, "『": 664, "』": 665, "【": 666, "】": 667, "〰": 668, "あ": 669, "い": 670, "き": 671, "し": 672, "た": 673, "て": 674, "な": 675, "に": 676, "の": 677, "は": 678, "み": 679, "も": 680, "ゆ": 681, "り": 682, "る": 683, "わ": 684, "中": 685, "乙": 686, "书": 687, "了": 688, "亮": 689, "人": 690, "以": 691, "任": 692, "会": 693, "何": 694, "你": 695, "到": 696, "呆": 697, "国": 698, "外": 699, "子": 700, "守": 701, "小": 702, "愛": 703, "我": 704, "斐": 705, "月": 706, "有": 707, "本": 708, "死": 709, "沒": 710, "爱": 711, "猫": 712, "甘": 713, "生": 714, "甲": 715, "発": 716, "的": 717, "看": 718, "私": 719, "蒸": 720, "虫": 721, "誰": 722, "除": 723, "ꜰ": 724, "ꜱ": 725, "ꨄ": 726, "ﬤ": 727, "ﭐ": 728, "ﭖ": 729, "ﭘ": 730, "ﭙ": 731, "ﭻ": 732, "ﭼ": 733, "ﭽ": 734, "ﮊ": 735, "ﮋ": 736, "ﮎ": 737, "ﮏ": 738, "ﮐ": 739, "ﮑ": 740, "ﮒ": 741, "ﮓ": 742, "ﮔ": 743, "ﮕ": 744, "ﮤ": 745, "ﮦ": 746, "ﮧ": 747, "ﮨ": 748, "ﮩ": 749, "ﮬ": 750, "ﮭ": 751, "ﮯ": 752, "﮼": 753, "ﯼ": 754, "ﯽ": 755, "ﯾ": 756, "ﯿ": 757, "︴": 758, "ﺀ": 759, "ﺁ": 760, "ﺂ": 761, "ﺃ": 762, "ﺄ": 763, "ﺇ": 764, "ﺋ": 765, "ﺌ": 766, "ﺍ": 767, "ﺎ": 768, "ﺏ": 769, "ﺐ": 770, "ﺑ": 771, "ﺒ": 772, "ﺕ": 773, "ﺖ": 774, "ﺗ": 775, "ﺘ": 776, "ﺙ": 777, "ﺚ": 778, "ﺛ": 779, "ﺜ": 780, "ﺝ": 781, "ﺞ": 782, "ﺟ": 783, "ﺠ": 784, "ﺡ": 785, "ﺢ": 786, "ﺣ": 787, "ﺤ": 788, "ﺥ": 789, "ﺦ": 790, "ﺧ": 791, "ﺨ": 792, "ﺩ": 793, "ﺪ": 794, "ﺫ": 795, "ﺬ": 796, "ﺭ": 797, "ﺮ": 798, "ﺯ": 799, "ﺰ": 800, "ﺱ": 801, "ﺲ": 802, "ﺳ": 803, "ﺴ": 804, "ﺵ": 805, "ﺶ": 806, "ﺷ": 807, "ﺸ": 808, "ﺹ": 809, "ﺺ": 810, "ﺻ": 811, "ﺼ": 812, "ﺽ": 813, "ﺾ": 814, "ﺿ": 815, "ﻀ": 816, "ﻁ": 817, "ﻂ": 818, "ﻃ": 819, "ﻄ": 820, "ﻆ": 821, "ﻇ": 822, "ﻈ": 823, "ﻉ": 824, "ﻊ": 825, "ﻋ": 826, "ﻌ": 827, "ﻍ": 828, "ﻎ": 829, "ﻏ": 830, "ﻐ": 831, "ﻑ": 832, "ﻒ": 833, "ﻓ": 834, "ﻔ": 835, "ﻕ": 836, "ﻖ": 837, "ﻗ": 838, "ﻘ": 839, "ﻚ": 840, "ﻛ": 841, "ﻜ": 842, "ﻝ": 843, "ﻞ": 844, "ﻟ": 845, "ﻠ": 846, "ﻡ": 847, "ﻢ": 848, "ﻣ": 849, "ﻤ": 850, "ﻥ": 851, "ﻦ": 852, "ﻧ": 853, "ﻨ": 854, "ﻩ": 855, "ﻪ": 856, "ﻫ": 857, "ﻬ": 858, "ﻭ": 859, "ﻮ": 860, "ﻯ": 861, "ﻰ": 862, "ﻱ": 863, "ﻲ": 864, "ﻳ": 865, "ﻴ": 866, "ﻸ": 867, "ﻻ": 868, "ﻼ": 869, "﻿": 870, "，": 871, "：": 872, "ａ": 873, "ｂ": 874, "ｃ": 875, "ｄ": 876, "ｅ": 877, "ｆ": 878, "ｈ": 879, "ｉ": 880, "ｋ": 881, "ｌ": 882, "ｍ": 883, "ｎ": 884, "ｏ": 885, "ｒ": 886, "ｓ": 887, "ｔ": 888, "ｕ": 889, "ｖ": 890, "ｗ": 891, "ｙ": 892, "～": 893, "𖦤": 894, "𝐀": 895, "𝐁": 896, "𝐃": 897, "𝐄": 898, "𝐅": 899, "𝐇": 900, "𝐈": 901, "𝐊": 902, "𝐋": 903, "𝐌": 904, "𝐍": 905, "𝐎": 906, "𝐏": 907, "𝐑": 908, "𝐒": 909, "𝐓": 910, "𝐗": 911, "𝐘": 912, "𝐙": 913, "𝐚": 914, "𝐛": 915, "𝐜": 916, "𝐝": 917, "𝐞": 918, "𝐟": 919, "𝐠": 920, "𝐡": 921, "𝐢": 922, "𝐤": 923, "𝐥": 924, "𝐦": 925, "𝐧": 926, "𝐨": 927, "𝐩": 928, "𝐫": 929, "𝐬": 930, "𝐭": 931, "𝐮": 932, "𝐯": 933, "𝐰": 934, "𝐱": 935, "𝐲": 936, "𝐴": 937, "𝐶": 938, "𝐻": 939, "𝐼": 940, "𝑀": 941, "𝑇": 942, "𝑌": 943, "𝑎": 944, "𝑏": 945, "𝑐": 946, "𝑒": 947, "𝑔": 948, "𝑖": 949, "𝑘": 950, "𝑙": 951, "𝑚": 952, "𝑛": 953, "𝑜": 954, "𝑟": 955, "𝑠": 956, "𝑡": 957, "𝑢": 958, "𝑣": 959, "𝑤": 960, "𝑥": 961, "𝑦": 962, "𝑭": 963, "𝑯": 964, "𝑰": 965, "𝑻": 966, "𝒀": 967, "𝒂": 968, "𝒃": 969, "𝒄": 970, "𝒅": 971, "𝒆": 972, "𝒇": 973, "𝒈": 974, "𝒉": 975, "𝒊": 976, "𝒌": 977, "𝒍": 978, "𝒎": 979, "𝒏": 980, "𝒐": 981, "𝒑": 982, "𝒓": 983, "𝒔": 984, "𝒕": 985, "𝒖": 986, "𝒗": 987, "𝒘": 988, "𝒚": 989, "𝒛": 990, "𝒟": 991, "𝒱": 992, "𝒶": 993, "𝒷": 994, "𝒻": 995, "𝒽": 996, "𝒾": 997, "𝓁": 998, "𝓂": 999, "𝓃": 1000, "𝓅": 1001, "𝓇": 1002, "𝓈": 1003, "𝓉": 1004, "𝓊": 1005, "𝓎": 1006, "𝓥": 1007, "𝓨": 1008, "𝓪": 1009, "𝓫": 1010, "𝓭": 1011, "𝓮": 1012, "𝓲": 1013, "𝓵": 1014, "𝓶": 1015, "𝓷": 1016, "𝓸": 1017, "𝓻": 1018, "𝓼": 1019, "𝓽": 1020, "𝓾": 1021, "𝔀": 1022, "𝔂": 1023, "𝔇": 1024, "𝔞": 1025, "𝔢": 1026, "𝔦": 1027, "𝔩": 1028, "𝔪": 1029, "𝔫": 1030, "𝕴": 1031, "𝖆": 1032, "𝖊": 1033, "𝖋": 1034, "𝖍": 1035, "𝖐": 1036, "𝖑": 1037, "𝖒": 1038, "𝖓": 1039, "𝖔": 1040, "𝖗": 1041, "𝖘": 1042, "𝖙": 1043, "𝖚": 1044, "𝖛": 1045, "𝖞": 1046, "𝖠": 1047, "𝖡": 1048, "𝖢": 1049, "𝖣": 1050, "𝖤": 1051, "𝖥": 1052, "𝖦": 1053, "𝖧": 1054, "𝖨": 1055, "𝖩": 1056, "𝖪": 1057, "𝖫": 1058, "𝖬": 1059, "𝖭": 1060, "𝖮": 1061, "𝖯": 1062, "𝖱": 1063, "𝖲": 1064, "𝖳": 1065, "𝖴": 1066, "𝖵": 1067, "𝖶": 1068, "𝖸": 1069, "𝖹": 1070, "𝖺": 1071, "𝖻": 1072, "𝖼": 1073, "𝖽": 1074, "𝖾": 1075, "𝖿": 1076, "𝗀": 1077, "𝗁": 1078, "𝗂": 1079, "𝗃": 1080, "𝗄": 1081, "𝗅": 1082, "𝗆": 1083, "𝗇": 1084, "𝗈": 1085, "𝗉": 1086, "𝗊": 1087, "𝗋": 1088, "𝗌": 1089, "𝗍": 1090, "𝗎": 1091, "𝗏": 1092, "𝗐": 1093, "𝗑": 1094, "𝗒": 1095, "𝗓": 1096, "𝗔": 1097, "𝗕": 1098, "𝗖": 1099, "𝗗": 1100, "𝗙": 1101, "𝗚": 1102, "𝗛": 1103, "𝗜": 1104, "𝗞": 1105, "𝗟": 1106, "𝗠": 1107, "𝗡": 1108, "𝗢": 1109, "𝗣": 1110, "𝗦": 1111, "𝗧": 1112, "𝗩": 1113, "𝗪": 1114, "𝗬": 1115, "𝗮": 1116, "𝗯": 1117, "𝗰": 1118, "𝗱": 1119, "𝗲": 1120, "𝗳": 1121, "𝗴": 1122, "𝗵": 1123, "𝗶": 1124, "𝗷": 1125, "𝗸": 1126, "𝗹": 1127, "𝗺": 1128, "𝗻": 1129, "𝗼": 1130, "𝗽": 1131, "𝗿": 1132, "𝘀": 1133, "𝘁": 1134, "𝘂": 1135, "𝘃": 1136, "𝘄": 1137, "𝘅": 1138, "𝘆": 1139, "𝘈": 1140, "𝘉": 1141, "𝘊": 1142, "𝘋": 1143, "𝘌": 1144, "𝘍": 1145, "𝘏": 1146, "𝘐": 1147, "𝘒": 1148, "𝘓": 1149, "𝘔": 1150, "𝘕": 1151, "𝘖": 1152, "𝘗": 1153, "𝘙": 1154, "𝘚": 1155, "𝘛": 1156, "𝘝": 1157, "𝘞": 1158, "𝘠": 1159, "𝘢": 1160, "𝘣": 1161, "𝘤": 1162, "𝘥": 1163, "𝘦": 1164, "𝘧": 1165, "𝘨": 1166, "𝘩": 1167, "𝘪": 1168, "𝘬": 1169, "𝘭": 1170, "𝘮": 1171, "𝘯": 1172, "𝘰": 1173, "𝘱": 1174, "𝘳": 1175, "𝘴": 1176, "𝘵": 1177, "𝘶": 1178, "𝘷": 1179, "𝘸": 1180, "𝘺": 1181, "𝘼": 1182, "𝘽": 1183, "𝘾": 1184, "𝘿": 1185, "𝙂": 1186, "𝙃": 1187, "𝙄": 1188, "𝙆": 1189, "𝙇": 1190, "𝙈": 1191, "𝙉": 1192, "𝙊": 1193, "𝙋": 1194, "𝙎": 1195, "𝙏": 1196, "𝙒": 1197, "𝙔": 1198, "𝙖": 1199, "𝙗": 1200, "𝙘": 1201, "𝙙": 1202, "𝙚": 1203, "𝙛": 1204, "𝙜": 1205, "𝙝": 1206, "𝙞": 1207, "𝙠": 1208, "𝙡": 1209, "𝙢": 1210, "𝙣": 1211, "𝙤": 1212, "𝙥": 1213, "𝙦": 1214, "𝙧": 1215, "𝙨": 1216, "𝙩": 1217, "𝙪": 1218, "𝙫": 1219, "𝙬": 1220, "𝙮": 1221, "𝟭": 1222, "𝟮": 1223, "𝟯": 1224, "𝟰": 1225, "𝟱": 1226, "𝟲": 1227, "𝟳": 1228, "𝟴": 1229, "𝟵": 1230, "🃏": 1231, "🆔": 1232, "🆕": 1233, "🇦": 1234, "🇧": 1235, "🇪": 1236, "🇫": 1237, "🇬": 1238, "🇮": 1239, "🇯": 1240, "🇱": 1241, "🇲": 1242, "🇳": 1243, "🇷": 1244, "🇸": 1245, "🇹": 1246, "🇺": 1247, "🌀": 1248, "🌂": 1249, "🌃": 1250, "🌄": 1251, "🌅": 1252, "🌆": 1253, "🌇": 1254, "🌈": 1255, "🌊": 1256, "🌋": 1257, "🌌": 1258, "🌍": 1259, "🌎": 1260, "🌏": 1261, "🌐": 1262, "🌑": 1263, "🌒": 1264, "🌓": 1265, "🌔": 1266, "🌕": 1267, "🌖": 1268, "🌗": 1269, "🌘": 1270, "🌙": 1271, "🌚": 1272, "🌛": 1273, "🌜": 1274, "🌝": 1275, "🌞": 1276, "🌟": 1277, "🌠": 1278, "🌡": 1279, "🌤": 1280, "🌥": 1281, "🌦": 1282, "🌧": 1283, "🌨": 1284, "🌩": 1285, "🌪": 1286, "🌫": 1287, "🌬": 1288, "🌭": 1289, "🌰": 1290, "🌱": 1291, "🌲": 1292, "🌳": 1293, "🌴": 1294, "🌵": 1295, "🌷": 1296, "🌸": 1297, "🌹": 1298, "🌺": 1299, "🌻": 1300, "🌼": 1301, "🌽": 1302, "🌾": 1303, "🌿": 1304, "🍀": 1305, "🍁": 1306, "🍂": 1307, "🍃": 1308, "🍄": 1309, "🍅": 1310, "🍆": 1311, "🍇": 1312, "🍉": 1313, "🍊": 1314, "🍋": 1315, "🍌": 1316, "🍍": 1317, "🍎": 1318, "🍏": 1319, "🍐": 1320, "🍑": 1321, "🍒": 1322, "🍓": 1323, "🍔": 1324, "🍕": 1325, "🍖": 1326, "🍗": 1327, "🍜": 1328, "🍝": 1329, "🍞": 1330, "🍟": 1331, "🍡": 1332, "🍢": 1333, "🍣": 1334, "🍤": 1335, "🍦": 1336, "🍧": 1337, "🍨": 1338, "🍩": 1339, "🍪": 1340, "🍫": 1341, "🍬": 1342, "🍭": 1343, "🍮": 1344, "🍯": 1345, "🍰": 1346, "🍲": 1347, "🍳": 1348, "🍶": 1349, "🍷": 1350, "🍸": 1351, "🍹": 1352, "🍺": 1353, "🍻": 1354, "🍼": 1355, "🍽": 1356, "🍾": 1357, "🍿": 1358, "🎀": 1359, "🎁": 1360, "🎂": 1361, "🎃": 1362, "🎄": 1363, "🎆": 1364, "🎈": 1365, "🎉": 1366, "🎊": 1367, "🎋": 1368, "🎌": 1369, "🎎": 1370, "🎒": 1371, "🎓": 1372, "🎖": 1373, "🎗": 1374, "🎙": 1375, "🎚": 1376, "🎞": 1377, "🎟": 1378, "🎠": 1379, "🎡": 1380, "🎢": 1381, "🎤": 1382, "🎥": 1383, "🎧": 1384, "🎨": 1385, "🎩": 1386, "🎪": 1387, "🎬": 1388, "🎭": 1389, "🎮": 1390, "🎰": 1391, "🎲": 1392, "🎵": 1393, "🎶": 1394, "🎷": 1395, "🎸": 1396, "🎹": 1397, "🎻": 1398, "🎼": 1399, "🎾": 1400, "🏀": 1401, "🏁": 1402, "🏂": 1403, "🏃": 1404, "🏄": 1405, "🏆": 1406, "🏎": 1407, "🏐": 1408, "🏔": 1409, "🏕": 1410, "🏙": 1411, "🏛": 1412, "🏢": 1413, "🏰": 1414, "🏳": 1415, "🏴": 1416, "🏷": 1417, "🏸": 1418, "🏹": 1419, "🏻": 1420, "🏼": 1421, "🏽": 1422, "🏾": 1423, "🏿": 1424, "🐀": 1425, "🐁": 1426, "🐆": 1427, "🐇": 1428, "🐈": 1429, "🐉": 1430, "🐊": 1431, "🐋": 1432, "🐌": 1433, "🐍": 1434, "🐎": 1435, "🐏": 1436, "🐑": 1437, "🐕": 1438, "🐖": 1439, "🐘": 1440, "🐙": 1441, "🐚": 1442, "🐛": 1443, "🐜": 1444, "🐝": 1445, "🐞": 1446, "🐟": 1447, "🐠": 1448, "🐡": 1449, "🐢": 1450, "🐣": 1451, "🐥": 1452, "🐧": 1453, "🐨": 1454, "🐩": 1455, "🐬": 1456, "🐭": 1457, "🐯": 1458, "🐰": 1459, "🐱": 1460, "🐳": 1461, "🐴": 1462, "🐵": 1463, "🐶": 1464, "🐷": 1465, "🐸": 1466, "🐹": 1467, "🐺": 1468, "🐻": 1469, "🐼": 1470, "🐽": 1471, "🐾": 1472, "🐿": 1473, "👀": 1474, "👁": 1475, "👂": 1476, "👃": 1477, "👄": 1478, "👅": 1479, "👆": 1480, "👇": 1481, "👈": 1482, "👉": 1483, "👊": 1484, "👋": 1485, "👌": 1486, "👍": 1487, "👎": 1488, "👏": 1489, "👐": 1490, "👑": 1491, "👒": 1492, "👓": 1493, "👔": 1494, "👙": 1495, "👛": 1496, "👟": 1497, "👠": 1498, "👣": 1499, "👤": 1500, "👥": 1501, "👦": 1502, "👧": 1503, "👨": 1504, "👩": 1505, "👫": 1506, "👬": 1507, "👭": 1508, "👯": 1509, "👰": 1510, "👱": 1511, "👵": 1512, "👶": 1513, "👷": 1514, "👸": 1515, "👹": 1516, "👻": 1517, "👼": 1518, "👽": 1519, "👾": 1520, "👿": 1521, "💀": 1522, "💁": 1523, "💂": 1524, "💃": 1525, "💄": 1526, "💅": 1527, "💆": 1528, "💇": 1529, "💉": 1530, "💊": 1531, "💋": 1532, "💌": 1533, "💍": 1534, "💎": 1535, "💏": 1536, "💐": 1537, "💑": 1538, "💒": 1539, "💓": 1540, "💔": 1541, "💕": 1542, "💖": 1543, "💗": 1544, "💘": 1545, "💙": 1546, "💚": 1547, "💛": 1548, "💜": 1549, "💝": 1550, "💞": 1551, "💟": 1552, "💠": 1553, "💡": 1554, "💣": 1555, "💤": 1556, "💥": 1557, "💦": 1558, "💧": 1559, "💨": 1560, "💩": 1561, "💪": 1562, "💫": 1563, "💬": 1564, "💭": 1565, "💯": 1566, "💰": 1567, "💱": 1568, "💵": 1569, "💶": 1570, "💸": 1571, "💻": 1572, "💽": 1573, "💿": 1574, "📀": 1575, "📃": 1576, "📄": 1577, "📅": 1578, "📌": 1579, "📍": 1580, "📎": 1581, "📒": 1582, "📓": 1583, "📔": 1584, "📕": 1585, "📖": 1586, "📗": 1587, "📘": 1588, "📙": 1589, "📚": 1590, "📛": 1591, "📜": 1592, "📝": 1593, "📞": 1594, "📢": 1595, "📣": 1596, "📥": 1597, "📦": 1598, "📮": 1599, "📰": 1600, "📱": 1601, "📲": 1602, "📷": 1603, "📸": 1604, "📺": 1605, "📻": 1606, "📼": 1607, "📽": 1608, "📿": 1609, "🔀": 1610, "🔂": 1611, "🔃": 1612, "🔄": 1613, "🔅": 1614, "🔆": 1615, "🔇": 1616, "🔈": 1617, "🔉": 1618, "🔊": 1619, "🔌": 1620, "🔍": 1621, "🔎": 1622, "🔐": 1623, "🔑": 1624, "🔒": 1625, "🔔": 1626, "🔕": 1627, "🔖": 1628, "🔗": 1629, "🔙": 1630, "🔚": 1631, "🔛": 1632, "🔜": 1633, "🔞": 1634, "🔢": 1635, "🔥": 1636, "🔪": 1637, "🔫": 1638, "🔭": 1639, "🔮": 1640, "🔰": 1641, "🔴": 1642, "🔸": 1643, "🔹": 1644, "🔺": 1645, "🔻": 1646, "🕊": 1647, "🕐": 1648, "🕔": 1649, "🕕": 1650, "🕠": 1651, "🕯": 1652, "🕴": 1653, "🕶": 1654, "🕷": 1655, "🕸": 1656, "🕺": 1657, "🖇": 1658, "🖊": 1659, "🖋": 1660, "🖌": 1661, "🖐": 1662, "🖕": 1663, "🖖": 1664, "🖤": 1665, "🖥": 1666, "🗓": 1667, "🗝": 1668, "🗞": 1669, "🗡": 1670, "🗣": 1671, "🗨": 1672, "🗯": 1673, "🗺": 1674, "🗻": 1675, "🗼": 1676, "🗽": 1677, "🗿": 1678, "😀": 1679, "😁": 1680, "😂": 1681, "😃": 1682, "😄": 1683, "😅": 1684, "😆": 1685, "😇": 1686, "😈": 1687, "😉": 1688, "😊": 1689, "😋": 1690, "😌": 1691, "😍": 1692, "😎": 1693, "😏": 1694, "😐": 1695, "😑": 1696, "😒": 1697, "😓": 1698, "😔": 1699, "😕": 1700, "😖": 1701, "😗": 1702, "😘": 1703, "😙": 1704, "😚": 1705, "😛": 1706, "😜": 1707, "😝": 1708, "😞": 1709, "😟": 1710, "😠": 1711, "😡": 1712, "😢": 1713, "😣": 1714, "😤": 1715, "😥": 1716, "😦": 1717, "😧": 1718, "😨": 1719, "😩": 1720, "😪": 1721, "😫": 1722, "😬": 1723, "😭": 1724, "😮": 1725, "😯": 1726, "😰": 1727, "😱": 1728, "😳": 1729, "😴": 1730, "😵": 1731, "😶": 1732, "😷": 1733, "😸": 1734, "😹": 1735, "😺": 1736, "😻": 1737, "😼": 1738, "😽": 1739, "😾": 1740, "😿": 1741, "🙀": 1742, "🙁": 1743, "🙂": 1744, "🙃": 1745, "🙄": 1746, "🙅": 1747, "🙆": 1748, "🙇": 1749, "🙈": 1750, "🙉": 1751, "🙊": 1752, "🙋": 1753, "🙌": 1754, "🙍": 1755, "🙏": 1756, "🚀": 1757, "🚂": 1758, "🚈": 1759, "🚊": 1760, "🚗": 1761, "🚘": 1762, "🚙": 1763, "🚛": 1764, "🚩": 1765, "🚪": 1766, "🚫": 1767, "🚬": 1768, "🚭": 1769, "🚲": 1770, "🚴": 1771, "🚶": 1772, "🚷": 1773, "🚻": 1774, "🚿": 1775, "🛀": 1776, "🛁": 1777, "🛌": 1778, "🛍": 1779, "🛎": 1780, "🛐": 1781, "🛑": 1782, "🛖": 1783, "🛣": 1784, "🛤": 1785, "🛸": 1786, "🛹": 1787, "🛼": 1788, "🤌": 1789, "🤍": 1790, "🤎": 1791, "🤏": 1792, "🤐": 1793, "🤑": 1794, "🤓": 1795, "🤔": 1796, "🤕": 1797, "🤖": 1798, "🤗": 1799, "🤘": 1800, "🤙": 1801, "🤛": 1802, "🤜": 1803, "🤝": 1804, "🤞": 1805, "🤟": 1806, "🤠": 1807, "🤡": 1808, "🤣": 1809, "🤤": 1810, "🤦": 1811, "🤧": 1812, "🤨": 1813, "🤩": 1814, "🤪": 1815, "🤫": 1816, "🤬": 1817, "🤭": 1818, "🤮": 1819, "🤯": 1820, "🤲": 1821, "🤷": 1822, "🤸": 1823, "🤿": 1824, "🥀": 1825, "🥂": 1826, "🥃": 1827, "🥇": 1828, "🥊": 1829, "🥏": 1830, "🥐": 1831, "🥑": 1832, "🥒": 1833, "🥓": 1834, "🥔": 1835, "🥕": 1836, "🥛": 1837, "🥜": 1838, "🥝": 1839, "🥞": 1840, "🥟": 1841, "🥡": 1842, "🥢": 1843, "🥣": 1844, "🥤": 1845, "🥥": 1846, "🥦": 1847, "🥨": 1848, "🥩": 1849, "🥪": 1850, "🥭": 1851, "🥯": 1852, "🥰": 1853, "🥱": 1854, "🥲": 1855, "🥳": 1856, "🥴": 1857, "🥵": 1858, "🥷": 1859, "🥸": 1860, "🥹": 1861, "🥺": 1862, "🦁": 1863, "🦄": 1864, "🦅": 1865, "🦇": 1866, "🦉": 1867, "🦊": 1868, "🦋": 1869, "🦌": 1870, "🦍": 1871, "🦎": 1872, "🦒": 1873, "🦔": 1874, "🦕": 1875, "🦖": 1876, "🦗": 1877, "🦙": 1878, "🦜": 1879, "🦢": 1880, "🦥": 1881, "🦦": 1882, "🦩": 1883, "🦪": 1884, "🦭": 1885, "🦮": 1886, "🦯": 1887, "🦱": 1888, "🦴": 1889, "🦶": 1890, "🦷": 1891, "🦸": 1892, "🦺": 1893, "🦾": 1894, "🧀": 1895, "🧁": 1896, "🧃": 1897, "🧇": 1898, "🧉": 1899, "🧋": 1900, "🧍": 1901, "🧐": 1902, "🧘": 1903, "🧚": 1904, "🧛": 1905, "🧜": 1906, "🧝": 1907, "🧟": 1908, "🧠": 1909, "🧡": 1910, "🧢": 1911, "🧣": 1912, "🧨": 1913, "🧩": 1914, "🧬": 1915, "🧱": 1916, "🧵": 1917, "🧶": 1918, "🧷": 1919, "🧸": 1920, "🧹": 1921, "🧺": 1922, "🧼": 1923, "🧽": 1924, "🧿": 1925, "🩰": 1926, "🩴": 1927, "🩵": 1928, "🩶": 1929, "🩷": 1930, "🩸": 1931, "🩹": 1932, "🩺": 1933, "🪀": 1934, "🪁": 1935, "🪄": 1936, "🪐": 1937, "🪔": 1938, "🪜": 1939, "🪝": 1940, "🪞": 1941, "🪟": 1942, "🪡": 1943, "🪤": 1944, "🪦": 1945, "🪨": 1946, "🪩": 1947, "🪭": 1948, "🪲": 1949, "🪴": 1950, "🪵": 1951, "🪶": 1952, "🪷": 1953, "🪺": 1954, "🪼": 1955, "🪽": 1956, "🫀": 1957, "🫂": 1958, "🫅": 1959, "🫐": 1960, "🫠": 1961, "🫡": 1962, "🫢": 1963, "🫣": 1964, "🫤": 1965, "🫥": 1966, "🫦": 1967, "🫧": 1968, "🫨": 1969, "🫰": 1970, "🫱": 1971, "🫲": 1972, "🫳": 1973, "🫴": 1974, "🫵": 1975, "🫶": 1976, "🫷": 1977, "می": 1978, "ای": 1979, "ان": 1980, "ار": 1981, "ست": 1982, "که": 1983, "ند": 1984, "از": 1985, "به": 1986, "تو": 1987, "را": 1988, "با": 1989, "خو": 1990, "نی": 1991, "رو": 1992, "اد": 1993, "ام": 1994, "رد": 1995, "در": 1996, "ون": 1997, "دی": 1998, "هم": 1999, "ری": 2000, "من": 2001, "بی": 2002, "اش": 2003, "ال": 2004, "ود": 2005, "کن": 2006, "..": 2007, "بر": 2008, "این": 2009, "ها": 2010, "دو": 2011, "تی": 2012, "گی": 2013, "لی": 2014, "سی": 2015, "فت": 2016, "های": 2017, "دار": 2018, "است": 2019, "اه": 2020, "شد": 2021, "وق": 2022, "تر": 2023, "شه": 2024, "بود": 2025, "تا": 2026, "نگ": 2027, "شی": 2028, "کرد": 2029, "یک": 2030, "ما": 2031, "مو": 2032, "نمی": 2033, "خود": 2034, "گر": 2035, "یه": 2036, "او": 2037, "هر": 2038, "ch": 2039, "ده": 2040, "ii": 2041, "کنی": 2042, "نه": 2043, "زی": 2044, "اب": 2045, "وی": 2046, "چی": 2047, "اس": 2048, "دل": 2049, "اشت": 2050, "زند": 2051, "ra": 2052, "گه": 2053, "برای": 2054, "ور": 2055, "مان": 2056, "an": 2057, "...": 2058, "شم": 2059, "ایی": 2060, "هی": 2061, "دوست": 2062, "نم": 2063, "شت": 2064, "لا": 2065, "ادم": 2066, "پی": 2067, "روز": 2068, "وقتی": 2069, "همه": 2070, "رف": 2071, "خی": 2072, "کنم": 2073, "ات": 2074, "همی": 2075, "زندگی": 2076, "چه": 2077, "فر": 2078, "سر": 2079, "eh": 2080, "نو": 2081, "اید": 2082, "یا": 2083, "تن": 2084, "نیست": 2085, "انی": 2086, "دم": 2087, "حال": 2088, "دن": 2089, "اری": 2090, "تم": 2091, "ne": 2092, "اون": 2093, "داشت": 2094, "بار": 2095, "ره": 2096, "دست": 2097, "di": 2098, "اح": 2099, "گفت": 2100, "بع": 2101, "کر": 2102, "هست": 2103, "مي": 2104, "اق": 2105, "کسی": 2106, "_ch": 2107, "nel": 2108, "dio": 2109, "گو": 2110, "raz": 2111, "annel": 2112, "ehraz": 2113, "dio_ch": 2114, "iii": 2115, "dio_chehraz": 2116, "dio_chehraziii": 2117, "هیچ": 2118, "رین": 2119, "دا": 2120, "قط": 2121, "mo": 2122, "Ra": 2123, "بو": 2124, "بد": 2125, "Radio_chehraziii": 2126, "channel": 2127, "کی": 2128, "دارم": 2129, "قدر": 2130, "کو": 2131, "شن": 2132, "انه": 2133, "in": 2134, "بخ": 2135, "ولی": 2136, "مع": 2137, "بز": 2138, "اف": 2139, "رفت": 2140, "مث": 2141, "وقت": 2142, "ou": 2143, "گذ": 2144, "اخ": 2145, "قی": 2146, "رم": 2147, "کار": 2148, "اما": 2149, "کنه": 2150, "برا": 2151, "اي": 2152, "اند": 2153, "هایی": 2154, "شده": 2155, "فکر": 2156, "فقط": 2157, "ول": 2158, "یم": 2159, "کند": 2160, "شو": 2161, "حرف": 2162, "پر": 2163, "باز": 2164, "نده": 2165, "جا": 2166, "اگه": 2167, "li": 2168, "كه": 2169, "توی": 2170, "ترین": 2171, "شود": 2172, "بعد": 2173, "me": 2174, "بل": 2175, "شب": 2176, "خیلی": 2177, "جو": 2178, "تون": 2179, "سال": 2180, "لب": 2181, "فی": 2182, "داد": 2183, "کس": 2184, "mi": 2185, "باید": 2186, "کل": 2187, "کم": 2188, "ته": 2189, "you": 2190, "خواه": 2191, "اع": 2192, "مثل": 2193, "باشی": 2194, "نش": 2195, "روی": 2196, "عی": 2197, "اگر": 2198, "ve": 2199, "اره": 2200, "عش": 2201, "اط": 2202, "له": 2203, "چیز": 2204, "مون": 2205, "نا": 2206, "حس": 2207, "خوب": 2208, "داری": 2209, "دنی": 2210, "ــ": 2211, "is": 2212, "ing": 2213, "شما": 2214, "یکی": 2215, "مت": 2216, "عشق": 2217, "دیگه": 2218, "مه": 2219, "جه": 2220, "گاه": 2221, "لو": 2222, "دیگر": 2223, "مر": 2224, "اص": 2225, "lu": 2226, "mira": 2227, "mirali": 2228, "miralichannel": 2229, "میخو": 2230, "یاد": 2231, "اده": 2232, "مرد": 2233, "تاب": 2234, "کردم": 2235, "سته": 2236, "کنار": 2237, "چیزی": 2238, "صد": 2239, "گم": 2240, "کردن": 2241, "همیشه": 2242, "Amiralichannel": 2243, "نج": 2244, "خوش": 2245, "hi": 2246, "lo": 2247, "عاش": 2248, "حتی": 2249, "شون": 2250, "کنید": 2251, "مح": 2252, "شان": 2253, "خت": 2254, "od": 2255, "لم": 2256, "باشه": 2257, "کنیم": 2258, "تمام": 2259, "عاشق": 2260, "بودن": 2261, "سه": 2262, "قلب": 2263, "ونه": 2264, "بخو": 2265, "and": 2266, "خودت": 2267, "بیش": 2268, "تنها": 2269, "سو": 2270, "بگی": 2271, "دلم": 2272, "انم": 2273, "امی": 2274, "گار": 2275, "میشه": 2276, "قر": 2277, "قش": 2278, "راه": 2279, "انت": 2280, "so": 2281, "دور": 2282, "king": 2283, "گری": 2284, "ishi": 2285, "mood": 2286, "بغ": 2287, "pishi": 2288, "مش": 2289, "باشد": 2290, "چشم": 2291, "pishimood": 2292, "چون": 2293, "بت": 2294, "صب": 2295, "ck": 2296, "your": 2297, "کتاب": 2298, "he": 2299, "همین": 2300, "خودم": 2301, "داشته": 2302, "love": 2303, "درد": 2304, "گرفت": 2305, "moking": 2306, "کرده": 2307, "ید": 2308, "واس": 2309, "go": 2310, "گوش": 2311, "داره": 2312, "بهت": 2313, "مد": 2314, "هو": 2315, "ارم": 2316, "گرد": 2317, "بری": 2318, "fu": 2319, "نام": 2320, "احس": 2321, "گوی": 2322, "ارو": 2323, ":)": 2324, "چند": 2325, "قشنگ": 2326, "دنیا": 2327, "fuck": 2328, "ازه": 2329, "پیش": 2330, "نگاه": 2331, "تل": 2332, "اینکه": 2333, "پس": 2334, "بیشتر": 2335, "باش": 2336, "جای": 2337, "mokingchannel": 2338, "جود": 2339, "واق": 2340, "کست": 2341, "بودم": 2342, "دید": 2343, "sogo": 2344, "yourlove": 2345, "andfuck": 2346, "sogoandfuck": 2347, "چرا": 2348, "شدن": 2349, "sogoandfuckyourlove": 2350, "ادی": 2351, "شته": 2352, "سم": 2353, "زمان": 2354, "راب": 2355, "بین": 2356, "غم": 2357, "دارد": 2358, "خاط": 2359, "مرا": 2360, "ارز": 2361, "دیم": 2362, "لح": 2363, "یر": 2364, "خواب": 2365, "احساس": 2366, "بدون": 2367, "رگ": 2368, "نز": 2369, "کشی": 2370, "چقدر": 2371, "re": 2372, "باه": 2373, "وجود": 2374, "ني": 2375, "باشم": 2376, "الی": 2377, "کنند": 2378, "قه": 2379, "نف": 2380, "میکنم": 2381, "رون": 2382, "افت": 2383, "انس": 2384, "خواست": 2385, "شاید": 2386, "اج": 2387, "اک": 2388, "ندی": 2389, "دي": 2390, "دیو": 2391, "بده": 2392, "برد": 2393, "میز": 2394, "یع": 2395, "فرا": 2396, "تص": 2397, "بهش": 2398, "دون": 2399, "ماه": 2400, "ضی": 2401, "ارد": 2402, "یعنی": 2403, "ارام": 2404, "حت": 2405, "دان": 2406, "اغ": 2407, "اين": 2408, "ome": 2409, "مهم": 2410, "جوری": 2411, "خواهد": 2412, "جام": 2413, "لحظ": 2414, "نار": 2415, "بهم": 2416, "خورد": 2417, "صبح": 2418, "ین": 2419, "نوز": 2420, "بال": 2421, "زن": 2422, "بغل": 2423, "st": 2424, "نفر": 2425, "بزرگ": 2426, "نیم": 2427, "جایی": 2428, "شدم": 2429, "نظ": 2430, "باره": 2431, "همان": 2432, "فرد": 2433, "blu": 2434, "بي": 2435, "رسی": 2436, "عه": 2437, "lus": 2438, "هنوز": 2439, "همون": 2440, "خودش": 2441, "plus": 2442, "تنگ": 2443, "ehome": 2444, "bluehome": 2445, "bluehomeplus": 2446, "نت": 2447, "نیاز": 2448, "گاهی": 2449, "بخند": 2450, "مق": 2451, "امو": 2452, "هات": 2453, "گفتم": 2454, "ابی": 2455, "ستم": 2456, "گل": 2457, "کاری": 2458, "دخ": 2459, "اول": 2460, "حالا": 2461, "اعت": 2462, "لحظه": 2463, "بودی": 2464, "ران": 2465, "کاش": 2466, "نگی": 2467, "جی": 2468, "جز": 2469, "واسه": 2470, "منو": 2471, "يه": 2472, "دوستت": 2473, "رس": 2474, "نبود": 2475, "اهنگ": 2476, "درست": 2477, "میکنه": 2478, "کردی": 2479, "يم": 2480, "طه": 2481, "تح": 2482, "مم": 2483, "طور": 2484, "فهمی": 2485, "مین": 2486, "دختر": 2487, "مس": 2488, "صی": 2489, "جان": 2490, "نداشت": 2491, "بدی": 2492, "يد": 2493, "صدای": 2494, "تع": 2495, "ببی": 2496, "انگار": 2497, "ين": 2498, "Smokingchannel": 2499, "کش": 2500, "اسی": 2501, "عو": 2502, "موم": 2503, "تنهایی": 2504, "اخر": 2505, "کنن": 2506, "توان": 2507, "کوچ": 2508, "هن": 2509, "قرار": 2510, "فاق": 2511, "خسته": 2512, "هستی": 2513, "الان": 2514, "فرامو": 2515, "گریه": 2516, "كرد": 2517, "اتفاق": 2518, "مل": 2519, "بان": 2520, "نس": 2521, "مج": 2522, "وش": 2523, "دلی": 2524, "قد": 2525, "نوشت": 2526, "شک": 2527, "رابطه": 2528, "فیلم": 2529, "انسان": 2530, "ناراح": 2531, "دونی": 2532, "عا": 2533, "زد": 2534, "روح": 2535, "اهم": 2536, "جر": 2537, "میتو": 2538, "وس": 2539, "ha": 2540, "پای": 2541, "زیر": 2542, "زه": 2543, "روزی": 2544, "پشت": 2545, "نامه": 2546, "نوی": 2547, "سمت": 2548, "پیدا": 2549, "تموم": 2550, "داشتن": 2551, "ایم": 2552, "پاد": 2553, "زم": 2554, "انجام": 2555, "سرد": 2556, "شر": 2557, "وص": 2558, "موق": 2559, "on": 2560, "the": 2561, "جم": 2562, "انقدر": 2563, "شوی": 2564, "امروز": 2565, "ar": 2566, "ریم": 2567, "يك": 2568, "مورد": 2569, "ماد": 2570, "دقی": 2571, "بهتر": 2572, "درو": 2573, "ساعت": 2574, "تک": 2575, "لبخند": 2576, "سل": 2577, "زار": 2578, "اورد": 2579, "برو": 2580, "قبل": 2581, "بالا": 2582, "خانه": 2583, "بق": 2584, "بگذ": 2585, "اشتی": 2586, "قت": 2587, "هایت": 2588, "میکنی": 2589, "بچه": 2590, "غی": 2591, "خوشحال": 2592, "بیرون": 2593, "برات": 2594, "بگم": 2595, "میگه": 2596, "داشتم": 2597, "دونم": 2598, "پادکست": 2599, "شدی": 2600, "چش": 2601, "er": 2602, "کوت": 2603, "انها": 2604, "بیا": 2605, "پا": 2606, "فه": 2607, "انو": 2608, "ترس": 2609, "رفته": 2610, "نق": 2611, "ازم": 2612, "ادما": 2613, "صه": 2614, "منت": 2615, "گي": 2616, "عکس": 2617, "اصلا": 2618, "ایت": 2619, "خیال": 2620, "ورت": 2621, "شید": 2622, "بعضی": 2623, "تار": 2624, "خد": 2625, "le": 2626, "تورو": 2627, "بشه": 2628, "زخ": 2629, "منی": 2630, "پو": 2631, "ادمی": 2632, "فته": 2633, "فتی": 2634, "نفس": 2635, "بیه": 2636, "شرو": 2637, "گیر": 2638, "دلت": 2639, "نید": 2640, "دوباره": 2641, "جهان": 2642, "فراموش": 2643, "بند": 2644, "خنده": 2645, "قب": 2646, "فرو": 2647, "「@": 2648, "باهم": 2649, "طرف": 2650, "خدا": 2651, "دوس": 2652, "طر": 2653, "پایی": 2654, "پنج": 2655, "هاي": 2656, "علا": 2657, "داست": 2658, "سخت": 2659, "باع": 2660, "گن": 2661, "شروع": 2662, "نداری": 2663, "باعث": 2664, "وری": 2665, "دیدم": 2666, "شوند": 2667, "دهد": 2668, "ندارم": 2669, "زود": 2670, "رت": 2671, "بازی": 2672, "ارت": 2673, "نزدی": 2674, "کت": 2675, "امه": 2676, "دیگران": 2677, "مردم": 2678, "جمع": 2679, "گونه": 2680, "برام": 2681, "مغ": 2682, "زدن": 2683, "al": 2684, "or": 2685, "کاف": 2686, "بهترین": 2687, "بگو": 2688, "هیچوقت": 2689, "مرگ": 2690, "تونم": 2691, "فهم": 2692, "ارامش": 2693, "نداره": 2694, "هستند": 2695, "باهاش": 2696, "سخ": 2697, "شع": 2698, "اندازه": 2699, "زیبا": 2700, "دنبال": 2701, "پسر": 2702, "th": 2703, "دلیل": 2704, "رات": 2705, "باور": 2706, "دریا": 2707, "میگی": 2708, "رفتن": 2709, "گز": 2710, "رق": 2711, "توجه": 2712, "رید": 2713, "امید": 2714, "واقعی": 2715, "صدا": 2716, "اض": 2717, "باس": 2718, "تان": 2719, "ستی": 2720, "گرفته": 2721, "زنده": 2722, "بلند": 2723, "لین": 2724, "میخوام": 2725, "؟!": 2726, "ارزو": 2727, "ازش": 2728, "مط": 2729, "کام": 2730, "ادت": 2731, "بوده": 2732, "مهر": 2733, "to": 2734, "علی": 2735, "کلی": 2736, "گذاشت": 2737, "ازی": 2738, "زمین": 2739, "يا": 2740, "جور": 2741, "خونه": 2742, "گشت": 2743, "واقعا": 2744, "مال": 2745, "smokingchannel": 2746, "بینم": 2747, "خواهم": 2748, "نظر": 2749, "رفی": 2750, "میاد": 2751, "انگی": 2752, "چي": 2753, "نمي": 2754, "خوبی": 2755, "دادن": 2756, "پرو": 2757, "رنگ": 2758, "بره": 2759, "بس": 2760, "موقع": 2761, "اینه": 2762, "اسم": 2763, "اشی": 2764, "بقیه": 2765, "بگوی": 2766, "رض": 2767, "ادامه": 2768, "حق": 2769, "کلا": 2770, "قول": 2771, "ذی": 2772, "میان": 2773, "افرا": 2774, "هزار": 2775, "رنج": 2776, "داریم": 2777, "ماند": 2778, "قا": 2779, "ونی": 2780, "نوشته": 2781, "كن": 2782, "چن": 2783, "منتظ": 2784, "IN": 2785, "تق": 2786, "ندارد": 2787, "شهر": 2788, "شخ": 2789, "سری": 2790, "خاطر": 2791, "طی": 2792, "ht": 2793, "اشک": 2794, "داستان": 2795, "فری": 2796, "عل": 2797, "فرست": 2798, "ذه": 2799, "هي": 2800, "قلبم": 2801, "صح": 2802, "راحت": 2803, "میشی": 2804, "بسی": 2805, "حد": 2806, "MO": 2807, "دف": 2808, "دام": 2809, "لذ": 2810, "نکن": 2811, "مید": 2812, "رام": 2813, "کلام": 2814, "بشی": 2815, "تلاش": 2816, "ازت": 2817, "دارند": 2818, "هرگز": 2819, "وا": 2820, "ساخ": 2821, "دیگری": 2822, "ING": 2823, "بک": 2824, "ایل": 2825, "باشیم": 2826, "نین": 2827, "جواب": 2828, "حالت": 2829, "SMO": 2830, "زیب": 2831, "SMOK": 2832, "بوی": 2833, "برم": 2834, "حسی": 2835, "خوام": 2836, "SMOKING": 2837, "ير": 2838, "بش": 2839, "تجر": 2840, "قل": 2841, "هایم": 2842, "میخواد": 2843, "اغوش": 2844, "نزدیک": 2845, ">>": 2846, "هام": 2847, "se": 2848, "شنی": 2849, "بدم": 2850, "زیاد": 2851, "be": 2852, "خور": 2853, "خند": 2854, "باهات": 2855, "صورت": 2856, "پدر": 2857, "شبیه": 2858, "باد": 2859, "بینی": 2860, "هیچکس": 2861, "تغی": 2862, "میده": 2863, "نگه": 2864, ".»": 2865, "بیدار": 2866, "یادم": 2867, "باشید": 2868, "غمگی": 2869, "مار": 2870, "کان": 2871, "خوان": 2872, "زمانی": 2873, "شوم": 2874, "اوم": 2875, "نیستی": 2876, "تونه": 2877, "رود": 2878, "اتا": 2879, "ابل": 2880, "خالی": 2881, "انتخ": 2882, "مادر": 2883, "براش": 2884, "دوم": 2885, "گذشته": 2886, "تونی": 2887, "مى": 2888, "دیدن": 2889, "دارن": 2890, "فل": 2891, "زندگیم": 2892, "نیستم": 2893, "اخرین": 2894, "جنگ": 2895, "سیگار": 2896, "رفتار": 2897, "حی": 2898, "ایه": 2899, "پرسی": 2900, "وسط": 2901, "فش": 2902, "لذت": 2903, "بذ": 2904, "بارون": 2905, "توانی": 2906, "اولین": 2907, "هایش": 2908, "میم": 2909, "هستم": 2910, "پار": 2911, "عوض": 2912, "فاص": 2913, "داده": 2914, "میشم": 2915, "اث": 2916, "تواند": 2917, "تجربه": 2918, "en": 2919, "خط": 2920, "هوا": 2921, "تش": 2922, "انتخاب": 2923, "خب": 2924, "منم": 2925, "زده": 2926, "یادت": 2927, "حوص": 2928, "تویی": 2929, "ایا": 2930, "پیام": 2931, "اوت": 2932, "تنگی": 2933, "میشن": 2934, "جمله": 2935, "عزی": 2936, "قدم": 2937, "كس": 2938, "فاصله": 2939, "غذ": 2940, "هاش": 2941, "خواهی": 2942, "مام": 2943, "کردیم": 2944, "پلی": 2945, "ti": 2946, "بخش": 2947, "جلو": 2948, "خره": 2949, "طول": 2950, "ایش": 2951, "نویس": 2952, "برگرد": 2953, "ارزش": 2954, "خي": 2955, "پول": 2956, "تغییر": 2957, "کجا": 2958, "ناراحت": 2959, "میگم": 2960, "سرم": 2961, "انتظ": 2962, ".\"": 2963, "سکوت": 2964, "دقیقه": 2965, "خلا": 2966, "فردا": 2967, "هيچ": 2968, "جل": 2969, "صف": 2970, "شنگی": 2971, "خیاب": 2972, "اروم": 2973, "پن": 2974, "اعتم": 2975, "خواد": 2976, "اشتباه": 2977, "پي": 2978, "دیا": 2979, "اور": 2980, "هیچی": 2981, "سرت": 2982, "ببین": 2983, "زیبایی": 2984, "گفته": 2985, "زبان": 2986, "دلتنگی": 2987, "بور": 2988, "اینجا": 2989, "مود": 2990, "ay": 2991, "....": 2992, "مثلا": 2993, "درون": 2994, "خبر": 2995, "طوری": 2996, "رها": 2997, "گرم": 2998, "میر": 2999, "ابت": 3000, "مونه": 3001, "te": 3002, "میت": 3003, "عادت": 3004, "امد": 3005, "دلبر": 3006, "قشنگی": 3007, "دروغ": 3008, "The": 3009, "جدید": 3010, "ستان": 3011, "سلام": 3012, "کلمه": 3013, "زي": 3014, "الو": 3015, "ترک": 3016, "نداشته": 3017, "تازه": 3018, "خته": 3019, "مخ": 3020, "بزنم": 3021, "تکر": 3022, "انچه": 3023, "دلش": 3024, "صو": 3025, "نمیشه": 3026, "خانو": 3027, "نتی": 3028, "کمی": 3029, "دیدی": 3030, "میدم": 3031, "درک": 3032, "بدید": 3033, "نيست": 3034, "عمی": 3035, "بزن": 3036, "خاطره": 3037, "موز": 3038, "دلتنگ": 3039, "اتو": 3040, "شام": 3041, "شعر": 3042, "انتظار": 3043, "عجی": 3044, "بسیار": 3045, "دادم": 3046, "چشما": 3047, "دیاکو": 3048, "رخ": 3049, "دیر": 3050, "سعی": 3051, "شاد": 3052, "وان": 3053, "روشن": 3054, "دنیای": 3055, "بازم": 3056, "منتظر": 3057, "گذشت": 3058, "زخم": 3059, "اتاق": 3060, "حل": 3061, "داشتی": 3062, "ریف": 3063, "صحبت": 3064, "دیده": 3065, "غیر": 3066, "تما": 3067, "عص": 3068, "ذهن": 3069, "عمر": 3070, "شخصی": 3071, "اعتماد": 3072, "ساده": 3073, "عت": 3074, "میرم": 3075, "میدونی": 3076, "تف": 3077, "زنگ": 3078, "اونی": 3079, "مانی": 3080, "چنان": 3081, "دانم": 3082, "قسمت": 3083, "نور": 3084, "ایست": 3085, "نباید": 3086, "بدن": 3087, "خوشبخ": 3088, "رانی": 3089, "نشی": 3090, "نشون": 3091, "دارید": 3092, "تول": 3093, "ندار": 3094, "تری": 3095, "كني": 3096, "ma": 3097, "گفتی": 3098, "//": 3099, "افظ": 3100, "علاقه": 3101, "ابر": 3102, "ستگی": 3103, "زیادی": 3104, "رفتم": 3105, "بغلت": 3106, "شکست": 3107, "میو": 3108, "خیر": 3109, "زندگیت": 3110, "رفیق": 3111, "ویی": 3112, "نشد": 3113, "يی": 3114, "پل": 3115, "مدت": 3116, "تحمل": 3117, "کا": 3118, "دری": 3119, "بیاد": 3120, "دانش": 3121, "الب": 3122, "هاست": 3123, "ابد": 3124, "خاطرات": 3125, "حوصله": 3126, "ادمای": 3127, "افراد": 3128, "سیاه": 3129, "جن": 3130, "چار": 3131, "نشان": 3132, "بریم": 3133, "))": 3134, "ll": 3135, "of": 3136, "عم": 3137, "چیه": 3138, "گان": 3139, "درس": 3140, "معنی": 3141, "my": 3142, "حر": 3143, "خندی": 3144, "موسی": 3145, "هنگ": 3146, "لط": 3147, "كنم": 3148, "رفتی": 3149, "پرد": 3150, "خوبه": 3151, "پنجره": 3152, "om": 3153, "حقی": 3154, "زش": 3155, "لان": 3156, "خون": 3157, "معمو": 3158, "رژ": 3159, "سفر": 3160, "كر": 3161, "مست": 3162, "خل": 3163, "پاک": 3164, "خوابی": 3165, "زنی": 3166, "مهی": 3167, "موزیک": 3168, "موف": 3169, "خواستم": 3170, "بودنت": 3171, "چطور": 3172, "de": 3173, "ببینم": 3174, "غمگین": 3175, "بگیر": 3176, "موسیقی": 3177, "نقاشی": 3178, "وای": 3179, "فرق": 3180, "متن": 3181, "اینو": 3182, "تماش": 3183, "احساسات": 3184, "ps": 3185, "راست": 3186, "چهار": 3187, "گوشه": 3188, "کوچک": 3189, "کود": 3190, "رور": 3191, "موند": 3192, "it": 3193, "no": 3194, "میکنن": 3195, "سیر": 3196, "حالم": 3197, "ثان": 3198, "دعو": 3199, "مانده": 3200, "بودیم": 3201, "شرای": 3202, "فا": 3203, "درباره": 3204, "سلی": 3205, "لای": 3206, "بون": 3207, "قو": 3208, "بفرست": 3209, "قوی": 3210, "گوشی": 3211, "فک": 3212, "خودمان": 3213, "کدام": 3214, "روان": 3215, "بح": 3216, "نیمه": 3217, "بوسی": 3218, "://": 3219, "اینجوری": 3220, "نیز": 3221, "گربه": 3222, "قهر": 3223, "میره": 3224, "گفتن": 3225, "بخشی": 3226, "بشن": 3227, "htt": 3228, "پری": 3229, "یهو": 3230, "بلد": 3231, "تصمیم": 3232, "دوسش": 3233, "پاییز": 3234, "زل": 3235, "ترسی": 3236, "عاشقانه": 3237, "ساز": 3238, "واست": 3239, "میکردم": 3240, "اینده": 3241, "توانم": 3242, "ver": 3243, "دانی": 3244, "لباس": 3245, "اشو": 3246, "وقتا": 3247, "fe": 3248, "چگونه": 3249, "بخاط": 3250, "میشود": 3251, "شاه": 3252, "بیکلام": 3253, "کمک": 3254, "قشنگه": 3255, "چشمان": 3256, "بابا": 3257, "دیوانه": 3258, "مات": 3259, "ولو": 3260, "گوشش": 3261, "es": 3262, "دیوونه": 3263, "بشم": 3264, "لي": 3265, "مص": 3266, "میشد": 3267, "بغلم": 3268, "عال": 3269, "حالی": 3270, "چس": 3271, "باران": 3272, "سرا": 3273, "شوق": 3274, "بوسه": 3275, "خاص": 3276, "چنین": 3277, "پایان": 3278, "میکند": 3279, "کوتاه": 3280, "خودتو": 3281, "راهی": 3282, "خوند": 3283, "سط": 3284, "کنارت": 3285, "بلکه": 3286, "دقیقا": 3287, "تعریف": 3288, "نسبت": 3289, "ــــ": 3290, "ممکن": 3291, "غر": 3292, "بودند": 3293, "عمیق": 3294, "ri": 3295, "غصه": 3296, "وارد": 3297, "رویا": 3298, "سوال": 3299, "سن": 3300, "اندو": 3301, "واسم": 3302, "خار": 3303, "ایند": 3304, "...!": 3305, "ناراحتی": 3306, "مغز": 3307, "پناه": 3308, "اله": 3309, "استف": 3310, "غرق": 3311, "وع": 3312, "کافی": 3313, "ثانیه": 3314, "مونی": 3315, "اتی": 3316, "قف": 3317, "ag": 3318, "جب": 3319, "شادی": 3320, "عصب": 3321, "ارید": 3322, "استفاده": 3323, "کردند": 3324, "افسرد": 3325, "تبدی": 3326, "تولد": 3327, "تبدیل": 3328, "https": 3329, "خر": 3330, "ستن": 3331, "ستاره": 3332, "اشن": 3333, "درخت": 3334, "مدر": 3335, "اثر": 3336, "گیری": 3337, "دک": 3338, "مدی": 3339, "وف": 3340, "دوستش": 3341, "ناک": 3342, "تکرار": 3343, "بخاطر": 3344, "ho": 3345, "يت": 3346, "برنامه": 3347, "بزنی": 3348, "برمی": 3349, "اقت": 3350, "روش": 3351, "نگران": 3352, "گوید": 3353, "انرژ": 3354, "خورده": 3355, "حم": 3356, "زدم": 3357, "برگ": 3358, "نهاد": 3359, "کشید": 3360, "دیوار": 3361, "تصور": 3362, "ماش": 3363, "دیه": 3364, "مطمي": 3365, "معن": 3366, "گرفتم": 3367, "اسمان": 3368, "کسانی": 3369, "تلخ": 3370, "سد": 3371, "مانند": 3372, "hat": 3373, "غذا": 3374, "جون": 3375, "ذوق": 3376, "كار": 3377, "ژه": 3378, "انکه": 3379, "رسد": 3380, "غری": 3381, "اقل": 3382, "جدا": 3383, "دوری": 3384, "بغض": 3385, "میگن": 3386, "دادی": 3387, "دخت": 3388, "رک": 3389, "هدف": 3390, "as": 3391, "قان": 3392, "مگه": 3393, "هرچی": 3394, "شکل": 3395, "وقتایی": 3396, "جاد": 3397, "خاک": 3398, "یار": 3399, "روم": 3400, "اخه": 3401, "اظ": 3402, "منه": 3403, "نمیتونم": 3404, "همش": 3405, "احت": 3406, "ضعی": 3407, "ke": 3408, "ظاه": 3409, "توام": 3410, "زندگي": 3411, "میبینم": 3412, "مرده": 3413, "کامل": 3414, "صوتی": 3415, "دکتر": 3416, "بسته": 3417, "ﺭﺍ": 3418, "واقع": 3419, "عزیز": 3420, "شاملو": 3421, "همو": 3422, "اهمیت": 3423, "انرژی": 3424, "خودمو": 3425, "اوری": 3426, "متوجه": 3427, "فایل": 3428, "رسیدن": 3429, "شویم": 3430, "چهر": 3431, "حتما": 3432, "امشب": 3433, "ـــ": 3434, "تاریکی": 3435, "ایران": 3436, "بات": 3437, "وده": 3438, "اونقدر": 3439, "هوای": 3440, "رضا": 3441, "wi": 3442, "میری": 3443, "براي": 3444, "جاست": 3445, "هفت": 3446, "هنر": 3447, "حض": 3448, "وال": 3449, "شلو": 3450, "قض": 3451, "بعدش": 3452, "مشکلا": 3453, "امون": 3454, "ﻮﺩ": 3455, "بحث": 3456, "وت": 3457, "چقد": 3458, "میل": 3459, "بهار": 3460, "هستیم": 3461, "مسي": 3462, "خانواده": 3463, "سنگ": 3464, "لاق": 3465, "رسید": 3466, "تاریک": 3467, "تره": 3468, "گرفتن": 3469, "عین": 3470, "اذی": 3471, "کنارم": 3472, "ديگر": 3473, "فرص": 3474, "خواهند": 3475, "اجازه": 3476, "كردم": 3477, "فكر": 3478, "You": 3479, "𝗈𝗎": 3480, "پیر": 3481, "ساله": 3482, "جذ": 3483, "قدرت": 3484, "اپ": 3485, "همراه": 3486, "قراره": 3487, "مجبور": 3488, "بگویم": 3489, "سي": 3490, "قلبت": 3491, "پذی": 3492, "چو": 3493, "کمتر": 3494, "بهشت": 3495, "تلف": 3496, "چيز": 3497, "are": 3498, "بگه": 3499, "روزها": 3500, "راف": 3501, "برایت": 3502, "شناسی": 3503, "عجیب": 3504, "چشمات": 3505, "عصبانی": 3506, "دریافت": 3507, "دهم": 3508, "زنم": 3509, "فرار": 3510, "خورشید": 3511, "تت": 3512, "اینا": 3513, "پایین": 3514, "ce": 3515, "سفی": 3516, "میدی": 3517, "بايد": 3518, "سیم": 3519, "اریم": 3520, "میخوای": 3521, "تاری": 3522, "ضر": 3523, "طبی": 3524, "خوردن": 3525, "عطر": 3526, "ترسم": 3527, "مشکل": 3528, "پیشنهاد": 3529, "ut": 3530, "ببینی": 3531, "𝗜𝗡": 3532, "𝗞𝗜𝗡": 3533, "𝗠𝗢": 3534, "𝗦𝗠𝗢": 3535, "انقد": 3536, "باشند": 3537, "𝗞𝗜𝗡𝗚": 3538, "𝗦𝗠𝗢𝗞𝗜𝗡𝗚": 3539, "سف": 3540, "نشده": 3541, "پنه": 3542, "حه": 3543, "شکر": 3544, "Ch": 3545, "برف": 3546, "اونجا": 3547, "افتاد": 3548, "دهند": 3549, "ادمها": 3550, "حسین": 3551, "!!": 3552, "et": 3553, "سنگی": 3554, "اتش": 3555, "هفته": 3556, "شناس": 3557, "تصوی": 3558, "فهمیدم": 3559, "كند": 3560, "مگر": 3561, "سرش": 3562, "حساب": 3563, "بگیرم": 3564, "شرایط": 3565, "شدیم": 3566, "کتا": 3567, "ﺑﺎ": 3568, "ﻣﯽ": 3569, "ریان": 3570, "RO": 3571, "ـی": 3572, "باقی": 3573, "دیالو": 3574, "ماهی": 3575, "وح": 3576, "باشن": 3577, "دوستم": 3578, "شناخ": 3579, "نشسته": 3580, "بالاخره": 3581, "بست": 3582, "قابل": 3583, "پذ": 3584, "نمیدونم": 3585, "XY": 3586, "com": 3587, "نهایت": 3588, "میک": 3589, "گیرد": 3590, "کشیدن": 3591, "all": 3592, "حمید": 3593, "باط": 3594, "سین": 3595, "PRO": 3596, "واقعیت": 3597, "اندوه": 3598, "ماشین": 3599, "PROXY": 3600, "بمون": 3601, "جوی": 3602, "صبر": 3603, "افکار": 3604, "امیدو": 3605, "ادر": 3606, "ونم": 3607, "لازم": 3608, "ترجی": 3609, "افتاده": 3610, "میتونه": 3611, "سختی": 3612, "نباشد": 3613, "گاری": 3614, "ﻧﺪ": 3615, "ازادی": 3616, "اسمون": 3617, "ig": 3618, "تکست": 3619, "روند": 3620, "جلوی": 3621, "خیابان": 3622, "سبز": 3623, "عباس": 3624, "ناز": 3625, "میخ": 3626, "طولانی": 3627, "یو": 3628, "ﮐﻪ": 3629, "روزهای": 3630, "قدی": 3631, "لت": 3632, "ابم": 3633, "بنوی": 3634, "قهو": 3635, "گلی": 3636, "میگذ": 3637, "برق": 3638, "میزنه": 3639, "تکه": 3640, "همونی": 3641, "هستن": 3642, "مردی": 3643, "ترجیح": 3644, "نقط": 3645, "ایده": 3646, "هایمان": 3647, "دستم": 3648, "کوچه": 3649, "میتونم": 3650, "قهوه": 3651, "سع": 3652, "پاس": 3653, "انجا": 3654, "at": 3655, "نک": 3656, "کال": 3657, "اونا": 3658, "خوشبختی": 3659, "ﺑﻪ": 3660, "امده": 3661, "تیکه": 3662, "شنبه": 3663, "نقطه": 3664, "نباشه": 3665, "همي": 3666, "مقابل": 3667, "غرو": 3668, "تاث": 3669, "جوان": 3670, "حقیقت": 3671, "میگفت": 3672, "وقتي": 3673, "ot": 3674, "خص": 3675, "کنین": 3676, "امیر": 3677, "غه": 3678, "كنه": 3679, "لوم": 3680, "nd": 3681, "حاض": 3682, "کور": 3683, "بول": 3684, "میخواست": 3685, "شنیدن": 3686, "پرسید": 3687, "فض": 3688, "فظ": 3689, "لع": 3690, "میدونم": 3691, "ختم": 3692, "خودمون": 3693, "تونستم": 3694, "محکم": 3695, "_ق": 3696, "خستگی": 3697, "ld": 3698, "بانی": 3699, "تونو": 3700, "الت": 3701, "شیم": 3702, "ديگه": 3703, "دود": 3704, "نباشی": 3705, "اومد": 3706, "بچ": 3707, "نکنه": 3708, "هارو": 3709, "چای": 3710, "لات": 3711, "اقای": 3712, "سخن": 3713, "خا": 3714, "ﺩﺭ": 3715, "اشون": 3716, "برید": 3717, "کشیده": 3718, "موض": 3719, "بزنیم": 3720, "دعوا": 3721, "کدوم": 3722, "الا": 3723, "بوس": 3724, "گویی": 3725, "احترام": 3726, "ir": 3727, "جد": 3728, "شبا": 3729, "بیم": 3730, "استرس": 3731, "خوای": 3732, "کننده": 3733, "یکم": 3734, "محمد": 3735, "میتونی": 3736, "سک": 3737, "مسیر": 3738, "ram": 3739, "radio_chehraziii": 3740, "افتاب": 3741, "خواسته": 3742, "Smoking": 3743, "زاد": 3744, "بیان": 3745, "نوع": 3746, "برگشت": 3747, "هوش": 3748, "خوشحالی": 3749, "بذار": 3750, "خلاصه": 3751, "Channel": 3752, "دیالوگ": 3753, "خامو": 3754, "ابه": 3755, "پارتن": 3756, "ro": 3757, "خراب": 3758, "شتی": 3759, "خوی": 3760, "معرو": 3761, "پرت": 3762, "ممکنه": 3763, "چجوری": 3764, "منظ": 3765, "موقعی": 3766, "انگیزه": 3767, "ab": 3768, "بزر": 3769, "واسش": 3770, "گویم": 3771, "صاد": 3772, "صرف": 3773, "انگشت": 3774, "باب": 3775, "نتیجه": 3776, "ad": 3777, "ببند": 3778, "بخیر": 3779, "ري": 3780, "سان": 3781, "فص": 3782, "مخت": 3783, "نخواهد": 3784, "پست": 3785, "ادمایی": 3786, "بفهم": 3787, "واب": 3788, "اینقدر": 3789, "بزنه": 3790, "انگیز": 3791, "SmokingChannel": 3792, "el": 3793, "سایه": 3794, "توست": 3795, "احمد": 3796, "سریال": 3797, "ذره": 3798, "منط": 3799, "روحی": 3800, "مامان": 3801, "متنفر": 3802, "فرصت": 3803, "میکنیم": 3804, "ویت": 3805, "نظرم": 3806, "بگذار": 3807, "؟»": 3808, "بدونی": 3809, "صمی": 3810, "یی": 3811, "شي": 3812, "معشوق": 3813, "نجات": 3814, "بگید": 3815, "مدام": 3816, "نباش": 3817, "ايد": 3818, "نویسنده": 3819, "am": 3820, "زاده": 3821, "مند": 3822, "نکنید": 3823, "ﺍﺯ": 3824, "ﻨﺪ": 3825, "اندا": 3826, "ازدو": 3827, "شدت": 3828, "خودتون": 3829, "بفهمی": 3830, "عمل": 3831, "نکرده": 3832, "چیک": 3833, "دراز": 3834, "برابر": 3835, "ازدواج": 3836, "خش": 3837, "کنارش": 3838, "لمس": 3839, "بخون": 3840, "نمیاد": 3841, "گویند": 3842, "پرواز": 3843, "پنهان": 3844, "for": 3845, "خوشی": 3846, "اتفاقی": 3847, "افسردگی": 3848, "si": 3849, "ودی": 3850, "چیزهایی": 3851, "میزنم": 3852, "ذهنم": 3853, "ساخته": 3854, "خری": 3855, "زمی": 3856, "..!": 3857, "خودشان": 3858, "رمز": 3859, "البته": 3860, "نبودن": 3861, "داشتنت": 3862, "کشور": 3863, "سکی": 3864, "ضع": 3865, "اشنا": 3866, "بارها": 3867, "کوچولو": 3868, "معمولی": 3869, "گرو": 3870, "سراغ": 3871, "احتم": 3872, "خواهیم": 3873, "ظاهر": 3874, "بم": 3875, "مونده": 3876, "هنوزم": 3877, "خدایا": 3878, "عد": 3879, "مبار": 3880, "ناشن": 3881, "هرو": 3882, "لیست": 3883, "سفید": 3884, "پذیر": 3885, "ed": 3886, "غل": 3887, "هستید": 3888, "متف": 3889, "مطمين": 3890, "بلا": 3891, "قصه": 3892, "كل": 3893, "يل": 3894, "میکرد": 3895, "ايي": 3896, "art": 3897, "سلیمی": 3898, "حضور": 3899, "amiralichannel": 3900, "توش": 3901, "امتح": 3902, "نگو": 3903, "سالگی": 3904, "زنان": 3905, "فتم": 3906, "گذر": 3907, "چیزایی": 3908, "بگیری": 3909, "رسیده": 3910, "نداشتم": 3911, "تماشا": 3912, "ببر": 3913, "دچار": 3914, "راز": 3915, "رشد": 3916, "رنگی": 3917, "هد": 3918, "ياد": 3919, "ﺩﺍ": 3920, "ﺮﺍ": 3921, "برایش": 3922, "دستش": 3923, "قبول": 3924, "کوچیک": 3925, "مشکلات": 3926, "جریان": 3927, "سوی": 3928, "منفی": 3929, "شیرین": 3930, "دوستان": 3931, "نوان": 3932, "اغو": 3933, "صادق": 3934, "جع": 3935, "برایم": 3936, "محبت": 3937, "شکسته": 3938, "گذاشته": 3939, "la": 3940, "باری": 3941, "لر": 3942, "نخ": 3943, "ﺎﻥ": 3944, "ww": 3945, "ستون": 3946, "بهشون": 3947, "توضی": 3948, "ترا": 3949, "دونه": 3950, "نبودی": 3951, "ارن": 3952, "کلاس": 3953, "خواهید": 3954, "اجتما": 3955, "شخصیت": 3956, "نیت": 3957, "دین": 3958, "دستت": 3959, "تند": 3960, "ریک": 3961, "ترکی": 3962, "خیره": 3963, "فشار": 3964, "قانون": 3965, "قدیمی": 3966, "ur": 3967, "كو": 3968, "ماست": 3969, "ورد": 3970, "هران": 3971, "روزا": 3972, "فیل": 3973, "هروقت": 3974, "جدی": 3975, "ختن": 3976, "لق": 3977, "خودشون": 3978, "چیست": 3979, "احمق": 3980, "موفقی": 3981, "بعض": 3982, "نداریم": 3983, "ss": 3984, "خال": 3985, "صر": 3986, "گند": 3987, "نبوده": 3988, "un": 3989, "بمان": 3990, "كي": 3991, "مشغ": 3992, "دختری": 3993, "sh": 3994, "درا": 3995, "فار": 3996, "زندگ": 3997, "بدتر": 3998, "کوه": 3999, "ارتباط": 4000, "خاموش": 4001, "امتحان": 4002, "ـه": 4003, "میبینی": 4004, "نگر": 4005, "پیشی": 4006, "مراقب": 4007, "بپر": 4008, "ﻫﺎ": 4009, "اصل": 4010, "شوید": 4011, "لطفا": 4012, "تاریخ": 4013, "ter": 4014, "محبو": 4015, "جامعه": 4016, "stag": 4017, "موضوع": 4018, "اگاه": 4019, "فهمه": 4020, "هاى": 4021, "هرچه": 4022, "نزار": 4023, "توانیم": 4024, "صفحه": 4025, "ly": 4026, "حسرت": 4027, "حافظ": 4028, "ختی": 4029, "زیرا": 4030, "لانا": 4031, "موفق": 4032, "چهره": 4033, "تب": 4034, "تهران": 4035, "زور": 4036, "كم": 4037, "چرخ": 4038, "𝗋𝖾": 4039, "روزای": 4040, "معنای": 4041, "we": 4042, "حفظ": 4043, "نکنم": 4044, "چر": 4045, "سینه": 4046, "ديو": 4047, "اغاز": 4048, "توضیح": 4049, "ا_": 4050, "میلی": 4051, "خیابون": 4052, "دانشگاه": 4053, "هنگام": 4054, "چیکار": 4055, "stagram": 4056, "احتی": 4057, "باهام": 4058, "خداح": 4059, "هميشه": 4060, "that": 4061, "لف": 4062, "حرفی": 4063, "جمعه": 4064, "مدرسه": 4065, "one": 4066, "شور": 4067, "نکنی": 4068, "ریت": 4069, "علاق": 4070, "خداحافظ": 4071, "\".": 4072, "عنوان": 4073, "بیشت": 4074, "انیم": 4075, "پرنده": 4076, "فصل": 4077, "تنه": 4078, "شنو": 4079, "بیست": 4080, "داغ": 4081, "گناه": 4082, "تخت": 4083, "خشم": 4084, "𝗆𝖾": 4085, "بدترین": 4086, "کینگ": 4087, "جاش": 4088, "مرور": 4089, "کنون": 4090, "تفاوت": 4091, "بن": 4092, "بکشی": 4093, "دوستی": 4094, "براى": 4095, "محمود": 4096, "عذ": 4097, "نبودم": 4098, "سیوش": 4099, "اسب": 4100, "نیستند": 4101, "مثبت": 4102, "بگیره": 4103, "میگیره": 4104, "دش": 4105, "دای": 4106, "شکی": 4107, "عالی": 4108, "اندی": 4109, "مولانا": 4110, "فردی": 4111, "زودتر": 4112, "په": 4113, "گور": 4114, "بیاید": 4115, "خودتان": 4116, "غروب": 4117, "ناشناس": 4118, "sa": 4119, "روت": 4120, "فرزند": 4121, "داشتنی": 4122, "سالم": 4123, "کسایی": 4124, "کلمات": 4125, "واژه": 4126, "سبک": 4127, "بران": 4128, "یادش": 4129, "زدی": 4130, "كنار": 4131, "وط": 4132, "بهانه": 4133, "ندارند": 4134, "تز": 4135, "تي": 4136, "رن": 4137, "زان": 4138, "لبا": 4139, "توصی": 4140, "مادرم": 4141, "پاي": 4142, "رافی": 4143, "هربار": 4144, ":))": 4145, "کاملا": 4146, "پيش": 4147, "خم": 4148, "سگ": 4149, "ازاد": 4150, "اواز": 4151, "سالی": 4152, "افتد": 4153, "پوست": 4154, "تصویر": 4155, "ant": 4156, "ميشه": 4157, "افه": 4158, "لوت": 4159, "دردی": 4160, "خوابم": 4161, "عصبی": 4162, "with": 4163, "صور": 4164, "عرو": 4165, "میفهمی": 4166, "ریزی": 4167, "دوره": 4168, "اوی": 4169, "انسانی": 4170, "بيش": 4171, ".”": 4172, "pe": 4173, "ust": 4174, "حو": 4175, "کری": 4176, "نمیتونی": 4177, "گرفتی": 4178, "روزگار": 4179, "فریاد": 4180, "رب": 4181, "هشت": 4182, "درمان": 4183, "برداشت": 4184, "اينكه": 4185, "تاثیر": 4186, "ساع": 4187, "ممن": 4188, "نره": 4189, "اسیب": 4190, "اگ": 4191, "ایرانی": 4192, "نیس": 4193, "چین": 4194, "In": 4195, "مـ": 4196, "نشه": 4197, "ﺮﺩ": 4198, "ﻮﺍ": 4199, "پید": 4200, "نشست": 4201, "امیرعلی": 4202, "ساک": 4203, "مشت": 4204, "شیر": 4205, "نمیکنه": 4206, "گردن": 4207, "شخص": 4208, "قضاوت": 4209, "چت": 4210, "ازد": 4211, "خيلي": 4212, "قیا": 4213, "يي": 4214, "گردم": 4215, "اى": 4216, "ثابت": 4217, "داند": 4218, "𝗒𝗈𝗎": 4219, "میکنند": 4220, "بدبخ": 4221, "اخرش": 4222, "ساخت": 4223, "عصر": 4224, "موفقیت": 4225, "جال": 4226, "زنه": 4227, "قرمز": 4228, "احساسی": 4229, "كردن": 4230, "گذاشتم": 4231, "سعدی": 4232, "جنس": 4233, "ﺳﺖ": 4234, "ندان": 4235, "رواب": 4236, "نمیکنم": 4237, "بخشید": 4238, "چشمای": 4239, "میزنی": 4240, "نوشتن": 4241, "حداقل": 4242, "شانه": 4243, "نکردم": 4244, "هاتو": 4245, "ايل": 4246, "پیشرفت": 4247, "برود": 4248, "رقص": 4249, "؟\"": 4250, "جست": 4251, "پور": 4252, "درگیر": 4253, "بیند": 4254, "كسي": 4255, "ca": 4256, "بدیم": 4257, "جمه": 4258, "نرم": 4259, "وضعی": 4260, "ویم": 4261, "اصن": 4262, "افرادی": 4263, "عزیزم": 4264, "خطر": 4265, "نذ": 4266, "الکی": 4267, "دوتا": 4268, "گیره": 4269, "ماندن": 4270, "مرز": 4271, "اصلی": 4272, "پاسخ": 4273, "اجتماعی": 4274, "احتیاج": 4275, "اپی": 4276, "وگر": 4277, "یخ": 4278, "تور": 4279, "برخورد": 4280, "انید": 4281, "قطع": 4282, "معجز": 4283, "تونن": 4284, "بين": 4285, "روابط": 4286, "عقب": 4287, "حرکت": 4288, "vi": 4289, "عط": 4290, "پشی": 4291, "دیروز": 4292, "ترين": 4293, "یکدیگر": 4294, "برده": 4295, "خویش": 4296, "ki": 4297, "خرد": 4298, "امن": 4299, "اذیت": 4300, "بامن": 4301, "استاد": 4302, "ورزش": 4303, "مختلف": 4304, "جنگی": 4305, "خانم": 4306, "چاره": 4307, "باغ": 4308, "سید": 4309, "پیچی": 4310, "نوازش": 4311, "وقته": 4312, "توانایی": 4313, "نوشتم": 4314, "جاده": 4315, "شکو": 4316, "مز": 4317, "پاش": 4318, "خوری": 4319, "instagram": 4320, "بهتری": 4321, "كرده": 4322, "خاصی": 4323, "بروی": 4324, "بنویس": 4325, "سا": 4326, "خوشم": 4327, "پیاده": 4328, "دنيا": 4329, "رضایی": 4330, "ذهنت": 4331, "بکشم": 4332, "بـ": 4333, "ژن": 4334, "کث": 4335, "کف": 4336, "میام": 4337, "ردی": 4338, "معت": 4339, "تلفن": 4340, "؟؟": 4341, "جانم": 4342, "صال": 4343, "نقش": 4344, "اسمو": 4345, "بزنید": 4346, "گردد": 4347, "مهربون": 4348, "pa": 4349, "میدون": 4350, "همين": 4351, "نفهمی": 4352, "کودکی": 4353, "دق": 4354, "رای": 4355, "صاح": 4356, "ریه": 4357, "فرشته": 4358, "اونم": 4359, "حرفای": 4360, "شش": 4361, "ناب": 4362, "」#": 4363, "شدند": 4364, "توانند": 4365, "فره": 4366, "بخندی": 4367, "امیدی": 4368, "سخته": 4369, "اضط": 4370, "خندید": 4371, "مشغول": 4372, "توصیف": 4373, "لود": 4374, "نکرد": 4375, "دوی": 4376, "زخمی": 4377, "كنيم": 4378, "وگرنه": 4379, "هدیه": 4380, "ازار": 4381, "نمیتونه": 4382, "ind": 4383, "براتون": 4384, "بغلش": 4385, "اسموکینگ": 4386, "افر": 4387, "صند": 4388, "ﺎﺭ": 4389, "𝗂𝗇": 4390, "جهنم": 4391, "خوشحالم": 4392, "اکنون": 4393, "تـ": 4394, "برسد": 4395, "خودشو": 4396, "دهیم": 4397, "ابراهی": 4398, "اونایی": 4399, "صدات": 4400, "يكي": 4401, "معجزه": 4402, "^^": 4403, "».": 4404, "عق": 4405, "وم": 4406, "میمونه": 4407, "ایجاد": 4408, "گیرم": 4409, "شیری": 4410, "اوج": 4411, "اقا": 4412, "عاشقی": 4413, "بگیرید": 4414, "نسخ": 4415, "كنند": 4416, "حواست": 4417, "يک": 4418, "گره": 4419, "هرچقدر": 4420, "بعدی": 4421, "کافه": 4422, "ng": 4423, "جفت": 4424, "خرید": 4425, "ناگه": 4426, "نصف": 4427, "امنیت": 4428, "هایشان": 4429, "خودکشی": 4430, "هرجا": 4431, "نگاهت": 4432, "مسخره": 4433, "فهمم": 4434, "متفاوت": 4435, "بفر": 4436, "تای": 4437, "جسم": 4438, "حذ": 4439, "عادی": 4440, "میذ": 4441, "بهتون": 4442, "شیشه": 4443, "نیستن": 4444, "ارزوی": 4445, "وجودم": 4446, "دانلود": 4447, "قبلا": 4448, "اضافه": 4449, "اضطراب": 4450, "ow": 4451, "جبران": 4452, "اینست": 4453, "دوش": 4454, "مهدیه": 4455, "thing": 4456, "بسیاری": 4457, "هامون": 4458, "خلق": 4459, "غریبه": 4460, "خلوت": 4461, "توسط": 4462, "بیخیال": 4463, "اهل": 4464, "حسن": 4465, "عاشقت": 4466, "مجمو": 4467, "بب": 4468, "حواسم": 4469, "قاد": 4470, "ایق": 4471, "ولي": 4472, "خواستی": 4473, "معمولا": 4474, "عالم": 4475, "خوندن": 4476, "کشم": 4477, "ازده": 4478, "همدیگه": 4479, "ایید": 4480, "سرما": 4481, "بلو": 4482, "دانست": 4483, "way": 4484, "بگي": 4485, "مزه": 4486, "روانی": 4487, "اماده": 4488, "بینه": 4489, "یکیو": 4490, "_رضایی": 4491, "اذ": 4492, "هرکسی": 4493, "بگیریم": 4494, "دانند": 4495, "خوشبخت": 4496, "شلوغ": 4497, "وحشت": 4498, "تنم": 4499, "ساد": 4500, "پز": 4501, "جهت": 4502, "سوم": 4503, ":)))": 4504, "روانشناسی": 4505, "موجود": 4506, "اومده": 4507, "بیشتری": 4508, "بيشتر": 4509, "can": 4510, "ریز": 4511, "ترم": 4512, "هرکی": 4513, "تمرک": 4514, "نجی": 4515, "بگیرد": 4516, "دلیلی": 4517, "a_": 4518, "بنشی": 4519, "في": 4520, "توق": 4521, "امت": 4522, "بیمار": 4523, "وله": 4524, "مهربان": 4525, "شبه": 4526, "نرو": 4527, "برخی": 4528, "همیش": 4529, "چیزای": 4530, "امیدوارم": 4531, "بیماری": 4532, "اا": 4533, "ظهر": 4534, "نان": 4535, "کاغ": 4536, "دهید": 4537, "معنا": 4538, "بمونه": 4539, "خستم": 4540, "سرو": 4541, "شايد": 4542, "عاط": 4543, "نشو": 4544, "کشد": 4545, "توو": 4546, "نگذ": 4547, "کسیو": 4548, "افس": 4549, "بله": 4550, "اعص": 4551, "جهانی": 4552, "قبانی": 4553, "صمیمی": 4554, "هدایت": 4555, "بماند": 4556, "بمیرم": 4557, "ببخشید": 4558, "تبری": 4559, "سمی": 4560, "وار": 4561, "درسته": 4562, "همدیگر": 4563, "همچنان": 4564, "هاتون": 4565, "تاسف": 4566, "لاح": 4567, "فرقی": 4568, "تهش": 4569, "قرص": 4570, "زمستان": 4571, "تکیه": 4572, "بروم": 4573, "رفتیم": 4574, "تماشای": 4575, "اپیزود": 4576, "Be": 4577, "طوف": 4578, "ﻫﻤ": 4579, "وید": 4580, "کشیدم": 4581, "راننده": 4582, "کافیه": 4583, "علیرضا": 4584, "ایستاده": 4585, "ندارن": 4586, "شکرت": 4587, "صاف": 4588, "عج": 4589, "مسی": 4590, "میکنید": 4591, "نداد": 4592, "سیو": 4593, "هرچیزی": 4594, "گردی": 4595, "مطال": 4596, "بنویسم": 4597, "محبوب": 4598, "!؟": 4599, ":\"": 4600, "don": 4601, "gh": 4602, "na": 4603, "نص": 4604, "میدن": 4605, "میخندی": 4606, "ترل": 4607, "عهد": 4608, "مغزم": 4609, "طبیعت": 4610, "لعنتی": 4611, "مهدیه_رضایی": 4612, "مجموعه": 4613, "جالب": 4614, "خشک": 4615, "ساح": 4616, "قسم": 4617, "وه": 4618, "میای": 4619, "خواند": 4620, "ریشه": 4621, "برن": 4622, "چیزها": 4623, "میرن": 4624, "ok": 4625, "بکش": 4626, "صوص": 4627, "راحتی": 4628, "لیل": 4629, "نگرانی": 4630, "موهای": 4631, "هرروز": 4632, "بزار": 4633, "اخلاق": 4634, "نابود": 4635, "ببینید": 4636, "جنگل": 4637, "op": 4638, "جاي": 4639, "طان": 4640, "وب": 4641, "بیای": 4642, "پیانو": 4643, "دستات": 4644, "out": 4645, "یاداوری": 4646, "بخواد": 4647, "فرستاد": 4648, "کودک": 4649, "تمرکز": 4650, "نشود": 4651, "کرا": 4652, "راضی": 4653, "اشتبا": 4654, "سرنوشت": 4655, "اطراف": 4656, "بخوابی": 4657, "اوردن": 4658, "جذاب": 4659, "مبارک": 4660, "بدو": 4661, "عک": 4662, "پاره": 4663, "گرا": 4664, "ﻣﺎ": 4665, "راستی": 4666, "امل": 4667, "دسته": 4668, "گوشت": 4669, "اختی": 4670, "بخوابم": 4671, "بردن": 4672, "توانست": 4673, "مجازی": 4674, "فروش": 4675, "فلان": 4676, "پرده": 4677, "سطح": 4678, "خاکست": 4679, "_شکرت": 4680, "ثر": 4681, "نادر": 4682, "هند": 4683, "پوش": 4684, "انش": 4685, "ارش": 4686, "امدن": 4687, "اونو": 4688, "چشمام": 4689, "لحاظ": 4690, "بدهد": 4691, ">>>>": 4692, "خارج": 4693, "حاضر": 4694, "ساکت": 4695, "وضعیت": 4696, "per": 4697, "گا": 4698, "گزی": 4699, "الف": 4700, "مواظ": 4701, "برادر": 4702, "چیزهای": 4703, "طرز": 4704, "بمونی": 4705, "رش": 4706, "شـ": 4707, "غد": 4708, "نن": 4709, "وقات": 4710, "قطعا": 4711, "تصاد": 4712, "فروغ": 4713, "چيزي": 4714, "بگوید": 4715, "احتمالا": 4716, "خدایا_شکرت": 4717, "دشمن": 4718, "نسخه": 4719, "رمان": 4720, "لام": 4721, "ﺗﻮ": 4722, "درمورد": 4723, "اینها": 4724, "پیو": 4725, "اونجایی": 4726, "گیرند": 4727, "ry": 4728, "خبری": 4729, "مری": 4730, "چال": 4731, "ستمی": 4732, "راک": 4733, "وقتى": 4734, "فیت": 4735, "دوران": 4736, "hen": 4737, "مسافر": 4738, "هنرم": 4739, "پسرم": 4740, "ابراز": 4741, "خوندم": 4742, "خداحافظی": 4743, "بنا": 4744, "حکم": 4745, "شدید": 4746, "ـا": 4747, "فو": 4748, "چایی": 4749, "𝗍𝗁": 4750, "ابری": 4751, "قطعه": 4752, "پرس": 4753, "صبور": 4754, "بشنو": 4755, "داشتیم": 4756, "ابا": 4757, "خفه": 4758, "عاد": 4759, "𝖺𝗇": 4760, "کنترل": 4761, "برس": 4762, "ترجمه": 4763, "پیشم": 4764, "مرسی": 4765, "بخوای": 4766, "تکراری": 4767, "كنيد": 4768, "افسانه": 4769, "بزند": 4770, "شاع": 4771, "ضا": 4772, "یون": 4773, "ﺧﻮﺩ": 4774, "ایمان": 4775, "تنت": 4776, "نیستیم": 4777, "حالش": 4778, "افری": 4779, "تعداد": 4780, "ببینیم": 4781, "منظور": 4782, "رار": 4783, "سای": 4784, "دوسم": 4785, "ميكنم": 4786, "بزرگترین": 4787, "هنری": 4788, "فراموشی": 4789, "قبلی": 4790, "بزرگی": 4791, "همیشگی": 4792, "سهم": 4793, "نبودنت": 4794, "چطوری": 4795, "کجای": 4796, "ﻣﯿ": 4797, "انان": 4798, "بابت": 4799, "دورم": 4800, "دولت": 4801, "اسمش": 4802, "خوشگل": 4803, "زیباست": 4804, "توانید": 4805, "هاشون": 4806, "مخصوص": 4807, "فکری": 4808, "جدایی": 4809, "معروفی": 4810, "عات": 4811, "غرور": 4812, "فوق": 4813, "نداشتی": 4814, "لیاقت": 4815, "داخل": 4816, "مدتی": 4817, "بهتره": 4818, "تماس": 4819, "ترکیب": 4820, "اوقات": 4821, "ببخش": 4822, "شا": 4823, "پره": 4824, "کجاست": 4825, "ﺍﯾ": 4826, "رده": 4827, "اینطوری": 4828, "اهدا": 4829, "موهات": 4830, "کمه": 4831, "مربو": 4832, "چراغ": 4833, "پوشی": 4834, "اومدم": 4835, "موندن": 4836, "ba": 4837, "nt": 4838, "shi": 4839, "دگر": 4840, "وانم": 4841, "کره": 4842, "یل": 4843, "ازین": 4844, "تورا": 4845, "بینیم": 4846, "اوند": 4847, "همینه": 4848, "جوانی": 4849, "گرده": 4850, "رسیدم": 4851, "پیشنهاد_": 4852, "Lo": 4853, "bo": 4854, "ـم": 4855, "امان": 4856, "دیدار": 4857, "پیشت": 4858, "سرعت": 4859, "نوعی": 4860, "گذاشتی": 4861, "گفتیم": 4862, "not": 4863, "کاغذ": 4864, ".-": 4865, "سود": 4866, "مکان": 4867, "نباشم": 4868, "گمان": 4869, "رادیو": 4870, "شهری": 4871, "خیس": 4872, "گذار": 4873, "خوبم": 4874, "دنیایی": 4875, "مرغ": 4876, "مراق": 4877, "اکاي": 4878, "ناراحتم": 4879, "مامانم": 4880, "شرایطی": 4881, "چسب": 4882, "پارتنر": 4883, "بکنم": 4884, "تحت": 4885, "طل": 4886, "طلو": 4887, "تويه": 4888, "نمیخوام": 4889, "زید": 4890, "شمند": 4891, "معرفی": 4892, "باهاشون": 4893, "time": 4894, "ضعف": 4895, "حذف": 4896, "زو": 4897, "س_": 4898, "✍🏻": 4899, "میاره": 4900, "شین": 4901, "بدان": 4902, "چیزا": 4903, "rea": 4904, "ضعیف": 4905, "جرا": 4906, "مهمی": 4907, "يدم": 4908, "نمیدونی": 4909, "سالها": 4910, "مهدی": 4911, "مردن": 4912, "نفرت": 4913, "tion": 4914, "ضربه": 4915, "زشت": 4916, "سازی": 4917, "قاب": 4918, "مها": 4919, "يش": 4920, "راجب": 4921, "بیام": 4922, "ترانه": 4923, "هیجان": 4924, "دستی": 4925, "بوم": 4926, "کله": 4927, "رویای": 4928, "شکلی": 4929, "نقاش": 4930, "عمرم": 4931, "now": 4932, "میگذره": 4933, "وابسته": 4934, "ساحل": 4935, "ning": 4936, "نون": 4937, "ان_": 4938, "ارا": 4939, "ارستمی": 4940, "اهنگی": 4941, "قیم": 4942, "حسابی": 4943, "اوردم": 4944, "چشات": 4945, "شنیدم": 4946, "ight": 4947, "دفت": 4948, "دغد": 4949, "کز": 4950, "درصد": 4951, "دیگ": 4952, "دیشب": 4953, "بالای": 4954, "طوفان": 4955, "ic": 4956, "بنده": 4957, "شبی": 4958, "عقل": 4959, "متاسف": 4960, "يع": 4961, "چک": 4962, "𝗆𝗒": 4963, "📻@": 4964, "توج": 4965, "رونی": 4966, "خودمم": 4967, "دانستم": 4968, "خداوند": 4969, "زیباترین": 4970, "very": 4971, "مدیریت": 4972, "متنفرم": 4973, "تنهام": 4974, "امیرعلی_ق": 4975, "by": 4976, "سقو": 4977, "چاله": 4978, "کشت": 4979, "𝖺𝗍": 4980, "𝗏𝖾": 4981, "میش": 4982, "بیت": 4983, "خیانت": 4984, "قلبش": 4985, "نیازی": 4986, "جمعی": 4987, "میگیرم": 4988, "هزاران": 4989, "خندم": 4990, "زندگى": 4991, "ناگهان": 4992, "مطالعه": 4993, "but": 4994, "do": 4995, "ght": 4996, "شاخه": 4997, "وسی": 4998, "گون": 4999, "گنج": 5000, "خوره": 5001, "گريه": 5002, "ویس": 5003, "عشقی": 5004, "سوار": 5005, "نگاهش": 5006, "پدرم": 5007, "راستش": 5008, "مف": 5009, "کفش": 5010, "گذرد": 5011, "اخت": 5012, "محل": 5013, "ندیده": 5014, "اتفاقات": 5015, "چشماتو": 5016, "چشمانت": 5017, "سقوط": 5018, "!»": 5019, "ru": 5020, "wor": 5021, "رسه": 5022, "غال": 5023, "ریخته": 5024, "یافت": 5025, "بعدا": 5026, "mor": 5027, "کیارستمی": 5028, "صداش": 5029, "مربوط": 5030, "ببو": 5031, "رست": 5032, "عبار": 5033, "عبور": 5034, "ﺩﯾ": 5035, "لیوان": 5036, "اوتی": 5037, "روزایی": 5038, "قطره": 5039, "رویش": 5040, "شونه": 5041, "شونو": 5042, "خندیدن": 5043, "وانمود": 5044, "بجای": 5045, "رح": 5046, "عمق": 5047, "غلط": 5048, "••": 5049, "امری": 5050, "البر": 5051, "استع": 5052, "فران": 5053, "سرخ": 5054, "بخوام": 5055, "لحظات": 5056, "فهمید": 5057, "ﺍﻧ": 5058, "ﺴﺘ": 5059, "ستین": 5060, "امکان": 5061, "ریا": 5062, "کردنش": 5063, "فرخ": 5064, "اریان": 5065, "بدهم": 5066, "کیفیت": 5067, "ولیت": 5068, "کارهای": 5069, "محو": 5070, "عاشقش": 5071, "چندتا": 5072, "همونقدر": 5073, "منطقی": 5074, "ممنونم": 5075, "-.-": 5076, "il": 5077, "دعا": 5078, "دقت": 5079, "پارت": 5080, "ریخت": 5081, "مناسب": 5082, "الع": 5083, "برسه": 5084, "اوض": 5085, "نمى": 5086, "معلوم": 5087, "وجودت": 5088, "نداشتن": 5089, "بچگی": 5090, "وطن": 5091, "اکايو": 5092, "»،": 5093, "لنگ": 5094, "مبا": 5095, "ﻧﻤ": 5096, "ندم": 5097, "راس": 5098, "استراحت": 5099, "اولی": 5100, "افز": 5101, "like": 5102, "نشانه": 5103, "مرح": 5104, "مشخص": 5105, "افتخار": 5106, "اغلب": 5107, "فراموشت": 5108, "اغوشت": 5109, "توقع": 5110, "pp": 5111, "ta": 5112, "بى": 5113, "بتونم": 5114, "روحت": 5115, "تیر": 5116, "chi": 5117, "پیچ": 5118, "روزهایی": 5119, "حتي": 5120, "زنند": 5121, "بساز": 5122, "طلوع": 5123, "ﺷﺪ": 5124, "گفتند": 5125, "کشف": 5126, "بیهوده": 5127, "پروانه": 5128, "بشیم": 5129, "مسيله": 5130, "موقعیت": 5131, "صندلی": 5132, "And": 5133, "Me": 5134, "بط": 5135, "حیا": 5136, "چپ": 5137, "امير": 5138, "وین": 5139, "شماره": 5140, "اقی": 5141, "کاره": 5142, "گذاشتن": 5143, "اومدن": 5144, "هنگامی": 5145, "لانگ": 5146, "بوسیدن": 5147, "دغدغه": 5148, "نکند": 5149, "یکبار": 5150, "نمیخواد": 5151, "انداز": 5152, "اطلا": 5153, "ناامید": 5154, "بخورم": 5155, "انتق": 5156, "نفری": 5157, "طرح": 5158, "سریع": 5159, "دفعه": 5160, "مصرف": 5161, "بمونم": 5162, "بدبختی": 5163, "مراقبت": 5164, "My": 5165, "شار": 5166, "عمو": 5167, "نادی": 5168, "شمع": 5169, "زندگیش": 5170, "کارت": 5171, "کردنت": 5172, "اعتقاد": 5173, "جرت": 5174, "خدای": 5175, "ذهنی": 5176, "افسرده": 5177, "میخواستم": 5178, "__": 5179, "تپ": 5180, "میرد": 5181, "بیو": 5182, "اورم": 5183, "اییم": 5184, "لاک": 5185, "our": 5186, "مونم": 5187, "کنارتم": 5188, "بخواب": 5189, "بخوریم": 5190, "همینقدر": 5191, "اولش": 5192, "روحم": 5193, "عجیبی": 5194, "گروه": 5195, "man": 5196, "هه": 5197, "پیک": 5198, "𝗈𝗇": 5199, "تین": 5200, "نگات": 5201, "گذره": 5202, "حسادت": 5203, "بخور": 5204, "خواستن": 5205, "خوردم": 5206, "www": 5207, "صاحب": 5208, "اختیار": 5209, "want": 5210, "بشود": 5211, "بپذی": 5212, "دس": 5213, "كش": 5214, "متر": 5215, "بیات": 5216, "تاحالا": 5217, "هرکاری": 5218, "دهی": 5219, "زندان": 5220, "هیشکی": 5221, "فرهنگ": 5222, "مين": 5223, "حرفات": 5224, "عید": 5225, "اورده": 5226, "ندارید": 5227, "زیبای": 5228, "اومدی": 5229, "هيچوقت": 5230, "عصبانیت": 5231, "سنگین": 5232, "نکته": 5233, "فرخزاد": 5234, "زبون": 5235, "نشدن": 5236, "کاه": 5237, "میخواهد": 5238, "راض": 5239, "راجع": 5240, "ادمهای": 5241, "مثه": 5242, "میخواهم": 5243, "اولویت": 5244, "ترسناک": 5245, "تمامی": 5246, "خرج": 5247, "هوشنگ": 5248, "صرفا": 5249, "اوضاع": 5250, "كاش": 5251, "مزخ": 5252, "انگلی": 5253, "موج": 5254, "روزم": 5255, "همینطور": 5256, "ارومم": 5257, "ther": 5258, "قلبی": 5259, "نادیده": 5260, "just": 5261, "بکنی": 5262, "بتونی": 5263, "فح": 5264, "لاز": 5265, "مهمه": 5266, "يب": 5267, "میریم": 5268, "ندگی": 5269, "درخ": 5270, "برنده": 5271, "هاج": 5272, "کردید": 5273, "قیمت": 5274, "هايي": 5275, ">>>": 5276, "پرسیدم": 5277, "عذاب": 5278, "زمه": 5279, "ظیم": 5280, "فن": 5281, "لال": 5282, "مض": 5283, "متو": 5284, "گله": 5285, "ازشون": 5286, "ادار": 5287, "ابان": 5288, "اقع": 5289, "مشترک": 5290, "مقای": 5291, "تکان": 5292, "علي": 5293, "دفاع": 5294, "feel": 5295, "شناخت": 5296, "فارسی": 5297, "اعصاب": 5298, "us": 5299, "جات": 5300, "طعم": 5301, "ﻤﺎ": 5302, "گرمی": 5303, "اساس": 5304, "دمت": 5305, "قرن": 5306, "خواندن": 5307, "چسبی": 5308, "میلیون": 5309, "مقایسه": 5310, "id": 5311, "شرم": 5312, "مارو": 5313, "هامو": 5314, "يار": 5315, "بودنش": 5316, "ویل": 5317, "یادته": 5318, "دورت": 5319, "زمزمه": 5320, "میشیم": 5321, "قیافه": 5322, "العاده": 5323, "مبادا": 5324, "ببرد": 5325, "زنش": 5326, "زدیم": 5327, "مشه": 5328, "ﻧﯿ": 5329, "𝖾𝖾": 5330, "ادمیز": 5331, "سرزمین": 5332, "some": 5333, "درونی": 5334, "مهربانی": 5335, "صحنه": 5336, "سیاهی": 5337, "میکشم": 5338, "بعضیا": 5339, "پیچیده": 5340, "Li": 5341, "سور": 5342, "شجریان": 5343, "قلم": 5344, "نع": 5345, "هری": 5346, "روي": 5347, "ریق": 5348, "اشکی": 5349, "الهی": 5350, "نگا": 5351, "شیرک": 5352, "اسف": 5353, "تونست": 5354, "قلبمو": 5355, "دخترم": 5356, "كسى": 5357, "چوب": 5358, "معروف": 5359, "مرحله": 5360, "if": 5361, "اجه": 5362, "بخواهد": 5363, "ثبت": 5364, "سپس": 5365, "فایده": 5366, "نصی": 5367, "کیه": 5368, "کامو": 5369, "توعه": 5370, "پرست": 5371, "کمال": 5372, "قشنگترین": 5373, "افته": 5374, "تعطی": 5375, "فضای": 5376, "مواظب": 5377, "Mo": 5378, "bot": 5379, "تفری": 5380, "ـت": 5381, "قصد": 5382, "نکردی": 5383, "همسر": 5384, "نگاهم": 5385, "دهنده": 5386, "ابدی": 5387, "اسان": 5388, "روزه": 5389, "حالمو": 5390, "کیو": 5391, "صدایی": 5392, "سوز": 5393, "چشمم": 5394, "رابط": 5395, "علت": 5396, "(:": 5397, "رز": 5398, "زهر": 5399, "ساي": 5400, "فسکی": 5401, "مکال": 5402, "کاب": 5403, "گانه": 5404, "ﺭﻭ": 5405, "میترسم": 5406, "میتونستم": 5407, "تونید": 5408, "برعکس": 5409, "تیک": 5410, "هرکس": 5411, "خیالی": 5412, "کیمی": 5413, "کارش": 5414, "دارین": 5415, "مردان": 5416, "عاشقتم": 5417, "تحصی": 5418, "كنى": 5419, "خوانده": 5420, "برگردی": 5421, "عدد": 5422, "ببری": 5423, "تسلی": 5424, "تظاهر": 5425, "جدیدی": 5426, "حک": 5427, "زير": 5428, "فوت": 5429, "ﺩﻭ": 5430, "کنج": 5431, "تمرین": 5432, "افل": 5433, "شنیده": 5434, "خلاف": 5435, "اینجوریه": 5436, "زمینی": 5437, "هندز": 5438, "دفتر": 5439, "امریکا": 5440, "day": 5441, "fa": 5442, "اتون": 5443, "شای": 5444, "🖖🏻": 5445, "دیست": 5446, "همسایه": 5447, "کنکور": 5448, "نگفتم": 5449, "زیم": 5450, "معلم": 5451, "نشستم": 5452, "مرتب": 5453, "ديد": 5454, "پيدا": 5455, "عاطفی": 5456, "ادمیزاد": 5457, "au": 5458, "um": 5459, "حواسش": 5460, "زا": 5461, "شك": 5462, "شجا": 5463, "مدار": 5464, "نـ": 5465, "يى": 5466, "ﺍﺭ": 5467, "دارو": 5468, "چهل": 5469, "داشتند": 5470, "گذاری": 5471, "گردان": 5472, "تلخی": 5473, "خوابت": 5474, "نزن": 5475, "ببینه": 5476, "شرکت": 5477, "نقص": 5478, "end": 5479, "ابتهاج": 5480, "قهرمان": 5481, "ترد": 5482, "عكس": 5483, "يدن": 5484, "ﺍﺳﺖ": 5485, "تیم": 5486, "نگفت": 5487, "محتا": 5488, "تحقی": 5489, "توانستم": 5490, "مادرش": 5491, "میوه": 5492, "ديگران": 5493, "بزرگم": 5494, "زرد": 5495, "عاقل": 5496, "فم": 5497, "مای": 5498, "مبت": 5499, "هور": 5500, "ادو": 5501, "اینطور": 5502, "استوری": 5503, "پیتز": 5504, "گذارد": 5505, "میخوره": 5506, "مشکلی": 5507, "افتادم": 5508, "کوچکی": 5509, "میرسه": 5510, "زياد": 5511, "حمایت": 5512, "دخترا": 5513, "حمیدسلیمی": 5514, "بکشیم": 5515, "هنرمند": 5516, "مزخرف": 5517, "انگلیسی": 5518, "=)": 5519, "ei": 5520, "ore": 5521, "دند": 5522, "رع": 5523, "رسم": 5524, "سپ": 5525, "شغل": 5526, "نخو": 5527, "کات": 5528, "کجایی": 5529, "ﯿﺪ": 5530, "ﻮﺭ": 5531, "بهمون": 5532, "امدی": 5533, "الود": 5534, "سیاست": 5535, "نمیکنی": 5536, "ميكنه": 5537, "بخانه": 5538, "برگردم": 5539, "اورند": 5540, "وایب": 5541, "غریب": 5542, "برقص": 5543, "شاعر": 5544, "ali": 5545, "ey": 5546, "بای": 5547, "ببرم": 5548, "حواس": 5549, "خرا": 5550, "رهایی": 5551, "سایت": 5552, "قات": 5553, "لز": 5554, "•#": 5555, "ادث": 5556, "برنگ": 5557, "مانه": 5558, "دستان": 5559, "فکرت": 5560, "پرسه": 5561, "morning": 5562, "طبق": 5563, "ظرف": 5564, "كت": 5565, "ﺎﺩ": 5566, "ﺑﻮﺩ": 5567, "ﺳﺘ": 5568, "𝗂𝗌": 5569, "میدهد": 5570, "خونم": 5571, "ang": 5572, "کارها": 5573, "جزيی": 5574, "مغازه": 5575, "جوره": 5576, "واکن": 5577, "خواننده": 5578, "حیف": 5579, "خوابیدن": 5580, "امیدوار": 5581, "چرخه": 5582, "مریض": 5583, "Ne": 5584, "بستگی": 5585, "درویش": 5586, "لبات": 5587, "نکنیم": 5588, "میکردی": 5589, "ارف": 5590, "ماجرا": 5591, "بدونه": 5592, "شوخی": 5593, "محی": 5594, "مشکی": 5595, "چشمت": 5596, "هوشی": 5597, "نگاهی": 5598, "جمشید": 5599, "خیالت": 5600, "اتیش": 5601, "بتی": 5602, "رحم": 5603, "زنیم": 5604, "سب": 5605, "ریش": 5606, "موی": 5607, "شمال": 5608, "پیراه": 5609, "تمند": 5610, "گول": 5611, "شبانه": 5612, "here": 5613, "هوم": 5614, "بینند": 5615, "سلول": 5616, "نميشه": 5617, "هواپی": 5618, "نشین": 5619, "کتابی": 5620, "ابادی": 5621, "شیرکاکايو": 5622, "lf": 5623, "بنی": 5624, "دشو": 5625, "نرگ": 5626, "رونم": 5627, "نمیده": 5628, "خوداگاه": 5629, "گران": 5630, "نوشی": 5631, "رفتنت": 5632, "براشون": 5633, "چیزیه": 5634, "ــی": 5635, "محدود": 5636, "چندین": 5637, "دونستم": 5638, "اهنگای": 5639, "بفرستید": 5640, "نصفه": 5641, "Love": 5642, "مهاجرت": 5643, "کابوس": 5644, "دیستنس": 5645, "know": 5646, "شریک": 5647, "كسی": 5648, "مالی": 5649, "نترس": 5650, "پاشو": 5651, "دوت": 5652, "ترش": 5653, "اخلا": 5654, "شوهر": 5655, "life": 5656, "تلگ": 5657, "انسوی": 5658, "بردی": 5659, "have": 5660, "فلانی": 5661, "افزایش": 5662, "ia": 5663, "تخ": 5664, "حدی": 5665, "زارم": 5666, "فعالی": 5667, "نکردن": 5668, "پژ": 5669, "ژی": 5670, "ژان": 5671, "ﺮﻭ": 5672, "ﻧﻪ": 5673, "انل": 5674, "راکی": 5675, "بام": 5676, "امسال": 5677, "همچون": 5678, "اینارو": 5679, "سیل": 5680, "اوست": 5681, "اشتباهات": 5682, "معین": 5683, "حرفایی": 5684, "حساس": 5685, "تابستون": 5686, "پایه": 5687, "وصل": 5688, "کانال": 5689, "عمیقا": 5690, "طبیعی": 5691, "لعنت": 5692, "قسمتی": 5693, "im": 5694, "حتا": 5695, "حرم": 5696, "حجم": 5697, "خن": 5698, "ريی": 5699, "سار": 5700, "ل_": 5701, "لبه": 5702, "ملاق": 5703, "يده": 5704, "چاق": 5705, "کشته": 5706, "الله": 5707, "اهمی": 5708, "چیو": 5709, "دمه": 5710, "never": 5711, "need": 5712, "گوشم": 5713, "بونی": 5714, "کارهایی": 5715, "دنیاست": 5716, "انتهای": 5717, "son": 5718, "بردار": 5719, "تصمی": 5720, "ملت": 5721, "حقیق": 5722, "حافظه": 5723, "شکوفه": 5724, "عبارت": 5725, "ﻧﻤﯽ": 5726, "فحش": 5727, "ببي": 5728, "بفهمه": 5729, "زمين": 5730, "لى": 5731, "ملی": 5732, "وظ": 5733, "ومد": 5734, "ﺑﺮﺍ": 5735, "توي": 5736, "ادمو": 5737, "دیدیم": 5738, "همزمان": 5739, "همچین": 5740, "بیار": 5741, "برنمی": 5742, "لید": 5743, "مواجه": 5744, "معاش": 5745, "عشقت": 5746, "نزد": 5747, "بزرگتر": 5748, "مسايل": 5749, "ory": 5750, "چنل": 5751, "ساختن": 5752, "حوصل": 5753, "بدست": 5754, "ببره": 5755, "تج": 5756, "طاقت": 5757, "قبر": 5758, "مدل": 5759, "کص": 5760, "گاز": 5761, "اشاره": 5762, ".....": 5763, "اوه": 5764, "دلمون": 5765, "شمارو": 5766, "ould": 5767, "خواهر": 5768, "قربون": 5769, "چشماش": 5770, "بدین": 5771, "کوچول": 5772, "گير": 5773, "thin": 5774, "تقص": 5775, "قلاب": 5776, "سرمایه": 5777, "میرند": 5778, "چهرازی": 5779, "مسيولیت": 5780, "وابستگی": 5781, "احتمال": 5782, "شنوم": 5783, "هندزفری": 5784, "Bot": 5785, "get": 5786, "po": 5787, "خرم": 5788, "قند": 5789, "محسن": 5790, "ژگی": 5791, "ﮐﻨ": 5792, "ﺍﻭ": 5793, "میشوند": 5794, "اردی": 5795, "راد": 5796, "هايم": 5797, "سیب": 5798, "اهسته": 5799, "ویر": 5800, "پیرم": 5801, "دادیم": 5802, "دردناک": 5803, "پوچ": 5804, "when": 5805, "بندی": 5806, "بگن": 5807, "ذرت": 5808, "رشته": 5809, "زح": 5810, "شازده": 5811, "غافل": 5812, "هرد": 5813, "کشن": 5814, "𝖺𝗋𝖾": 5815, "ایر": 5816, "اینم": 5817, "لیلی": 5818, "ویديو": 5819, "زندگیتون": 5820, "میزان": 5821, "هایتان": 5822, "کافکا": 5823, "تقری": 5824, "پارک": 5825, "غذای": 5826, "دریغ": 5827, "منطق": 5828, "زمینه": 5829, "جستجوی": 5830, "کثی": 5831, "تایپ": 5832, "ملاقات": 5833, ")،": 5834, "No": 5835, "_s": 5836, "بلی": 5837, "جشن": 5838, "فنج": 5839, "قفل": 5840, "ناس": 5841, "ﯿﻢ": 5842, "انا": 5843, "کهنه": 5844, "ابق": 5845, "نمایش": 5846, "نوتی": 5847, "کارو": 5848, "روید": 5849, "لوس": 5850, "بردم": 5851, "بيرون": 5852, "اولين": 5853, "شرط": 5854, "چشام": 5855, "غمگینم": 5856, "خيال": 5857, "اتاقم": 5858, "قانع": 5859, "ابراهیمی": 5860, "قایم": 5861, "مچاله": 5862, "يادم": 5863, "پخش": 5864, "ﯾﺪ": 5865, "انوس": 5866, "ازتون": 5867, "توهم": 5868, "همچنین": 5869, "برند": 5870, "برسی": 5871, "فتد": 5872, "دوستام": 5873, "ایدا": 5874, "ايم": 5875, "حرفا": 5876, "باشین": 5877, "حسود": 5878, "res": 5879, "نفرو": 5880, "میزد": 5881, "تعجب": 5882, "نویسم": 5883, "سلط": 5884, "بالاتر": 5885, "منتظرم": 5886, "تغیی": 5887, "اثار": 5888, "سلامتی": 5889, "صورتی": 5890, "خاکستری": 5891, "what": 5892, "حاصل": 5893, "علم": 5894, "پات": 5895, "چنگ": 5896, "توت": 5897, "درخواست": 5898, "هممون": 5899, "اینگونه": 5900, "اینجاست": 5901, "نمیره": 5902, "ویژگی": 5903, "داي": 5904, "کیف": 5905, "اطرافی": 5906, "iss": 5907, "heart": 5908, "پسری": 5909, "دیوانگی": 5910, "سنگینی": 5911, "ﺍﯾﻦ": 5912, "حیاط": 5913, "ep": 5914, "اگاهی": 5915, "بتونه": 5916, "خنک": 5917, "سون": 5918, "ﯾﮏ": 5919, "ستانی": 5920, "بیاری": 5921, "بیداری": 5922, "سیاسی": 5923, "اهی": 5924, "نمیشود": 5925, "دهان": 5926, "وران": 5927, "زندگیمو": 5928, "دستای": 5929, "دستمو": 5930, "کرم": 5931, "کسیه": 5932, "اصط": 5933, "خوشگلی": 5934, "محمدر": 5935, "دقیق": 5936, "تکلی": 5937, "دوسشون": 5938, "بگویید": 5939, "بکشد": 5940, "زيبا": 5941, "ببینمت": 5942, "مسيول": 5943, "ابراهیم": 5944, "فرستادید": 5945, "تلگرام": 5946, "تقریبا": 5947, "con": 5948, "was": 5949, "بــ": 5950, "بشر": 5951, "تایم": 5952, "خج": 5953, "دانه": 5954, "طلب": 5955, "فق": 5956, "کـ": 5957, "𝖸𝗈𝗎": 5958, "توص": 5959, "البوم": 5960, "ویزی": 5961, "لاف": 5962, "گوگ": 5963, "کارم": 5964, "دادند": 5965, "ish": 5966, "مرت": 5967, "دختره": 5968, "ببیند": 5969, "hast": 5970, "بگذره": 5971, "میگیری": 5972, "حیوان": 5973, "سلامت": 5974, "حمله": 5975, "دقي": 5976, "شیرینی": 5977, "عکاسی": 5978, "فعالیت": 5979, "!\"": 5980, "ea": 5981, "اپل": 5982, "رخت": 5983, "سقف": 5984, "میکشی": 5985, "میشوم": 5986, "اني": 5987, "امام": 5988, "برت": 5989, "نگرا": 5990, "نگفته": 5991, "تمون": 5992, "اونقد": 5993, "کارایی": 5994, "گرفتار": 5995, "باشي": 5996, "ديدم": 5997, "اشتیاق": 5998, "فروشی": 5999, "کودکان": 6000, "صالح": 6001, "اهداف": 6002, "استعداد": 6003, "chiz": 6004, "لازمه": 6005, "خان": 6006, "عر": 6007, "مکن": 6008, "مفی": 6009, "کرو": 6010, "گلو": 6011, "ﮔﺮ": 6012, "ﻫﻢ": 6013, "رافت": 6014, "بیر": 6015, "بیاره": 6016, "هرشب": 6017, "نمای": 6018, "زندگیتو": 6019, "زندگیمون": 6020, "ميگه": 6021, "اينه": 6022, "اعتی": 6023, "ناخوداگاه": 6024, "سهراب": 6025, "قربانی": 6026, "تلویزی": 6027, "خاطرا": 6028, "زیباتر": 6029, "this": 6030, "بذاری": 6031, "مخفی": 6032, "دعوت": 6033, "وعده": 6034, "حسین_": 6035, "اشتباهی": 6036, "بنابر": 6037, "محیط": 6038, "انلاین": 6039, "ain": 6040, "ببرید": 6041, "زانو": 6042, "كوت": 6043, "لغ": 6044, "ﻣﻦ": 6045, "🖕🏻": 6046, "انهایی": 6047, "انگاه": 6048, "ازون": 6049, "روبرو": 6050, "یهویی": 6051, "روزنوشت": 6052, "فرانسوی": 6053, "سرزنش": 6054, "حرفه": 6055, "تونستی": 6056, "اکثر": 6057, "haei": 6058, "درونم": 6059, "بگذارید": 6060, "صورتت": 6061, "خطا": 6062, "جنون": 6063, "معشوقه": 6064, "علي_ق": 6065, "اهمیتی": 6066, "chizhaei": 6067, "chizhaeihast": 6068, ":«": 6069, "بنو": 6070, "تس": 6071, "جانی": 6072, "سفت": 6073, "لج": 6074, "𝖻𝖾": 6075, "درمی": 6076, "اسمت": 6077, "تنهای": 6078, "دايم": 6079, "قطار": 6080, "بوری": 6081, "کوفسکی": 6082, "ven": 6083, "اصرار": 6084, "محض": 6085, "سوس": 6086, "درستی": 6087, "میدانم": 6088, "تشکر": 6089, "جلسه": 6090, "ted": 6091, "حلقه": 6092, "چارلز": 6093, "سازد": 6094, "وحشی": 6095, "پارتنرم": 6096, "اندیشه": 6097, "کوچولوی": 6098, "زحمت": 6099, "ct": 6100, "gi": 6101, "بکن": 6102, "جايي": 6103, "درام": 6104, "لبخندی": 6105, "نخواهم": 6106, "هل": 6107, "ﮐﺮﺩ": 6108, "ﻬﺎ": 6109, "انکار": 6110, "بهونه": 6111, "ادبیات": 6112, "بیل": 6113, "بیچاره": 6114, "ویران": 6115, "شماست": 6116, "حالتو": 6117, "کوب": 6118, "بازار": 6119, "دنیارو": 6120, "فراتر": 6121, "نظرت": 6122, "نگیر": 6123, "دخترک": 6124, "خیالم": 6125, "خدایی": 6126, "فهمد": 6127, "کلافه": 6128, "میدونه": 6129, "عباس_": 6130, "اینستاگ": 6131, "مسافرت": 6132, "تفریح": 6133, "co": 6134, "عده": 6135, "عاق": 6136, "نتوان": 6137, "𝗈𝗈": 6138, "اراده": 6139, "ندید": 6140, "بهمن": 6141, "اشپز": 6142, "دلار": 6143, "تنش": 6144, "بارانی": 6145, "بارونی": 6146, "بزارم": 6147, "بخوان": 6148, "همانطور": 6149, "گلوله": 6150, "جیب": 6151, "رسند": 6152, "تحلیل": 6153, "هايت": 6154, "نزدیکی": 6155, "چيزی": 6156, "جنسی": 6157, "دانیم": 6158, "ضربان": 6159, "متوقف": 6160, "خجالت": 6161, "بنابراین": 6162, "ill": 6163, "up": 6164, "wan": 6165, "بستم": 6166, "جویی": 6167, "ناه": 6168, "وضع": 6169, "ﯿﺮ": 6170, "میانه": 6171, "میشدم": 6172, "بیاورد": 6173, "الن": 6174, "روزانه": 6175, "رفتنش": 6176, "بخونید": 6177, "احساساتی": 6178, "بگذرد": 6179, "کلید": 6180, "گشتم": 6181, "تقسیم": 6182, "فلس": 6183, "will": 6184, "جذب": 6185, "حاضرم": 6186, "بفهمم": 6187, "sain": 6188, "پايولو": 6189, "ﺩﯾﮕ": 6190, "Re": 6191, "ثی": 6192, "خصو": 6193, "دما": 6194, "ذاره": 6195, "سحر": 6196, "كان": 6197, "میند": 6198, "میگفتم": 6199, "میرود": 6200, "تونیم": 6201, "خوراکی": 6202, "همتون": 6203, "بیارم": 6204, "ورژن": 6205, "اونها": 6206, "احوال": 6207, "بودید": 6208, "بداند": 6209, "شنوی": 6210, "برامون": 6211, "شانس": 6212, "خوردی": 6213, "کشند": 6214, "رنجی": 6215, "علق": 6216, "بذارم": 6217, "مدیتی": 6218, "تصویری": 6219, "حمید_": 6220, "shk": 6221, "تبریک": 6222, "متاسفانه": 6223, "کاهش": 6224, "واکنش": 6225, "نوتیف": 6226, "یاس": 6227, "انقلاب": 6228, "نیا": 6229, "سیاره": 6230, "نمیشم": 6231, "نمیگم": 6232, "بدانی": 6233, "کیل": 6234, "بخشه": 6235, "بخنده": 6236, "اخم": 6237, "اندکی": 6238, "شبایی": 6239, "بخونم": 6240, "دیوون": 6241, "مقصد": 6242, "میتواند": 6243, "زمستون": 6244, "بروند": 6245, "فرود": 6246, "بشین": 6247, "اذیتت": 6248, "میکشه": 6249, "میخام": 6250, "جالبی": 6251, "پیشنهاد_کتاب": 6252, "اعتیاد": 6253, "فلسفه": 6254, "fore": 6255, "عرض": 6256, "قي": 6257, "قایق": 6258, "هـ": 6259, "پتو": 6260, "یجوری": 6261, "ﺒﺎ": 6262, "رودی": 6263, "منف": 6264, "دودی": 6265, "ماق": 6266, "گرما": 6267, "شمس": 6268, "نمون": 6269, "فرض": 6270, "دستتو": 6271, "دستام": 6272, "دستاتو": 6273, "ميدون": 6274, "بزاری": 6275, "فکرم": 6276, "ولى": 6277, "حسودی": 6278, "ist": 6279, "متعلق": 6280, "گمشده": 6281, "بخوره": 6282, "فراوان": 6283, "نفره": 6284, "فهمیدی": 6285, "باورم": 6286, "كنن": 6287, "عالمه": 6288, "صورتم": 6289, "اریانفر": 6290, "اميرعلي_ق": 6291, "بگ": 6292, "حاج": 6293, "دایی": 6294, "نخور": 6295, "يز": 6296, "ﯾﻢ": 6297, "میمیرم": 6298, "میمونی": 6299, "توس": 6300, "راح": 6301, "امر": 6302, "ردم": 6303, "منز": 6304, "الهام": 6305, "گین": 6306, "...\"": 6307, "داشتنش": 6308, "قید": 6309, "فکرش": 6310, "قشنگت": 6311, "صدایت": 6312, "طرفه": 6313, "میدانی": 6314, "بشینم": 6315, "ابتدا": 6316, "تقصیر": 6317, "اپلود": 6318, "St": 6319, "mu": 6320, "جاف": 6321, "حبس": 6322, "دندان": 6323, "دکمه": 6324, "شف": 6325, "عجب": 6326, "غمی": 6327, "فك": 6328, "مظ": 6329, "مایی": 6330, "ممنو": 6331, "نمانده": 6332, "وج": 6333, "پـ": 6334, "کــ": 6335, "یك": 6336, "ﺑﺮ": 6337, "ﺷﺘ": 6338, "😂😂": 6339, "رویم": 6340, "الوده": 6341, "گیریم": 6342, "نمیدم": 6343, "اسپ": 6344, "دلبری": 6345, "اشته": 6346, "قدری": 6347, "شنا": 6348, "براورد": 6349, "مترو": 6350, "میخوان": 6351, "بخوری": 6352, "رسیدی": 6353, "انجامش": 6354, "فراموشش": 6355, "هايى": 6356, "پسره": 6357, "رقصی": 6358, "بگویی": 6359, "كوچ": 6360, "سادگی": 6361, "مفهوم": 6362, "توصیه": 6363, "We": 6364, "every": 6365, "بپرسی": 6366, "تمو": 6367, "شگفت": 6368, "ماری": 6369, "متولد": 6370, "ﺧﻮﺍ": 6371, "خوانی": 6372, "داري": 6373, "اهو": 6374, "چینی": 6375, "ورزی": 6376, "سرباز": 6377, "حالتی": 6378, "پرتق": 6379, "بعدها": 6380, "دنیام": 6381, "چشمه": 6382, "وصف": 6383, "لینک": 6384, "مطمينم": 6385, "کتابخانه": 6386, "لومتر": 6387, "عذر": 6388, "ممنون": 6389, "خصوصی": 6390, "shkb": 6391, "جافکری": 6392, "=))": 6393, "But": 6394, "Go": 6395, "Ma": 6396, "km": 6397, "دز": 6398, "قادر": 6399, "ینی": 6400, "ﻫﺮ": 6401, "𝗁𝖾": 6402, "𝗈𝗋": 6403, "خونی": 6404, "بینید": 6405, "گیاه": 6406, "داريم": 6407, "ادمارو": 6408, "معصو": 6409, "معذرت": 6410, "مثال": 6411, "مونو": 6412, "مردها": 6413, "تابستان": 6414, "تنهات": 6415, "امین": 6416, "قراری": 6417, "ارزشمند": 6418, "ديم": 6419, "اغما": 6420, "اموزش": 6421, "گیرن": 6422, "کلاسی": 6423, "ـیـ": 6424, "برگشتم": 6425, "عروس": 6426, "ways": 6427, "a_shkb": 6428, "اخلاقی": 6429, "تلویزیون": 6430, "It": 6431, "who": 6432, "بایی": 6433, "جرات": 6434, "سند": 6435, "ضبط": 6436, "كتاب": 6437, "مک": 6438, "محال": 6439, "نسیم": 6440, "هدر": 6441, "وي": 6442, "چرت": 6443, "چاپ": 6444, "گام": 6445, "𝗂𝗍": 6446, "میکردیم": 6447, "میبینه": 6448, "راج": 6449, "باکس": 6450, "نیچه": 6451, "ادل": 6452, "برفی": 6453, "تیره": 6454, "سیمین": 6455, "استی": 6456, "دلتون": 6457, "نمایی": 6458, "زندگیمی": 6459, "اخته": 6460, "بلدی": 6461, "خیلیا": 6462, "نيم": 6463, "شایدم": 6464, "نظام": 6465, "نسل": 6466, "ari": 6467, "علی_": 6468, "self": 6469, "روشنایی": 6470, "بوسید": 6471, "بشناسی": 6472, "همواره": 6473, "فارغ": 6474, "نذار": 6475, "معتاد": 6476, "𝗂𝗇𝗀": 6477, "توجهی": 6478, "هواپیما": 6479, "مدیتیشن": 6480, "Mi": 6481, "Th": 6482, "ex": 6483, "بمو": 6484, "بتواند": 6485, "داو": 6486, "طریق": 6487, "ظم": 6488, "كشي": 6489, "نبینم": 6490, "هراس": 6491, "کاس": 6492, "باتو": 6493, "نیاد": 6494, "روست": 6495, "ریختن": 6496, "ماتم": 6497, "اسایش": 6498, "نمونه": 6499, "شتن": 6500, "نواز": 6501, "ment": 6502, "جودی": 6503, "mir": 6504, "چیزو": 6505, "ناامیدی": 6506, "مهارت": 6507, "بخونی": 6508, "بخواند": 6509, "جایش": 6510, "جایگزی": 6511, "وجودش": 6512, "ندیدی": 6513, "درستش": 6514, "let": 6515, "شعور": 6516, "مطلق": 6517, "see": 6518, "دیدنت": 6519, "دیدنش": 6520, "بزنن": 6521, "ایستاد": 6522, "دریایی": 6523, "خصوص": 6524, "kimi": 6525, "اذر": 6526, "حکایت": 6527, "اصطلاح": 6528, ").": 6529, "By": 6530, "تشوی": 6531, "خرو": 6532, "ذارم": 6533, "رند": 6534, "قاع": 6535, "نای": 6536, "ناشی": 6537, "پزش": 6538, "میکس": 6539, "باف": 6540, "بیایی": 6541, "کنسرت": 6542, "برسیم": 6543, "دني": 6544, "بدنم": 6545, "کوبی": 6546, "افق": 6547, "ound": 6548, "حسای": 6549, "مرهم": 6550, "میخورم": 6551, "یادمان": 6552, "تعلق": 6553, "کشتی": 6554, "ars": 6555, "اوردی": 6556, "صورتش": 6557, "دریای": 6558, "حرص": 6559, "سفره": 6560, "امونو": 6561, "یواشکی": 6562, "aby": 6563, "رنگین": 6564, "ﺩﺍﺭ": 6565, "پشیمون": 6566, "تسلیم": 6567, "تردید": 6568, "hy": 6569, "use": 6570, "تخم": 6571, "ثال": 6572, "جرم": 6573, "جین": 6574, "فعال": 6575, "مبل": 6576, "هول": 6577, "پله": 6578, "چاه": 6579, "چتر": 6580, "‏-": 6581, "میزند": 6582, "میتونن": 6583, "خورم": 6584, "روایت": 6585, "شیوه": 6586, "ایینه": 6587, "روزبه": 6588, "چهارم": 6589, "ميگم": 6590, "کیلومتر": 6591, "miss": 6592, "عشقش": 6593, "شونت": 6594, "پسرا": 6595, "نزدي": 6596, "ream": 6597, "مهمونی": 6598, "مقصر": 6599, "تحویل": 6600, "شکلات": 6601, "شرح": 6602, "تکون": 6603, "حقوق": 6604, "یادمه": 6605, "اثری": 6606, "برگرده": 6607, "خانوم": 6608, "ایستگاه": 6609, "انداخته": 6610, "میلیارد": 6611, "محمود_": 6612, "saina_shkb": 6613, "To": 6614, "ge": 6615, "kh": 6616, "بخواهی": 6617, "تض": 6618, "جلب": 6619, "حادث": 6620, "دزد": 6621, "سکو": 6622, "شباه": 6623, "عض": 6624, "عك": 6625, "فامی": 6626, "ملا": 6627, "نشم": 6628, "نات": 6629, "یابد": 6630, "ﺪﺍ": 6631, "🤘🏻": 6632, "میگ": 6633, "میداد": 6634, "مناس": 6635, "برسم": 6636, "اینهمه": 6637, "تاکسی": 6638, "نمیدانم": 6639, "زندانی": 6640, "سرطان": 6641, "افی": 6642, "رفتند": 6643, "کارای": 6644, "رویی": 6645, "رویایی": 6646, "عیب": 6647, "چندان": 6648, "اتفاقا": 6649, "بهترين": 6650, "بگذارم": 6651, "پاتر": 6652, "رضایت": 6653, "مستقیم": 6654, "قفلی": 6655, "بستنی": 6656, "مزاح": 6657, "بشنوم": 6658, "اطلاعات": 6659, "eyes": 6660, "ie": 6661, "night": 6662, "بنف": 6663, "تغ": 6664, "سپری": 6665, "ضای": 6666, "عن": 6667, "عدم": 6668, "ـو": 6669, "فاج": 6670, "قور": 6671, "پرید": 6672, "کشه": 6673, "درحال": 6674, "همشون": 6675, "وره": 6676, "لااقل": 6677, "بارد": 6678, "افسوس": 6679, "خواهرم": 6680, "نشونه": 6681, "عاشقم": 6682, "ندیدم": 6683, "بيدار": 6684, "مقدار": 6685, "har": 6686, "ent": 6687, "خيلى": 6688, "تفاوتی": 6689, "موندم": 6690, "لایق": 6691, "ترسیدم": 6692, "مصط": 6693, "right": 6694, "بعضي": 6695, "اقیانوس": 6696, "مکالمه": 6697, "معاشرت": 6698, "اینستاگرام": 6699, "حادثه": 6700, "فاجعه": 6701, "Man": 6702, "Ro": 6703, "gra": 6704, "ye": 6705, "تفکر": 6706, "تــ": 6707, "جار": 6708, "جاری": 6709, "حي": 6710, "خسرو": 6711, "سبب": 6712, "صفر": 6713, "قاط": 6714, "مطرح": 6715, "هار": 6716, "ولا": 6717, "گست": 6718, "یارو": 6719, "ﺘﯽ": 6720, "ﺳﺎ": 6721, "رومن": 6722, "درحالی": 6723, "ونگوگ": 6724, "اشغال": 6725, "موجب": 6726, "زیاده": 6727, "دلخور": 6728, "روزنامه": 6729, "ميره": 6730, "more": 6731, "lie": 6732, "بلندی": 6733, "جوون": 6734, "زنن": 6735, "لبخندت": 6736, "دنبالت": 6737, "بینمون": 6738, "دفن": 6739, "خطاب": 6740, "پناهی": 6741, "قفس": 6742, "شلوغی": 6743, "میخاد": 6744, "انداخت": 6745, "لبام": 6746, "ople": 6747, "تپش": 6748, "دشوار": 6749, "حرمت": 6750, "ara": 6751, "بگرد": 6752, "بایست": 6753, "حج": 6754, "عز": 6755, "قورت": 6756, "كنی": 6757, "مقی": 6758, "نحو": 6759, "𝗈𝗐": 6760, "میـ": 6761, "روى": 6762, "بررسی": 6763, "لیت": 6764, "نگری": 6765, "دهن": 6766, "ابرو": 6767, "ابقه": 6768, "دلمان": 6769, "دليل": 6770, "ادمهایی": 6771, "اتم": 6772, "نوش": 6773, "شبيه": 6774, "اعماق": 6775, "مشتا": 6776, ":)💔": 6777, "اجرا": 6778, "میزنن": 6779, "صبحانه": 6780, "همونجا": 6781, "lea": 6782, "میگیرد": 6783, "صداتو": 6784, "اتوبوس": 6785, "پلک": 6786, "how": 6787, "کالکشن": 6788, "وظی": 6789, "Don": 6790, "Ha": 6791, "rom": 6792, "اباد": 6793, "تاز": 6794, "دشت": 6795, "شرا": 6796, "شکن": 6797, "مــ": 6798, "نباشید": 6799, "کج": 6800, "گى": 6801, "𝗈𝗏𝖾": 6802, "اندر": 6803, "انصاف": 6804, "سیگاری": 6805, "نگفتی": 6806, "زیستن": 6807, "ویدیو": 6808, "هیم": 6809, "نمره": 6810, "روزگاری": 6811, "ميان": 6812, "ميشد": 6813, "بدت": 6814, "بدانم": 6815, "ايی": 6816, "کنده": 6817, "حسم": 6818, "نفسم": 6819, "برداری": 6820, "فردای": 6821, "اعتراض": 6822, "دیدمت": 6823, "مهربونی": 6824, "هواتو": 6825, "خندیدم": 6826, "بشنوی": 6827, "افتادن": 6828, "سینما": 6829, "دراورد": 6830, "فرهاد": 6831, "يعني": 6832, "انتقام": 6833, "محتاج": 6834, "مبتلا": 6835, "جزيیات": 6836, "دوتایی": 6837, "ty": 6838, "دد": 6839, "سپه": 6840, "لاس": 6841, "مذه": 6842, "نبودیم": 6843, "کشان": 6844, "ﺗﺎ": 6845, "ﺯﻧﺪ": 6846, "ندن": 6847, "منح": 6848, "ترتی": 6849, "ترکم": 6850, "موهایت": 6851, "نمیشن": 6852, "اوار": 6853, "اومت": 6854, "اسمی": 6855, "دلگیر": 6856, "اشتم": 6857, "ness": 6858, "کارات": 6859, "براه": 6860, "لبم": 6861, "مرگی": 6862, "بخونیم": 6863, "ارزشی": 6864, "ارامشی": 6865, "مجله": 6866, "بگذاریم": 6867, "دنبالش": 6868, "گرمای": 6869, "چوبی": 6870, "اغوشم": 6871, "تراپی": 6872, "ﻫﺎﯼ": 6873, "چرخی": 6874, "بروید": 6875, "صالحی": 6876, "think": 6877, "پیرمرد": 6878, "کثیف": 6879, "عكاس": 6880, ".🥺": 6881, "Is": 6882, "بشید": 6883, "بپو": 6884, "بمانی": 6885, "بتوانم": 6886, "تمیز": 6887, "تعهد": 6888, "ثروت": 6889, "جزی": 6890, "سـ": 6891, "سابق": 6892, "عرف": 6893, "فقر": 6894, "ناد": 6895, "نشدم": 6896, "پرم": 6897, "گش": 6898, "میفر": 6899, "میارم": 6900, "میشوی": 6901, "نداده": 6902, "امدم": 6903, "درجه": 6904, "اینقد": 6905, "ماتی": 6906, "دلخوشی": 6907, "دلخوری": 6908, "برایشان": 6909, "مانع": 6910, "ادمک": 6911, "هیچگاه": 6912, "بدانید": 6913, "کیوت": 6914, "اعلام": 6915, "نشنی": 6916, "کشیدی": 6917, "مهمترین": 6918, "نیازمند": 6919, "مقاومت": 6920, "رسول": 6921, "درونگرا": 6922, "هايش": 6923, "داستای": 6924, "بسيار": 6925, "خلاص": 6926, "جنبه": 6927, "پاکت": 6928, "چشمانم": 6929, "اشنایی": 6930, "about": 6931, "خالیه": 6932, "ربطی": 6933, "پشیمان": 6934, "خوشمزه": 6935, "فنجان": 6936, "su": 6937, "بروز": 6938, "تسکی": 6939, "خام": 6940, "شل": 6941, "صرافی": 6942, "عبد": 6943, "فدای": 6944, "قايل": 6945, "پاه": 6946, "چل": 6947, "ژاپ": 6948, "گزار": 6949, "➖➖": 6950, "ﺑﯿ": 6951, "ﻓﺘ": 6952, "𝗅𝖾": 6953, "𝗎𝗍": 6954, "باله": 6955, "روبه": 6956, "نمیشی": 6957, "ویلی": 6958, "احمدی": 6959, "مياد": 6960, "بخت": 6961, "بخشم": 6962, "قین": 6963, "پرسم": 6964, "صدام": 6965, "خوشایند": 6966, "ful": 6967, "story": 6968, "دخانه": 6969, "فهمیدن": 6970, "مینوی": 6971, "برویم": 6972, "بنداز": 6973, "فهمند": 6974, "صداها": 6975, "ماله": 6976, "بگویند": 6977, "على": 6978, "غمگینی": 6979, "هاشو": 6980, "پرداز": 6981, "خوابیده": 6982, "خارجی": 6983, "تولدت": 6984, "وفادار": 6985, "شناخته": 6986, "فضا": 6987, "جعبه": 6988, "بمانم": 6989, "پزشک": 6990, "عجله": 6991, "رستوران": 6992, "پیراهن": 6993, "پرتقال": 6994, "سپهری": 6995, "Har": 6996, "bod": 6997, "fi": 6998, "hu": 6999, "ving": 7000, "بپوش": 7001, "تك": 7002, "خست": 7003, "زنج": 7004, "شير": 7005, "فرف": 7006, "نری": 7007, "ناخ": 7008, "نتونی": 7009, "ﻧﺎ": 7010, "𝖺𝗒": 7011, "میدان": 7012, "میخنده": 7013, "میفهمم": 7014, "ارایش": 7015, "ستار": 7016, "باورت": 7017, "رودخانه": 7018, "دارایی": 7019, "مول": 7020, "خودتم": 7021, "گرگ": 7022, "زین": 7023, "اسون": 7024, "کید": 7025, "بخرم": 7026, "معرفت": 7027, "معتق": 7028, "گذارم": 7029, "توني": 7030, "کلاه": 7031, "ــا": 7032, "قلبتو": 7033, "گرفتند": 7034, "نياز": 7035, "پادشاه": 7036, "يكى": 7037, "درواقع": 7038, "بذارید": 7039, "شامل": 7040, "میومد": 7041, "نشدنی": 7042, "طبیع": 7043, "!!!": 7044, "محمد_": 7045, "علاقم": 7046, "اندیشی": 7047, "هشتاد": 7048, "own": 7049, "world": 7050, "هورمون": 7051, "پیتزا": 7052, "مفید": 7053, "منزوی": 7054, "وظیفه": 7055, "Gen": 7056, "خشونت": 7057, "زب": 7058, "شراب": 7059, "عمه": 7060, "غمت": 7061, "ـن": 7062, "فاع": 7063, "محس": 7064, "میگوید": 7065, "دري": 7066, "همسرش": 7067, "دول": 7068, "لیو": 7069, "وقفه": 7070, "تابی": 7071, "ابله": 7072, "لامی": 7073, "رفاقت": 7074, "new": 7075, "کینه": 7076, "حرفاش": 7077, "لبت": 7078, "نشدی": 7079, "قران": 7080, "جایزه": 7081, "بینن": 7082, "بدهی": 7083, "بگذارد": 7084, "اصلاح": 7085, "بکشه": 7086, "هامان": 7087, "توییت": 7088, "خانواد": 7089, "گوشیم": 7090, "سراسر": 7091, "پناهگاه": 7092, "سرشار": 7093, "دایره": 7094, "شکیبایی": 7095, "جالبه": 7096, "عکاس": 7097, "افریده": 7098, "مخصوصا": 7099, "روزمره": 7100, "رعایت": 7101, "نرگس": 7102, "براورده": 7103, "براهنی": 7104, "ژاپنی": 7105, "If": 7106, "ببریم": 7107, "تعی": 7108, "ثرو": 7109, "شادم": 7110, "فان": 7111, "كی": 7112, "ناق": 7113, "نتونستم": 7114, "يط": 7115, "يق": 7116, "انــ": 7117, "تولید": 7118, "بیفتد": 7119, "استخوان": 7120, "دهه": 7121, "ابرا": 7122, "دلشون": 7123, "خیص": 7124, "همیم": 7125, "سره": 7126, "نیستید": 7127, "حالمون": 7128, "اونوقت": 7129, "ميكرد": 7130, "اخبار": 7131, "ايه": 7132, "جاهایی": 7133, "کنارمی": 7134, "سوزان": 7135, "مشاه": 7136, "هوس": 7137, "هوایی": 7138, "میزدم": 7139, "گلوی": 7140, "وسایل": 7141, "مغرور": 7142, "always": 7143, "بگوییم": 7144, "دلتنگت": 7145, "شاهین": 7146, "قضیه": 7147, "شتیم": 7148, "مبارزه": 7149, "احمقانه": 7150, "عروسک": 7151, "تصادف": 7152, "منظورم": 7153, "چسبیده": 7154, "kmz": 7155, "تعیین": 7156, "Wi": 7157, "qu": 7158, "ببوس": 7159, "حموم": 7160, "عود": 7161, "فکت": 7162, "لک": 7163, "مخاط": 7164, "نر": 7165, "نما": 7166, "واض": 7167, "چمد": 7168, "ﮑﯽ": 7169, "ﺁﻥ": 7170, "ﻣﺎﻥ": 7171, "ﻭﻗ": 7172, "𝖾𝗌": 7173, "𝗅𝗅": 7174, "میفته": 7175, "ایلی": 7176, "ادب": 7177, "برقرار": 7178, "اینتر": 7179, "بودنم": 7180, "نمیکند": 7181, "نهفته": 7182, "سرانجام": 7183, "oul": 7184, "حرفام": 7185, "بازگشت": 7186, "نشستن": 7187, "صدتا": 7188, "دوربین": 7189, "اموز": 7190, "میتونید": 7191, "منتشر": 7192, "صداي": 7193, "حدود": 7194, "ساختم": 7195, "بذاره": 7196, "غذایی": 7197, "هيچكس": 7198, "حقیقی": 7199, "بوسیدم": 7200, "نازک": 7201, "بفهمد": 7202, "نخستین": 7203, "فیلمی": 7204, "گندم": 7205, "ساعتی": 7206, "بفرس": 7207, "تبریزی": 7208, "گذارند": 7209, "طلایی": 7210, "تعطیل": 7211, "سبزی": 7212, "ترتیب": 7213, "ol": 7214, "sk": 7215, "اکی": 7216, "بدر": 7217, "تکنی": 7218, "زای": 7219, "عقی": 7220, "قق": 7221, "قاي": 7222, "مریم": 7223, "نخواست": 7224, "نخواهی": 7225, "پاشی": 7226, "گاو": 7227, "یاری": 7228, "ندگان": 7229, "خودی": 7230, "ادا": 7231, "المل": 7232, "برتر": 7233, "دوچرخه": 7234, "بودي": 7235, "مواد": 7236, "موندی": 7237, "...»": 7238, "نميك": 7239, "پیپر": 7240, "خیل": 7241, "ميكردم": 7242, "وقتها": 7243, "اختل": 7244, "اندازد": 7245, "اطمین": 7246, "شما_": 7247, "مهتاب": 7248, "میخورد": 7249, "یادداشت": 7250, "بخورید": 7251, "باشيد": 7252, "افتم": 7253, "نظری": 7254, "مجنون": 7255, "پیام_": 7256, "رضا_": 7257, "والپیپر": 7258, "فرزندان": 7259, "ساعته": 7260, "عقاید": 7261, "ببندی": 7262, "چالش": 7263, "پارتنرتون": 7264, "اختلاف": 7265, "مشهور": 7266, "تحصیل": 7267, "محمدرضا": 7268, "کرونا": 7269, "ناهار": 7270, "body": 7271, "De": 7272, "mb": 7273, "اخی": 7274, "جس": 7275, "جسمی": 7276, "خـ": 7277, "دع": 7278, "زاری": 7279, "صابر": 7280, "طب": 7281, "عـ": 7282, "لایه": 7283, "نترسی": 7284, "وز": 7285, "وحد": 7286, "چمن": 7287, "ﺑﺪ": 7288, "ﻧﯽ": 7289, "نیک": 7290, "درختی": 7291, "الم": 7292, "فتن": 7293, "نگام": 7294, "مور": 7295, "اوریم": 7296, "any": 7297, "دوستای": 7298, "پیری": 7299, "ميرم": 7300, "ميبي": 7301, "گوگل": 7302, "هیچکی": 7303, "بوکوفسکی": 7304, "کوم": 7305, "رفتاری": 7306, "کمرنگ": 7307, "خواهش": 7308, "میخونم": 7309, "یادتون": 7310, "سوخته": 7311, "بگین": 7312, "چشمش": 7313, "بدونم": 7314, "گلستان": 7315, "دختران": 7316, "عوضی": 7317, "مادرت": 7318, "پاییزی": 7319, "مادربزرگ": 7320, "الوم": 7321, "حلش": 7322, "mahi": 7323, "میوفته": 7324, "فرصتی": 7325, "چيزى": 7326, "صمیمیت": 7327, "خریده": 7328, "درامد": 7329, "نزار_": 7330, "گرفتیم": 7331, "بنشین": 7332, "مهدی_": 7333, "مشتاق": 7334, "اطمینان": 7335, "mind": 7336, "other": 7337, "pl": 7338, "qal": 7339, "va": 7340, "؟”": 7341, "سانس": 7342, "سعادت": 7343, "شری": 7344, "فون": 7345, "نرفته": 7346, "نمونده": 7347, "وون": 7348, "ورود": 7349, "پونه": 7350, "چى": 7351, "کادو": 7352, "یالوم": 7353, "ﺗﺮ": 7354, "𝗈𝗆": 7355, "میدارم": 7356, "میبره": 7357, "بالم": 7358, "خواید": 7359, "منزل": 7360, "تربیت": 7361, "موراک": 7362, "برایمان": 7363, "ميگي": 7364, "بوت": 7365, "بدانیم": 7366, "ولش": 7367, "بلده": 7368, "فیز": 7369, "کسب": 7370, "مهند": 7371, "میخوری": 7372, "hile": 7373, "تنهاست": 7374, "بگیم": 7375, "قربان": 7376, "خوابش": 7377, "red": 7378, "حتى": 7379, "مهمون": 7380, "تنگه": 7381, "فهمیده": 7382, "ers": 7383, "پنجم": 7384, "ارتفاع": 7385, "جورج": 7386, "تشخیص": 7387, "مخالف": 7388, "شکستن": 7389, "قفسه": 7390, "هفتاد": 7391, "شلوغه": 7392, "سيگار": 7393, "شناختم": 7394, "عروسی": 7395, "people": 7396, "خطرناک": 7397, "جنگیدن": 7398, "معتقد": 7399, "پیوند": 7400, "جمعیت": 7401, "گنجشک": 7402, "••••": 7403, "سلطانی": 7404, "نزار_قبانی": 7405, "موراکامی": 7406, "((": 7407, "*-": 7408, "ame": 7409, "ron": 7410, "جغ": 7411, "خطی": 7412, "ذات": 7413, "شال": 7414, "ظلم": 7415, "عظیم": 7416, "غو": 7417, "غام": 7418, "قدیم": 7419, "لاو": 7420, "نباشیم": 7421, "ﻣﻮ": 7422, "𝖻𝖺": 7423, "میرسی": 7424, "ایشان": 7425, "برج": 7426, "نگاش": 7427, "هرچند": 7428, "...؟": 7429, "ادمه": 7430, "پیره": 7431, "سرچ": 7432, "انین": 7433, "بارم": 7434, "دستامو": 7435, "کمر": 7436, "مونن": 7437, "محافظ": 7438, "همینجوری": 7439, "جایگاه": 7440, "مهمانی": 7441, "مسابقه": 7442, "كردي": 7443, "ark": 7444, "حسینی": 7445, "bemahi": 7446, "مارک": 7447, "معنیش": 7448, "پردازی": 7449, "بگیرند": 7450, "بابام": 7451, "هاروکی": 7452, "احمد_": 7453, "خنثی": 7454, "حقیقتا": 7455, "حوصلگی": 7456, "مصطفی": 7457, "پیام_ناشناس": 7458, "طبقه": 7459, "qalbemahi": 7460, "Gm": 7461, "Just": 7462, "say": 7463, "بایل": 7464, "جارو": 7465, "حمل": 7466, "شاخ": 7467, "شکم": 7468, "ضرو": 7469, "كام": 7470, "كود": 7471, "پرا": 7472, "پاری": 7473, "پدید": 7474, "ﮔﻔ": 7475, "ﯾﯽ": 7476, "ﺷﻮ": 7477, "میخندم": 7478, "ایز": 7479, "بهاری": 7480, "خوانم": 7481, "درکش": 7482, "مناف": 7483, "دوبار": 7484, "لیک": 7485, "شیمی": 7486, "نمیکردم": 7487, "نمیدونه": 7488, "دلایل": 7489, "لاتی": 7490, "روزت": 7491, "فرمان": 7492, "نوری": 7493, "دستانت": 7494, "die": 7495, "ميشن": 7496, "بوسم": 7497, "دارمت": 7498, "وقتش": 7499, "ings": 7500, "مرک": 7501, "چیزیو": 7502, "انتها": 7503, "دورتر": 7504, "گردند": 7505, "بریده": 7506, "پیشش": 7507, "کشیم": 7508, "بدهند": 7509, "ste": 7510, "اسیر": 7511, "زدند": 7512, "نویسی": 7513, "داستانی": 7514, "تشنه": 7515, "جلال": 7516, "بزنند": 7517, "بحران": 7518, "مصاح": 7519, "جذابی": 7520, "سفارش": 7521, "بنویسید": 7522, "سخنرانی": 7523, "بفهمیم": 7524, "وحشتناک": 7525, "یلدا": 7526, "بدانند": 7527, "ali_": 7528, "ﺑﺮﺍﯼ": 7529, "هردو": 7530, "اشپزخانه": 7531, "حمید_سلیمی": 7532, "ویلیام": 7533, "مشاهده": 7534, "*-*": 7535, "When": 7536, "برون": 7537, "بشوم": 7538, "بکشید": 7539, "بنظرم": 7540, "بمیرد": 7541, "حیر": 7542, "خاست": 7543, "سپی": 7544, "طرا": 7545, "طلاق": 7546, "عظ": 7547, "نكن": 7548, "نرود": 7549, "نخورده": 7550, "يير": 7551, "کد": 7552, "کیک": 7553, "کبو": 7554, "کامی": 7555, "گشته": 7556, "ﯿﺰ": 7557, "اروین": 7558, "ستو": 7559, "توى": 7560, "باغه": 7561, "امریک": 7562, "درکت": 7563, "لیلا": 7564, "موبایل": 7565, "نمیخوای": 7566, "مانم": 7567, "یافته": 7568, "انیمیشن": 7569, "رهاش": 7570, "ميز": 7571, "بخر": 7572, "افش": 7573, "اختص": 7574, "بازهم": 7575, "داداش": 7576, "نشر": 7577, "ناپذیر": 7578, "حساسی": 7579, "گاهي": 7580, "صداقت": 7581, "امیز": 7582, "دير": 7583, "بخندیم": 7584, "اعتراف": 7585, "ناراحته": 7586, "بندم": 7587, "پسرش": 7588, "ارزوهای": 7589, "کلاغ": 7590, "اشکالی": 7591, "خلاقی": 7592, "عجیبه": 7593, "ابرها": 7594, "ــــــــ": 7595, "Your": 7596, "پذیرش": 7597, "بیشترین": 7598, "برداشته": 7599, "back": 7600, "وسیله": 7601, "ببوسمت": 7602, "شجاعت": 7603, "نزديك": 7604, "فامیل": 7605, "ali_gh": 7606, ".♥": 7607, "_به": 7608, "from": 7609, "tle": 7610, "جنو": 7611, "حما": 7612, "خصی": 7613, "طلا": 7614, "عکسی": 7615, "ـد": 7616, "فند": 7617, "كاف": 7618, "لش": 7619, "موقت": 7620, "نبرد": 7621, "وند": 7622, "ویک": 7623, "يند": 7624, "ﺑﮕ": 7625, "ﺸﻪ": 7626, "میون": 7627, "انرا": 7628, "اردو": 7629, "بها": 7630, "بهبود": 7631, "نیکو": 7632, "ادام": 7633, "امار": 7634, "دره": 7635, "گیج": 7636, "سیستم": 7637, "ترسه": 7638, "ورق": 7639, "نمک": 7640, "وقتیه": 7641, "رفع": 7642, "تنفر": 7643, "کیشن": 7644, "گذران": 7645, "جوش": 7646, "کمبود": 7647, "ناگفته": 7648, "عشقم": 7649, "مردمی": 7650, "سوزد": 7651, "گریز": 7652, "دردت": 7653, "گردنت": 7654, "خواستنی": 7655, "فراهم": 7656, "تصو": 7657, "همانند": 7658, "گلدان": 7659, "رسان": 7660, "اتفاقای": 7661, "چشمی": 7662, "نقشه": 7663, "نقاط": 7664, "علاقت": 7665, "پروفایل": 7666, "لذتی": 7667, "درونت": 7668, "شادمانی": 7669, "بدنت": 7670, "نشینی": 7671, "عملی": 7672, "مستقل": 7673, "خوابید": 7674, "چشمانش": 7675, "خودتونو": 7676, "بپرس": 7677, "بدبخت": 7678, "جستجو": 7679, "عطار": 7680, "میدونستم": 7681, "دویدن": 7682, "بگير": 7683, "عجيب": 7684, "بخوابیم": 7685, "shid": 7686, "شهریار": 7687, "ببوسم": 7688, "حیوانات": 7689, "تغيير": 7690, "منحصر": 7691, "تسکین": 7692, "تکنیک": 7693, "Gn": 7694, "Of": 7695, "jo": 7696, "ni": 7697, "بدل": 7698, "بدا": 7699, "بجز": 7700, "حاش": 7701, "خفن": 7702, "زر": 7703, "سپرد": 7704, "قتل": 7705, "كى": 7706, "لپ": 7707, "لابد": 7708, "مژه": 7709, "يح": 7710, "پنی": 7711, "ﺩﻡ": 7712, "ﺳﺮ": 7713, "ﻣﺪ": 7714, "ارايه": 7715, "خوشت": 7716, "خونده": 7717, "نیامده": 7718, "همانی": 7719, "اشفته": 7720, "اینجام": 7721, "دورد": 7722, "ترند": 7723, "تامین": 7724, "تابلو": 7725, "کردین": 7726, "زیست": 7727, "دوستات": 7728, "فرم": 7729, "سرتو": 7730, "هیچکدوم": 7731, "افرین": 7732, "جوم": 7733, "سوزه": 7734, "her": 7735, "گوییم": 7736, "باشگاه": 7737, "ren": 7738, "الیف": 7739, "اجبار": 7740, "فراق": 7741, "مهمان": 7742, "خوردیم": 7743, "جزو": 7744, "there": 7745, "بگذاری": 7746, "فهمن": 7747, "خاطرش": 7748, "خواندم": 7749, "شخصیتی": 7750, "بگیرن": 7751, "روانشناس": 7752, "شاهکار": 7753, "بلوغ": 7754, "book": 7755, "لنگرودی": 7756, "بیوفته": 7757, "ﻧﯿﺎ": 7758, "کیمیا": 7759, "شایع": 7760, "دندون": 7761, "دماغ": 7762, "پزشکی": 7763, "عكاسي": 7764, "\"،": 7765, "/?": 7766, ":|": 7767, "Mon": 7768, "Se": 7769, "_و": 7770, "baby": 7771, "ms": 7772, "اپلی": 7773, "تهی": 7774, "تخته": 7775, "حص": 7776, "صلح": 7777, "مبهم": 7778, "ننه": 7779, "نکردیم": 7780, "هزی": 7781, "چاو": 7782, "گـ": 7783, "یری": 7784, "میس": 7785, "میگفتی": 7786, "بهای": 7787, "توهی": 7788, "روباه": 7789, "بیایید": 7790, "اشکار": 7791, "موهاتو": 7792, "مواقع": 7793, "نهنگ": 7794, "ماندم": 7795, "رفین": 7796, "زندگیه": 7797, "زندگیشون": 7798, "فراری": 7799, "تنظیم": 7800, "ough": 7801, "جاود": 7802, "حسش": 7803, "سوت": 7804, "سواد": 7805, "دردش": 7806, "ندیدن": 7807, "بدهیم": 7808, "اينجا": 7809, "نتي": 7810, "پایدار": 7811, "چشاش": 7812, "منتقل": 7813, "یادمون": 7814, "جنگم": 7815, "خيلی": 7816, "خاطراتت": 7817, "قوانین": 7818, "بشنویم": 7819, "مغزت": 7820, "igshid": 7821, "بنویسی": 7822, "irl": 7823, "sic": 7824, "بلاک": 7825, "اغوشی": 7826, "نگرش": 7827, "بپرسم": 7828, "تيوری": 7829, "ربط": 7830, "ساختمان": 7831, "کراش": 7832, "دیوونگی": 7833, "ثالث": 7834, "زنجیر": 7835, "واضح": 7836, "احمد_شاملو": 7837, "):": 7838, ".⁣": 7839, ".🤍": 7840, "Do": 7841, "La": 7842, "Sun": 7843, "_ف": 7844, "ds": 7845, "wall": 7846, "بکنید": 7847, "تدری": 7848, "طاه": 7849, "فاض": 7850, "نژ": 7851, "نود": 7852, "هجوم": 7853, "يو": 7854, "پاب": 7855, "یوس": 7856, "ﻳﺪ": 7857, "𝗄𝖾": 7858, "𝗇𝖺": 7859, "𝗌𝗍": 7860, "𝗼𝘂": 7861, "میدیم": 7862, "میخند": 7863, "ازمون": 7864, "باهاتون": 7865, "ادع": 7866, "اشق": 7867, "الانم": 7868, "دورو": 7869, "استان": 7870, "ترکت": 7871, "شیدی": 7872, "موارد": 7873, "گرایی": 7874, "اوکی": 7875, "فرنگی": 7876, "حالتون": 7877, "دستور": 7878, "ميكند": 7879, "گوه": 7880, "ايران": 7881, "حرفاتو": 7882, "شبای": 7883, "اعتن": 7884, "خوشش": 7885, "محدودی": 7886, "بخورد": 7887, "سوء": 7888, "گارسی": 7889, "ارومت": 7890, "قشنگم": 7891, "پسش": 7892, "دیدگاه": 7893, "نفهم": 7894, "نفرین": 7895, "اجرای": 7896, "دونن": 7897, "نوزاد": 7898, "بالغ": 7899, "رساند": 7900, "happ": 7901, "مادری": 7902, "سلطان": 7903, "بگذرونم": 7904, "پنجاه": 7905, "alk": 7906, "شعری": 7907, "شعله": 7908, "پرورش": 7909, "منتظرت": 7910, "sed": 7911, "تفاهم": 7912, "بشناس": 7913, "شاهد": 7914, "رویاهای": 7915, "غلام": 7916, "paper": 7917, "خاکستر": 7918, "متاسفم": 7919, "اسفند": 7920, "ساينا": 7921, "ريیس": 7922, "دايما": 7923, "wanna": 7924, "فرودگاه": 7925, "_پور": 7926, "az": 7927, "ci": 7928, "ny": 7929, "wish": 7930, "بك": 7931, "بگردم": 7932, "ببين": 7933, "زون": 7934, "زله": 7935, "سنی": 7936, "شص": 7937, "شلیک": 7938, "عار": 7939, "عامل": 7940, "فاط": 7941, "لانه": 7942, "ماشی": 7943, "نــ": 7944, "هق": 7945, "وسو": 7946, "پولی": 7947, "‏«": 7948, "ﮐﻨﺪ": 7949, "ﮐﺎﺭ": 7950, "ﯾﮑﯽ": 7951, "ﺧﺎ": 7952, "𝖺𝗋": 7953, "🤌🏻": 7954, "میشدی": 7955, "میخواهی": 7956, "رال": 7957, "باهوش": 7958, "باختی": 7959, "همسرم": 7960, "بیژن": 7961, "التی": 7962, "المان": 7963, "دونیم": 7964, "لیه": 7965, "تاکید": 7966, "نگرفته": 7967, "موذی": 7968, "اسمانی": 7969, "دلمو": 7970, "هیز": 7971, "دستاشو": 7972, "بوسمت": 7973, "بزارید": 7974, "ايب": 7975, "پرسن": 7976, "ناکی": 7977, "مرانــ": 7978, "low": 7979, "سوخت": 7980, "چشمامو": 7981, "بریزم": 7982, "شدنت": 7983, "نزده": 7984, "نارنجی": 7985, "مقام": 7986, "مقدس": 7987, "رانندگی": 7988, "تحسین": 7989, "سمتت": 7990, "سرده": 7991, "انقدری": 7992, "علیه": 7993, "فریب": 7994, "علاوه": 7995, "پدرش": 7996, "اتاقت": 7997, "حیات": 7998, "خوابیدم": 7999, "چهارشنبه": 8000, "بوسیده": 8001, "پریشان": 8002, "برمیگرده": 8003, "کشیدند": 8004, "جونم": 8005, "كاري": 8006, "انداختن": 8007, "برداشتم": 8008, "هرچقدرم": 8009, "a_kmz": 8010, "شبها": 8011, "ﻫﻤﯿ": 8012, "بسازیم": 8013, "____": 8014, "شجاع": 8015, "جایگزین": 8016, "kimia_kmz": 8017, "محسوب": 8018, "اختلال": 8019, "شما_فرستادید": 8020, "محافظت": 8021, "هزینه": 8022, "On": 8023, "ap": 8024, "care": 8025, "ime": 8026, "sun": 8027, "اخوان": 8028, "تام": 8029, "دمی": 8030, "رسو": 8031, "سكوت": 8032, "شنید": 8033, "شقایق": 8034, "صبوری": 8035, "ضد": 8036, "غن": 8037, "فقی": 8038, "مایه": 8039, "مساله": 8040, "نبینی": 8041, "يس": 8042, "پان": 8043, "پوی": 8044, "یس": 8045, "ﮔﯽ": 8046, "میمونم": 8047, "نیروی": 8048, "ادرس": 8049, "دريا": 8050, "ریختم": 8051, "بیفته": 8052, "اشك": 8053, "دارى": 8054, "شدنش": 8055, "گرسنگی": 8056, "اویر": 8057, "هرچیز": 8058, "اسدی": 8059, "دلق": 8060, "ran": 8061, "شمار": 8062, "پیغام": 8063, "گذروند": 8064, "بلر": 8065, "متعهد": 8066, "میخونه": 8067, "گریست": 8068, "بریزد": 8069, "نيستم": 8070, "نفست": 8071, "بدهید": 8072, "میزارم": 8073, "بالش": 8074, "مقص": 8075, "تنهاییم": 8076, "اخرين": 8077, "پایانی": 8078, "چشاتو": 8079, "دلیلش": 8080, "فریدون": 8081, "علمی": 8082, "تشکیل": 8083, "امدند": 8084, "my_": 8085, "لطف": 8086, "قوت": 8087, "http": 8088, "زلزله": 8089, "دانید": 8090, "غربت": 8091, "برگشته": 8092, "زندگيت": 8093, "اذیتم": 8094, "تلفنی": 8095, "شناسد": 8096, "داغون": 8097, "رایگان": 8098, "میذارم": 8099, "گذاشتیم": 8100, "نعمت": 8101, "New": 8102, "اسایشگاه": 8103, "شباهت": 8104, "قورباغه": 8105, "توهین": 8106, "Al": 8107, "alo": 8108, "come": 8109, "ka": 8110, "kri": 8111, "kiss": 8112, "ph": 8113, "دك": 8114, "سپید": 8115, "عسل": 8116, "ناش": 8117, "نکنین": 8118, "وزن": 8119, "وفا": 8120, "پخته": 8121, "کون": 8122, "ﺑﺰ": 8123, "ﻴﺪ": 8124, "𝗐𝗂": 8125, "میمیره": 8126, "میرسد": 8127, "میفهمه": 8128, "کهـ": 8129, "باخت": 8130, "روسی": 8131, "هاتم": 8132, "تاوان": 8133, "نگوی": 8134, "موهاش": 8135, "نمیشد": 8136, "نماد": 8137, "روزمرگی": 8138, "سرمو": 8139, "تمایل": 8140, "کیان": 8141, "معیار": 8142, "معارف": 8143, "حرفهای": 8144, "بازه": 8145, "جاى": 8146, "جاها": 8147, "شبکه": 8148, "یدونه": 8149, "باهار": 8150, "افتابی": 8151, "بخندم": 8152, "کاشکی": 8153, "نگید": 8154, "جیغ": 8155, "ممكن": 8156, "them": 8157, "they": 8158, "جمال": 8159, "دیدمش": 8160, "مخال": 8161, "دانشجو": 8162, "درختان": 8163, "ally": 8164, "برگشتن": 8165, "بدونید": 8166, "صادقانه": 8167, "ﻫﻤﻪ": 8168, "گزینه": 8169, "الودگی": 8170, "تکلیف": 8171, "عاقبت": 8172, "حاجی": 8173, "معتقدم": 8174, "عقیده": 8175, "مصاحبه": 8176, "اختصاص": 8177, ".🖤": 8178, ":]": 8179, "Every": 8180, "He": 8181, "Ja": 8182, "bi": 8183, "pho": 8184, "vo": 8185, "بکنه": 8186, "تكر": 8187, "سرود": 8188, "فس": 8189, "لخت": 8190, "مستی": 8191, "ناله": 8192, "هس": 8193, "وو": 8194, "يخ": 8195, "پام": 8196, "کتک": 8197, "یجا": 8198, "ﺷﺎ": 8199, "ﻧﺸ": 8200, "ﻫﯿ": 8201, "𝗅𝗈𝗏𝖾": 8202, "رامی": 8203, "بابک": 8204, "خوابه": 8205, "منبع": 8206, "برش": 8207, "تیغ": 8208, "ماس": 8209, "ماتو": 8210, "روزي": 8211, "سرگرمی": 8212, "یابی": 8213, "دنبالم": 8214, "بعید": 8215, "_channel": 8216, "بخشد": 8217, "ولم": 8218, "حرفم": 8219, "سالهاست": 8220, "روین": 8221, "ــه": 8222, "مردمان": 8223, "محص": 8224, "محکوم": 8225, "بخواهم": 8226, "باشى": 8227, "بردارم": 8228, "ممل": 8229, "صدایش": 8230, "موقه": 8231, "بگذر": 8232, "تقویت": 8233, "نشیند": 8234, "جنازه": 8235, "بخشیدن": 8236, "جادو": 8237, "متفاوتی": 8238, "تـو": 8239, "things": 8240, "موجودات": 8241, "ندادن": 8242, "نادر_": 8243, "شرمنده": 8244, "نصیحت": 8245, "تازگی": 8246, "شکنجه": 8247, "طراحی": 8248, "پابلو": 8249, "فاطمه": 8250, "_کو": 8251, "over": 8252, "she": 8253, "بنگ": 8254, "بستن": 8255, "تبی": 8256, "زودی": 8257, "غان": 8258, "لطی": 8259, "نند": 8260, "نرفت": 8261, "چـ": 8262, "چرو": 8263, "چته": 8264, "یروز": 8265, "𝖺𝗆": 8266, "میشید": 8267, "انا_": 8268, "توری": 8269, "نیش": 8270, "نیگا": 8271, "نیومد": 8272, "اميد": 8273, "درسی": 8274, "اینبار": 8275, "دارای": 8276, "ماجر": 8277, "موود": 8278, "گرس": 8279, "اوش": 8280, "هرموقع": 8281, "اسکار": 8282, "نماز": 8283, "پیشو": 8284, "سرگرد": 8285, "دستاش": 8286, "دستشو": 8287, "ميكني": 8288, "خواهيم": 8289, "بخوانید": 8290, "تصمي": 8291, "فرداش": 8292, "نتای": 8293, "رسن": 8294, "اهنگایی": 8295, "شکایت": 8296, "انسانها": 8297, "میتوانی": 8298, "had": 8299, "يكی": 8300, "قبلش": 8301, "les": 8302, "فهميدم": 8303, "جوري": 8304, "حقي": 8305, "قاضی": 8306, "پولدار": 8307, "جلد": 8308, "دلتنگم": 8309, "عمری": 8310, "واستون": 8311, "age": 8312, "افکارم": 8313, "فضایی": 8314, "موضو": 8315, "باغچه": 8316, "میدونستی": 8317, "پرسش": 8318, "نداشتیم": 8319, "فرانسه": 8320, "ریاضی": 8321, "story_channel": 8322, "ناقص": 8323, "my_story_channel": 8324, "𝗐𝗂𝗍𝗁": 8325, "bit": 8326, "est": 8327, "soul": 8328, "اکسی": 8329, "بوق": 8330, "تست": 8331, "حا": 8332, "حات": 8333, "حین": 8334, "زایی": 8335, "شکار": 8336, "ظرفی": 8337, "قلی": 8338, "قبال": 8339, "يف": 8340, "پرف": 8341, "پهن": 8342, "پدیده": 8343, "گود": 8344, "𝖾𝗒": 8345, "𝗮𝘁": 8346, "میاری": 8347, "انق": 8348, "انچنان": 8349, "ارسال": 8350, "راهم": 8351, "روس": 8352, "رونه": 8353, "امنی": 8354, "درشت": 8355, "همگی": 8356, "التماس": 8357, "..؟": 8358, "دوام": 8359, "ترن": 8360, "موثر": 8361, "خودتی": 8362, "گرچه": 8363, "ابند": 8364, "دلشان": 8365, "ance": 8366, "دوستشون": 8367, "پیروزی": 8368, "نوبت": 8369, "حاله": 8370, "بارو": 8371, "گفتگو": 8372, "ميشود": 8373, "اقتص": 8374, "بزودی": 8375, "نشستی": 8376, "صدقه": 8377, "بخونه": 8378, "انتقاد": 8379, "دردهای": 8380, "پسند": 8381, "نظم": 8382, "همونجایی": 8383, "صدایم": 8384, "وسعت": 8385, "سردی": 8386, "only": 8387, "پوچی": 8388, "پروژه": 8389, "منتظره": 8390, "تقدیر": 8391, "مارکز": 8392, "پارتی": 8393, "جلوه": 8394, "داشتید": 8395, "جناب": 8396, "احساساتم": 8397, "پریدن": 8398, "کوتاهی": 8399, "riend": 8400, "رویاها": 8401, "جادویی": 8402, "بستر": 8403, "میگذرد": 8404, "پرسیدند": 8405, "سکانس": 8406, "مندان": 8407, "side": 8408, "پیدات": 8409, "cause": 8410, "vie": 8411, "اطلاع": 8412, "مترجم": 8413, "someone": 8414, "توسعه": 8415, "ورزیدن": 8416, "Genres": 8417, "پنیر": 8418, "wallpaper": 8419, "تكرار": 8420, "*.": 8421, "Jo": 8422, "_bot": 8423, "cry": 8424, "pla": 8425, "بض": 8426, "بچسب": 8427, "تراف": 8428, "تایید": 8429, "جری": 8430, "خدمت": 8431, "سنت": 8432, "سجاد": 8433, "شاف": 8434, "ظریف": 8435, "غبار": 8436, "غير": 8437, "فاز": 8438, "فونی": 8439, "قص": 8440, "قرم": 8441, "مذ": 8442, "ه_": 8443, "هویت": 8444, "وجه": 8445, "کپ": 8446, "کہ": 8447, "کشو": 8448, "کبری": 8449, "کویر": 8450, "گابری": 8451, "ﺷﻤﺎ": 8452, "ﻟﯽ": 8453, "𝗌𝗈": 8454, "𝗍𝗈": 8455, "𝗐𝖺𝗇": 8456, "مینی": 8457, "میرفت": 8458, "میشویم": 8459, "میگویم": 8460, "ستال": 8461, "نیو": 8462, "روف": 8463, "برمي": 8464, "موری": 8465, "نمیکنن": 8466, "خودته": 8467, "هره": 8468, "دهانم": 8469, "چیشد": 8470, "اسوده": 8471, "دوستشان": 8472, "did": 8473, "هستيم": 8474, "بوست": 8475, "حرفش": 8476, "حرفامو": 8477, "پرسد": 8478, "جوجه": 8479, "سالن": 8480, "امیدم": 8481, "لحن": 8482, "نين": 8483, "لحظاتی": 8484, "پایش": 8485, "جملات": 8486, "بقيه": 8487, "انونی": 8488, "میدادم": 8489, "mad": 8490, "حرک": 8491, "میریزه": 8492, "خویشتن": 8493, "ببندید": 8494, "اجتماع": 8495, "زندگانی": 8496, "پیداش": 8497, "عمومی": 8498, "Life": 8499, "ترشح": 8500, "تصمیمات": 8501, "وجدان": 8502, "اینترنت": 8503, "کبوتر": 8504, "امریکایی": 8505, "دلقک": 8506, "مملکت": 8507, "اقتصادی": 8508, "\"...": 8509, "=]": 8510, "Per": 8511, "ft": 8512, "pro": 8513, "uck": 8514, "برین": 8515, "بقی": 8516, "بکند": 8517, "ببخشی": 8518, "خاله": 8519, "رر": 8520, "زبانی": 8521, "سکه": 8522, "سمان": 8523, "سنج": 8524, "عزي": 8525, "لاشی": 8526, "مرو": 8527, "مصی": 8528, "نتون": 8529, "هان": 8530, "هرا": 8531, "چيه": 8532, "گس": 8533, "گشود": 8534, "یسری": 8535, "ﺍﺳﺘ": 8536, "ﻮﻥ": 8537, "𝖼𝖺𝗍": 8538, "𝗋𝗒": 8539, "🚶🏻": 8540, "انف": 8541, "کهکشان": 8542, "ازل": 8543, "درکم": 8544, "همکار": 8545, "بیایم": 8546, "بیاور": 8547, "اشپ": 8548, "دووم": 8549, "لیم": 8550, "شهرو": 8551, "نگم": 8552, "نگار": 8553, "نگرد": 8554, "مودی": 8555, "ابون": 8556, "لابه": 8557, "دستگاه": 8558, "دسترس": 8559, "ميخوام": 8560, "ميشي": 8561, "بدي": 8562, "شناسم": 8563, "اخترا": 8564, "ايت": 8565, "ايست": 8566, "اندک": 8567, "ولت": 8568, "شوپن": 8569, "رویاه": 8570, "ناکه": 8571, "ناظم": 8572, "حسو": 8573, "یکیشون": 8574, "گردیم": 8575, "گوینده": 8576, "ارزد": 8577, "بهشتی": 8578, "دونست": 8579, "همانقدر": 8580, "بيا": 8581, "جزء": 8582, "کشاور": 8583, "بانک": 8584, "ham": 8585, "هايی": 8586, "بازیگر": 8587, "than": 8588, "دریاچه": 8589, "برهنه": 8590, "ساختی": 8591, "رفتارهای": 8592, "tiful": 8593, "دانشجوی": 8594, "موزیکام": 8595, "fekri": 8596, "معنایی": 8597, "پیرزن": 8598, "نازنین": 8599, "انگیزشی": 8600, "لرزید": 8601, "بمانیم": 8602, "پهلو": 8603, "cast": 8604, "میذاره": 8605, "بیمارستان": 8606, "حکمت": 8607, "پیشنهاد_فیلم": 8608, "مرتضی": 8609, "دقيقا": 8610, "وحدانی": 8611, "اپلیکیشن": 8612, "نتيجه": 8613, "شصت": 8614, "ماجرای": 8615, ".❤": 8616, "ak": 8617, "tter": 8618, "wa": 8619, "بسه": 8620, "جما": 8621, "حوا": 8622, "خاور": 8623, "دمو": 8624, "غلی": 8625, "ـر": 8626, "فدا": 8627, "قاشق": 8628, "قانونی": 8629, "نتونه": 8630, "وذ": 8631, "ورا": 8632, "واح": 8633, "يادت": 8634, "چادر": 8635, "ژو": 8636, "گنده": 8637, "یکه": 8638, "‏⁧": 8639, "ﯾﺎ": 8640, "ﻣﺜ": 8641, "ﻫﺴﺘ": 8642, "میبرم": 8643, "میگیرن": 8644, "از_": 8645, "خوار": 8646, "نیما": 8647, "همدردی": 8648, "ریمیکس": 8649, "المانی": 8650, "برخلاف": 8651, "دوازده": 8652, "نمیز": 8653, "نمیتونن": 8654, "اوز": 8655, "اورید": 8656, "اسو": 8657, "فرس": 8658, "اونجاست": 8659, "اقتصاد": 8660, "گوار": 8661, "گوست": 8662, "mon": 8663, "بوسد": 8664, "کندن": 8665, "mine": 8666, "اعضای": 8667, "اطرافت": 8668, "لوب": 8669, "صدها": 8670, "خوشگله": 8671, "good": 8672, "باشيم": 8673, "شدیدا": 8674, "نقل": 8675, "ایتالی": 8676, "دامن": 8677, "beau": 8678, "نویسد": 8679, "میرسم": 8680, "ترینم": 8681, "زلف": 8682, "again": 8683, "تتلو": 8684, "تبلی": 8685, "علاقتو": 8686, "مسیری": 8687, "person": 8688, "ﺗﻮﯼ": 8689, "𝗍𝗁𝖾": 8690, "یافتن": 8691, "درخشان": 8692, "تغییرات": 8693, "اطرافیان": 8694, "فقدان": 8695, "شادمهر": 8696, "فیزیکی": 8697, "منافع": 8698, "دوردست": 8699, "نژاد": 8700, "شافاک": 8701, "Some": 8702, "_دو": 8703, "جیم": 8704, "حول": 8705, "شست": 8706, "شات": 8707, "شکوه": 8708, "عقر": 8709, "قاف": 8710, "وانی": 8711, "وگو": 8712, "ﯾﺎﺩ": 8713, "ﺘﺮ": 8714, "ﺠﺎ": 8715, "ﺧﻮ": 8716, "ﺴﺎ": 8717, "ﺴﺖ": 8718, "ﺷﻮﺩ": 8719, "ﻭﺍ": 8720, "میدید": 8721, "میکردند": 8722, "ایراد": 8723, "ازای": 8724, "راقی": 8725, "نیفت": 8726, "همچی": 8727, "رییس": 8728, "بیزارم": 8729, "برگه": 8730, "ماها": 8731, "ماسک": 8732, "موجودی": 8733, "مورفین": 8734, "cho": 8735, "زیسته": 8736, "اسک": 8737, "اساسی": 8738, "پین": 8739, "فرسود": 8740, "نوجوان": 8741, "نوستال": 8742, "تناب": 8743, "اونور": 8744, "ding": 8745, "قطعی": 8746, "ous": 8747, "کارگر": 8748, "بعدشم": 8749, "سالت": 8750, "کلبه": 8751, "کمون": 8752, "نشانی": 8753, "ناخواسته": 8754, "نجفی": 8755, "همینجا": 8756, "نامجو": 8757, "میزاره": 8758, "start": 8759, "still": 8760, "مجتبی": 8761, "جريت": 8762, "میتونین": 8763, "ard": 8764, "ازمایش": 8765, "خدافظ": 8766, "ذهنش": 8767, "خلاق": 8768, "make": 8769, "ترسیم": 8770, "حضرت": 8771, "میلر": 8772, "ﻧﺪﺍﺭ": 8773, "پايين": 8774, "نفهمیدم": 8775, "یونان": 8776, "times": 8777, "رحمی": 8778, "قاتل": 8779, "اردیبهشت": 8780, "نتوانسته": 8781, "𝗈𝗈𝖽": 8782, "قاطی": 8783, "عزت": 8784, "نحوه": 8785, "طبیعیه": 8786, "ثروتمند": 8787, "ویکتور": 8788, "یوسف": 8789, "مخالفت": 8790, "*.*": 8791, "Amir": 8792, "Ba": 8793, "dream": 8794, "بمیری": 8795, "خف": 8796, "دبی": 8797, "شــ": 8798, "ظل": 8799, "قدرد": 8800, "كدام": 8801, "نهای": 8802, "نماند": 8803, "نرسیدن": 8804, "نخواهیم": 8805, "هارا": 8806, "يست": 8807, "پاست": 8808, "یجور": 8809, "✌🏻": 8810, "ﺑﺨ": 8811, "𝖬𝗒": 8812, "𝖼𝗁": 8813, "𝗎𝗇": 8814, "𝙄𝙉": 8815, "𝙆𝙄𝙉": 8816, "𝙈𝙊": 8817, "𝙎𝙈𝙊": 8818, "میماند": 8819, "میارن": 8820, "ندادی": 8821, "بهره": 8822, "راق": 8823, "باخته": 8824, "نیوم": 8825, "ادعا": 8826, "امور": 8827, "دیگرو": 8828, "ریزد": 8829, "ریــا": 8830, "الل": 8831, "گیلاس": 8832, "اوره": 8833, "اسن": 8834, "پیچه": 8835, "انیایی": 8836, "اونارو": 8837, "ميد": 8838, "کوک": 8839, "کوری": 8840, "معده": 8841, "جاهای": 8842, "جوابی": 8843, "کمد": 8844, "کمکت": 8845, "اعدام": 8846, "ناخوشایند": 8847, "جهانم": 8848, "مرث": 8849, "یادگاری": 8850, "سورا": 8851, "مراسم": 8852, "نزنید": 8853, "نيس": 8854, "قهقه": 8855, "اجتناب": 8856, "اکث": 8857, "رسیدیم": 8858, "همونجوری": 8859, "امواج": 8860, "اموخته": 8861, "نبودنش": 8862, "مسکن": 8863, "تعصب": 8864, "بگذریم": 8865, "ترسند": 8866, "علاء": 8867, "شعار": 8868, "رقم": 8869, "صداهای": 8870, "کامنت": 8871, "بشکنه": 8872, "اغوشش": 8873, "مادربزرگم": 8874, "فلک": 8875, "میشناسی": 8876, "میشنوید": 8877, "عزیزی": 8878, "پلیش": 8879, "خيابان": 8880, "عمرش": 8881, "میوم": 8882, "يیلو": 8883, "ترسید": 8884, "کافیست": 8885, "بخاطرش": 8886, "میکشد": 8887, "خصص": 8888, "irst": 8889, "منظره": 8890, "انداختم": 8891, "مشغله": 8892, "زندگيم": 8893, "نگرانت": 8894, "نشستیم": 8895, "اینستا": 8896, "فيلم": 8897, "توجیه": 8898, "نوشیدنی": 8899, "عباس_کیارستمی": 8900, "پـریــا": 8901, "تشویق": 8902, "مزاحم": 8903, "شرايط": 8904, "اختراع": 8905, "𝙆𝙄𝙉𝙂": 8906, "𝙎𝙈𝙊𝙆𝙄𝙉𝙂": 8907, "Ar": 8908, "NE": 8909, "So": 8910, "_ال": 8911, "sp": 8912, "اژ": 8913, "اخیر": 8914, "بدارد": 8915, "بچس": 8916, "جاب": 8917, "خشن": 8918, "رج": 8919, "صدمه": 8920, "عرق": 8921, "غمه": 8922, "فال": 8923, "نسی": 8924, "نصب": 8925, "واج": 8926, "يهو": 8927, "گال": 8928, "ﮔﻮ": 8929, "𝗅𝗂": 8930, "ایقی": 8931, "اریا": 8932, "باتن": 8933, "بافی": 8934, "روشنی": 8935, "ریفی": 8936, "اشه": 8937, "بري": 8938, "دومی": 8939, "فتح": 8940, "شدي": 8941, "شدنی": 8942, "بودنه": 8943, "موهایش": 8944, "اسباب": 8945, "دلداری": 8946, "ایین": 8947, "دوستانم": 8948, "نمود": 8949, "فرانت": 8950, "هستین": 8951, "هیچکسی": 8952, "پرستی": 8953, "دادنش": 8954, "کمتری": 8955, "چیزارو": 8956, "خوبت": 8957, "یادگیری": 8958, "مردگان": 8959, "محروم": 8960, "بخوانیم": 8961, "دردها": 8962, "بریزی": 8963, "ديدن": 8964, "میزدیم": 8965, "بالایی": 8966, "بالشت": 8967, "اهنگو": 8968, "مسل": 8969, "بانو": 8970, "hate": 8971, "سمتش": 8972, "نقاب": 8973, "مرگش": 8974, "میگید": 8975, "مطل": 8976, "بسازم": 8977, "میشینه": 8978, "بویی": 8979, "خورند": 8980, "مارا": 8981, "میشنوی": 8982, "tive": 8983, "صفا": 8984, "پنجه": 8985, "ببینند": 8986, "زيرا": 8987, "mag": 8988, "ترسیدیم": 8989, "وفسکی": 8990, "ماشين": 8991, "معناست": 8992, "مجبورم": 8993, "سيدم": 8994, "ضرر": 8995, "urt": 8996, "لقمه": 8997, "نگرانم": 8998, "𝗒𝗈𝗎𝗋": 8999, "پیچید": 9000, "شارژ": 9001, "پژمرده": 9002, "قاعده": 9003, "مقیمی": 9004, "leave": 9005, "مخاطب": 9006, "جغرافی": 9007, "گرسنه": 9008, "حقيقت": 9009, "𝗐𝖺𝗇𝗇𝖺": 9010, "تبلیغ": 9011, "DB": 9012, "_الف": 9013, "bad": 9014, "brea": 9015, "ris": 9016, "tu": 9017, "мо": 9018, "بنظر": 9019, "ترو": 9020, "تجسم": 9021, "ثبات": 9022, "حکو": 9023, "خنج": 9024, "رل": 9025, "طبي": 9026, "طناب": 9027, "غزل": 9028, "قبی": 9029, "مداد": 9030, "مندی": 9031, "مدیر": 9032, "مکث": 9033, "يان": 9034, "پستی": 9035, "پشتی": 9036, "یجایی": 9037, "یقین": 9038, "ﭼﯿﺰ": 9039, "ﺟﺎ": 9040, "ﺩﻟ": 9041, "ﻣﻨ": 9042, "👌🏻": 9043, "میبینیم": 9044, "ایام": 9045, "ارامی": 9046, "خوایم": 9047, "درگیری": 9048, "درخش": 9049, "بیدارم": 9050, "بیاورم": 9051, "اینجور": 9052, "استو": 9053, "شیفته": 9054, "خودخواه": 9055, "چیکه": 9056, "اسما": 9057, "دلهره": 9058, "اشتراک": 9059, "لابی": 9060, "پیشه": 9061, "بعدم": 9062, "کران": 9063, "بوک": 9064, "رمض": 9065, "ايا": 9066, "اينده": 9067, "live": 9068, "شبت": 9069, "جوانه": 9070, "عیبی": 9071, "ناپدید": 9072, "تمامش": 9073, "راهه": 9074, "انتان": 9075, "دورش": 9076, "مشق": 9077, "قشنگن": 9078, "پیشانی": 9079, "ret": 9080, "قهری": 9081, "stant": 9082, "نظریه": 9083, "نگیره": 9084, "روحش": 9085, "روحیه": 9086, "len": 9087, "طرب": 9088, "ارزوها": 9089, "مطلب": 9090, "اشکال": 9091, "فرستاده": 9092, "بشینیم": 9093, "ماریا": 9094, "میم_الف": 9095, "اثبات": 9096, "بخشش": 9097, "جلوتر": 9098, "پرداخت": 9099, "ترسیده": 9100, "سازند": 9101, "ليون": 9102, "سراغم": 9103, "مدرن": 9104, "شناسند": 9105, "معشوقش": 9106, "هدفی": 9107, "خالص": 9108, "لباسی": 9109, "Instagram": 9110, "یونگ": 9111, "رابطمون": 9112, "سپهر": 9113, "مظلوم": 9114, "کاسه": 9115, "محمود_دولت": 9116, "ﺯﻧﺪﮔﯽ": 9117, "جزیره": 9118, "فرفری": 9119, "مهندس": 9120, "فاضل": 9121, "alone": 9122, "محصول": 9123, "نادر_ابراهیمی": 9124, "چروک": 9125, "نتایج": 9126, "اشپزی": 9127, "حکومت": 9128, "!...": 9129, ".💕": 9130, "Bo": 9131, "Sha": 9132, "Ta": 9133, "ble": 9134, "cking": 9135, "ix": 9136, "؟:)": 9137, "اکس": 9138, "بکار": 9139, "ببوسی": 9140, "بخواهید": 9141, "جديد": 9142, "دزدی": 9143, "صايب": 9144, "طنز": 9145, "فروید": 9146, "مبه": 9147, "نى": 9148, "پير": 9149, "ژرف": 9150, "کـی": 9151, "یبار": 9152, "ﺗﻨ": 9153, "ﺘﻪ": 9154, "ﻫﺪ": 9155, "𝖻𝗒": 9156, "میبرد": 9157, "انز": 9158, "ارض": 9159, "بافت": 9160, "بامزه": 9161, "نیمی": 9162, "منـ": 9163, "خودشه": 9164, "هرکدوم": 9165, "شمام": 9166, "تنبلی": 9167, "اونجوری": 9168, "ميشم": 9169, "کیت": 9170, "کوفتی": 9171, "بختی": 9172, "رفتنی": 9173, "پرتاب": 9174, "لبای": 9175, "لبان": 9176, "لبریز": 9177, "تهیه": 9178, "اگرچه": 9179, "گاهى": 9180, "مرض": 9181, "مردانه": 9182, "نجار": 9183, "نجور": 9184, "long": 9185, "بغلی": 9186, "چشمهای": 9187, "got": 9188, "قشنگتر": 9189, "نزنم": 9190, "خواستیم": 9191, "همونطور": 9192, "تعبیر": 9193, "مجس": 9194, "میتونیم": 9195, "وصال": 9196, "بلندتر": 9197, "اشکات": 9198, "فرستادم": 9199, "خندد": 9200, "اومدیم": 9201, "خیابانی": 9202, "موده": 9203, "گذشتن": 9204, "تفسیر": 9205, "ترینی": 9206, "میوفتم": 9207, "رفیقم": 9208, "))))": 9209, "ity": 9210, "ثانيه": 9211, "اونقدری": 9212, "تاریکه": 9213, "سعي": 9214, "خاکی": 9215, "اشونو": 9216, "منظم": 9217, "جعفری": 9218, "فیلتر": 9219, "بعضى": 9220, "حوالی": 9221, "یخچال": 9222, "para": 9223, "pain": 9224, "بفرستم": 9225, "قابلیت": 9226, "پیکاسو": 9227, "نرگس_": 9228, "چاقو": 9229, "تجاوز": 9230, "میندازه": 9231, "اسپانیایی": 9232, "عذرخواهی": 9233, "پاریس": 9234, "فرسوده": 9235, "سوراخ": 9236, "Da": 9237, "Le": 9238, "VE": 9239, "ces": 9240, "gu": 9241, "lt": 9242, "sc": 9243, "sha": 9244, "where": 9245, "||": 9246, "اپن": 9247, "بکنیم": 9248, "بشوی": 9249, "بترس": 9250, "بـه": 9251, "تال": 9252, "دال": 9253, "ذکر": 9254, "سروش": 9255, "شتاب": 9256, "ضا_": 9257, "فیک": 9258, "لس": 9259, "نبر": 9260, "نکنن": 9261, "نازی": 9262, "نبات": 9263, "هج": 9264, "هوی": 9265, "يلیو": 9266, "پايي": 9267, "کاک": 9268, "گين": 9269, "”.": 9270, "ﭘﺎ": 9271, "ﺍﯼ": 9272, "ﺗﻮﺍ": 9273, "ﺮﮊ": 9274, "ﺷﺖ": 9275, "ﻛﻪ": 9276, "ﻨﯽ": 9277, "𝗂𝖾": 9278, "میه": 9279, "میدیدم": 9280, "میرید": 9281, "میگویند": 9282, "میشنوم": 9283, "انبو": 9284, "انتوان": 9285, "ارسالی": 9286, "ستایش": 9287, "توپ": 9288, "نیوی": 9289, "ردن": 9290, "همدلی": 9291, "اینکار": 9292, "استیک": 9293, "شدنه": 9294, "ترك": 9295, "ترسو": 9296, "کردنم": 9297, "خودکار": 9298, "اوا": 9299, "اوایل": 9300, "نهادی": 9301, "ورک": 9302, "ادمي": 9303, "رفه": 9304, "رفقا": 9305, "سرگردان": 9306, "هستي": 9307, "گوسف": 9308, "معلو": 9309, "افشین": 9310, "ايى": 9311, "فکرشو": 9312, "یمون": 9313, "سوزن": 9314, "دردم": 9315, "بریز": 9316, "زمانه": 9317, "باشمت": 9318, "نفوذ": 9319, "ماهان": 9320, "دانستن": 9321, "ینچی": 9322, "زنانه": 9323, "فهمیم": 9324, "پشتت": 9325, "سردرد": 9326, "وصله": 9327, "چشای": 9328, "چشامو": 9329, "خیالش": 9330, "less": 9331, "میشینم": 9332, "بشینه": 9333, "مامانت": 9334, "جلوش": 9335, "برگردیم": 9336, "مدتها": 9337, "دریچه": 9338, "مستور": 9339, "مهیار": 9340, "موندگار": 9341, "ﺑﺎﺷ": 9342, "دیالوگی": 9343, "خاك": 9344, "ببندم": 9345, "خریدن": 9346, "غلبه": 9347, "لرز": 9348, "نفهمید": 9349, "دانستیم": 9350, "پیوسته": 9351, "پرسيد": 9352, "سایر": 9353, "ﺍﻧﺮﮊ": 9354, "𝖾𝖾𝗉": 9355, "ﺩﻭﺳﺖ": 9356, "ژانر": 9357, "عربی": 9358, "ممنوعه": 9359, "𝗁𝖾𝗋𝖾": 9360, "داوینچی": 9361, "بنفش": 9362, "حماقت": 9363, "حاشیه": 9364, "محدودیت": 9365, "تصميم": 9366, "موضوعی": 9367, "ایتالیایی": 9368, ".✨": 9369, "ice": 9370, "zo": 9371, "بکو": 9372, "بشو": 9373, "بتوانیم": 9374, "بجنگی": 9375, "تمن": 9376, "خنگ": 9377, "خلو": 9378, "خلیل": 9379, "ذاری": 9380, "رعه": 9381, "رازی": 9382, "سکس": 9383, "سامو": 9384, "شریف": 9385, "عتی": 9386, "غز": 9387, "غش": 9388, "فعلی": 9389, "كجا": 9390, "لن": 9391, "نخواد": 9392, "نخواستی": 9393, "وض": 9394, "گف": 9395, "ﮑﻪ": 9396, "ﺑﯽ": 9397, "ﺯﺩ": 9398, "ﻣﺮﺩ": 9399, "𝖿𝗈𝗋": 9400, "👐🏻": 9401, "میکردن": 9402, "میبری": 9403, "میگردم": 9404, "میگیرند": 9405, "انده": 9406, "ارتور": 9407, "بهرام": 9408, "نیرو": 9409, "نیاید": 9410, "دیدید": 9411, "مني": 9412, "برخاست": 9413, "هاور": 9414, "لینگ": 9415, "سیس": 9416, "فتگی": 9417, "استیو": 9418, "وقوع": 9419, "تاپ": 9420, "تابه": 9421, "iine": 9422, "ابي": 9423, "لاط": 9424, "پیرا": 9425, "سربازی": 9426, "اونه": 9427, "ميش": 9428, "ميكنن": 9429, "کین": 9430, "قدرتمند": 9431, "کوله": 9432, "بخار": 9433, "گذرونی": 9434, "بازنده": 9435, "ــت": 9436, "مرگم": 9437, "اصفه": 9438, "میخونی": 9439, "میخوابی": 9440, "میخوابم": 9441, "محتو": 9442, "سوزی": 9443, "گرفتاری": 9444, "هودی": 9445, ":)💙": 9446, "زماني": 9447, "نيد": 9448, "تصاویر": 9449, "نظیر": 9450, "اعتبار": 9451, "جانب": 9452, "تعارف": 9453, "تعادل": 9454, "ين_": 9455, "مجاز": 9456, "ارتبا": 9457, "پروکسی": 9458, "بسازی": 9459, "ماندگار": 9460, "علایق": 9461, "بذاریم": 9462, "برگردد": 9463, "كنين": 9464, "خاطراتش": 9465, "معمول": 9466, "احساساتت": 9467, "چسبه": 9468, "سطحی": 9469, "عینک": 9470, "ضرب": 9471, "بچرخ": 9472, "خشکی": 9473, "بلافاصله": 9474, "ﺮﺍﻥ": 9475, "اگاهانه": 9476, "were": 9477, "مزرعه": 9478, "نگذار": 9479, "کراشم": 9480, "فروشنده": 9481, "یونانی": 9482, "ﺧﻮﺩﺵ": 9483, "shine": 9484, "قیمتی": 9485, "بپذیری": 9486, "بپذیریم": 9487, "لالایی": 9488, "تحقیر": 9489, "constant": 9490, "give": 9491, "ممنوع": 9492, "بمونیم": 9493, "داستایوفسکی": 9494, "مهدی_معارف": 9495, "سانسور": 9496, "فقیر": 9497, "ﻫﯿﭻ": 9498, "خاورمیانه": 9499, "واحد": 9500, "نهایتا": 9501, "اللهی": 9502, "قبیله": 9503, "سامويل": 9504, "constantiine": 9505, "For": 9506, "Te": 9507, "find": 9508, "girl": 9509, "ide": 9510, "tru": 9511, "بتوانی": 9512, "حـ": 9513, "شبو": 9514, "شروین": 9515, "صبا": 9516, "قالب": 9517, "لوی": 9518, "لزو": 9519, "نشن": 9520, "نخوای": 9521, "نبض": 9522, "چم": 9523, "کالی": 9524, "گنگ": 9525, "یح": 9526, "ﺁﺩﻡ": 9527, "ﺍﻣﺎ": 9528, "ﺎﻩ": 9529, "𝗅𝖾𝖾𝗉": 9530, "میتوان": 9531, "ایتی": 9532, "انج": 9533, "انى": 9534, "انار": 9535, "ندهی": 9536, "بهـ": 9537, "باختم": 9538, "رويا": 9539, "روتین": 9540, "اداره": 9541, "همکاری": 9542, "منجر": 9543, "بیخود": 9544, "ودور": 9545, "وداع": 9546, "تیپ": 9547, "شیدم": 9548, "موسوی": 9549, "نمیتوانم": 9550, "ویروس": 9551, "ans": 9552, "فرش": 9553, "فراز": 9554, "گويد": 9555, "بخدا": 9556, "بخرید": 9557, "افتی": 9558, "شويم": 9559, "بلدم": 9560, "سالهای": 9561, "کلم": 9562, "تهدید": 9563, "ناتوان": 9564, "عشقه": 9565, "اصالت": 9566, "یادگار": 9567, "صدق": 9568, "محترم": 9569, "سوالی": 9570, "تلاشی": 9571, "سمفونی": 9572, "میزنیم": 9573, "صبحی": 9574, "رسيد": 9575, "مجبوری": 9576, "پشتش": 9577, "پشتم": 9578, "بقل": 9579, "انواع": 9580, "کتری": 9581, "مغرو": 9582, "org": 9583, "هزارتا": 9584, "میدهم": 9585, "best": 9586, "خندان": 9587, "عوضش": 9588, "عصبیم": 9589, "دانشور": 9590, "ببینمش": 9591, "کوچکترین": 9592, "بخاطرت": 9593, "شلوار": 9594, "میلادی": 9595, "شناختی": 9596, "خاموشی": 9597, "پارتنرت": 9598, "بفهمید": 9599, "خریدم": 9600, "پیدایش": 9601, "رقصید": 9602, "𝗂𝗇𝖾": 9603, "اطرافم": 9604, "شکلیه": 9605, "فوتبال": 9606, "شكست": 9607, "برنگرد": 9608, "هوشیار": 9609, "خرمالو": 9610, "رختخواب": 9611, "ﺩﯾﮕﺮ": 9612, "کلاسیک": 9613, "Harf": 9614, "حصار": 9615, "کپشن": 9616, "محمود_دولت_": 9617, "نیویورک": 9618, ":>": 9619, "Blu": 9620, "Co": 9621, "Day": 9622, "Fe": 9623, "She": 9624, "away": 9625, "bl": 9626, "rin": 9627, "would": 9628, "بستی": 9629, "بمیره": 9630, "بمانند": 9631, "بپرسید": 9632, "جک": 9633, "جسمت": 9634, "حامی": 9635, "حفره": 9636, "خدار": 9637, "دبیر": 9638, "ذوب": 9639, "زاو": 9640, "زجر": 9641, "شکند": 9642, "طاق": 9643, "عاج": 9644, "قله": 9645, "كمي": 9646, "كدوم": 9647, "مکر": 9648, "نبايد": 9649, "هیک": 9650, "هلاک": 9651, "يون": 9652, "کدا": 9653, "کانس": 9654, "گشتی": 9655, "یقه": 9656, "ﺭﻓﺘ": 9657, "ﻭﺭ": 9658, "میروم": 9659, "میتونست": 9660, "ارس": 9661, "خوشب": 9662, "خوریم": 9663, "درگذشت": 9664, "ریب": 9665, "ریختی": 9666, "بیخ": 9667, "بیاریم": 9668, "الدا": 9669, "الزای": 9670, "سیزده": 9671, "داريد": 9672, "استین": 9673, "استایل": 9674, "استکان": 9675, "بوديم": 9676, "موزه": 9677, "نمیگیره": 9678, "نمیدونستم": 9679, "chang": 9680, "دلتو": 9681, "لاغر": 9682, "نوه": 9683, "ميگن": 9684, "ميكنى": 9685, "بخاری": 9686, "معل": 9687, "پرهیز": 9688, "ــم": 9689, "اصر": 9690, "مردیم": 9691, "صدبار": 9692, "سوپر": 9693, "قرض": 9694, "مشرو": 9695, "yourself": 9696, "مداوم": 9697, "هوشمند": 9698, "گردنم": 9699, "سمتم": 9700, "کشیدیم": 9701, "نيمه": 9702, "رسیم": 9703, "نیازهای": 9704, "مقاله": 9705, "مقابله": 9706, "اموزد": 9707, "دخترش": 9708, "عواط": 9709, "ملکه": 9710, "جمالی": 9711, "میکنین": 9712, "پاهای": 9713, "طرفی": 9714, "رقابت": 9715, "صداهایی": 9716, "کلیک": 9717, "اسمشو": 9718, "جوابش": 9719, "قلعه": 9720, "خوانند": 9721, "رفتارش": 9722, "ارزشش": 9723, "ناراحتت": 9724, "غیرقابل": 9725, "اونیکه": 9726, "میوفتی": 9727, "زشتی": 9728, "رژیم": 9729, "ـــــ": 9730, "اشنای": 9731, "برگزار": 9732, "برگشتی": 9733, "اظهار": 9734, "ظاهرا": 9735, "ظاهری": 9736, "پذیرفتن": 9737, "تاریخی": 9738, "بمونن": 9739, "سبزه": 9740, "یواش": 9741, "دیالوگ_": 9742, "بابای": 9743, "مختل": 9744, "منطقه": 9745, "عملکرد": 9746, "چرخد": 9747, "ديوونه": 9748, "تزریق": 9749, "انسانیت": 9750, "ناگهانی": 9751, "بنشیند": 9752, "بدونیم": 9753, "تصادفی": 9754, "پوشیدن": 9755, "box": 9756, "رحمانه": 9757, "اولیه": 9758, "پرستار": 9759, "ﺭﻭﺯ": 9760, "مدارا": 9761, "غافلگیر": 9762, "خاطراتم": 9763, "𝗂𝗍𝗍": 9764, "راجبش": 9765, "اندیشیدن": 9766, "ادعای": 9767, "دكتر": 9768, "Jafekri": 9769, "ظرفیت": 9770, "جماعت": 9771, "الزایمر": 9772, ".🥹": 9773, "IM": 9774, "One": 9775, "_من": 9776, "friend": 9777, "tou": 9778, "wo": 9779, "xy": 9780, "بته": 9781, "بگری": 9782, "بکت": 9783, "تنی": 9784, "تدا": 9785, "تلو": 9786, "تخری": 9787, "حميد": 9788, "خــ": 9789, "ساس": 9790, "شاپ": 9791, "ضمن": 9792, "فاح": 9793, "لنتی": 9794, "مدرک": 9795, "نال": 9796, "نتونم": 9797, "نخواهند": 9798, "يديم": 9799, "ژاپن": 9800, "کاو": 9801, "کمان": 9802, "کیا": 9803, "یچیزی": 9804, "ﺪﺭ": 9805, "ﻨﮓ": 9806, "𝗈𝗆𝖾": 9807, "🙌🏻": 9808, "میرفتم": 9809, "انگي": 9810, "ستر": 9811, "توقف": 9812, "نیلو": 9813, "رولان": 9814, "اداری": 9815, "امله": 9816, "دیدنی": 9817, "همت": 9818, "ریسک": 9819, "منس": 9820, "بیبی": 9821, "بیزار": 9822, "ودم": 9823, "کنيم": 9824, "دوا": 9825, "سینگ": 9826, "سیاوش": 9827, "استقل": 9828, "اهوی": 9829, "شیط": 9830, "شیطان": 9831, "کردنه": 9832, "نمیفهمه": 9833, "دلنشین": 9834, "اتشی": 9835, "زندگیو": 9836, "نوک": 9837, "ميگفت": 9838, "معرض": 9839, "ايده": 9840, "بلایی": 9841, "نشوی": 9842, "ناك": 9843, "ناتوانی": 9844, "ناچار": 9845, "میخواید": 9846, "یادشون": 9847, "صداشو": 9848, "خوشا": 9849, "شونم": 9850, "محلی": 9851, "محله": 9852, "انتشار": 9853, "صبحت": 9854, "نامريی": 9855, "جاییه": 9856, "نفسی": 9857, "مهمتر": 9858, "بياد": 9859, "مقدمه": 9860, "اموخت": 9861, "رسمی": 9862, "کوچیکی": 9863, "كردند": 9864, "زمستانی": 9865, "بگذرو": 9866, "بگذری": 9867, "غیب": 9868, "شدیدی": 9869, "پسرک": 9870, "منتظری": 9871, "علف": 9872, "حدس": 9873, "بشری": 9874, "نگهت": 9875, "برگردان": 9876, "مودم": 9877, "مخدر": 9878, "اونیه": 9879, "ایستادم": 9880, "خندیدیم": 9881, "عالیه": 9882, "سياه": 9883, "پذير": 9884, "سخنان": 9885, "انگشتان": 9886, "گروهی": 9887, "بلاخره": 9888, "ببرند": 9889, "ديوار": 9890, "قیافم": 9891, "بیندازد": 9892, "عقده": 9893, "جفتمون": 9894, "BeMan": 9895, "علیرضا_": 9896, "𝖺𝗇𝖽": 9897, "کشتن": 9898, "وسیع": 9899, "غالبا": 9900, "انتقال": 9901, "خدایان": 9902, "هوشنگ_": 9903, "تصمیمی": 9904, "ميدوني": 9905, "رقصیدن": 9906, "Good": 9907, "روزبه_": 9908, "ناتمام": 9909, "مذهبی": 9910, "With": 9911, "حیرت": 9912, "عظمت": 9913, "گارسیا": 9914, "غنچه": 9915, "پرفروش": 9916, "beautiful": 9917, "مجسمه": 9918, "نرگس_صرافی": 9919, "HarfBeMan": 9920, "عواطف": 9921, "استقلال": 9922, "-|": 9923, ".😂": 9924, ".🥲": 9925, ":(": 9926, "All": 9927, "Ho": 9928, "Po": 9929, "bir": 9930, "could": 9931, "hand": 9932, "kon": 9933, "ting": 9934, "اك": 9935, "بخواه": 9936, "بارید": 9937, "ت_": 9938, "تبر": 9939, "تبد": 9940, "تختم": 9941, "حرام": 9942, "خس": 9943, "ذبه": 9944, "ربات": 9945, "زباله": 9946, "سپرده": 9947, "شکس": 9948, "طو": 9949, "طرد": 9950, "ـتـ": 9951, "فلا": 9952, "فانی": 9953, "ملو": 9954, "نفت": 9955, "نقد": 9956, "وادار": 9957, "پچ": 9958, "کوی": 9959, "یابم": 9960, "…!": 9961, "….": 9962, "ﭘﺲ": 9963, "ﮕﯽ": 9964, "ﻓﺮ": 9965, "ﻘﺎ": 9966, "𝗀𝖾": 9967, "😂:": 9968, "میمونن": 9969, "اینی": 9970, "انتی": 9971, "انگونه": 9972, "انگاری": 9973, "ندادم": 9974, "باقر": 9975, "درمانی": 9976, "ریح": 9977, "اشعار": 9978, "دوز": 9979, "گیم": 9980, "گیسو": 9981, "سیده": 9982, "استانه": 9983, "کردنی": 9984, "ماهم": 9985, "نمیام": 9986, "نمیفهمی": 9987, "نمیزنم": 9988, "دلخواه": 9989, "هیاهو": 9990, "زندگیمان": 9991, "فرند": 9992, "فرکانس": 9993, "سرگرم": 9994, "سرکوب": 9995, "بارش": 9996, "احمدر": 9997, "ميدونم": 9998, "ميخواد": 9999, "بوف": 10000, "قدرشو": 10001, "کول": 10002, "کوهی": 10003, "گذرو": 10004, "کارتون": 10005, "ولنت": 10006, "خوبي": 10007, "داریوش": 10008, "مرکز": 10009, "him": 10010, "سواری": 10011, "قشاع": 10012, "مشابه": 10013, "چشمهایش": 10014, "واسطه": 10015, "fucking": 10016, "نامرد": 10017, "ادین": 10018, "غمگين": 10019, "نزدن": 10020, "نفع": 10021, "اکبری": 10022, "ندین": 10023, "بردارید": 10024, "نارنگی": 10025, "نیمکت": 10026, "بيست": 10027, "بينم": 10028, "عهده": 10029, "دخترت": 10030, "شویی": 10031, "سلي": 10032, "غیبت": 10033, "عکسای": 10034, "فرورد": 10035, "زدنت": 10036, "گزاری": 10037, "ارزوهات": 10038, "تفنگ": 10039, "شکستم": 10040, "کاتی": 10041, "چهارراه": 10042, "گوشیمو": 10043, "قهرم": 10044, "ولوژی": 10045, "مصنوعی": 10046, "احترامی": 10047, "عزیزترین": 10048, "والدین": 10049, "عدالت": 10050, "غلطی": 10051, "لرزه": 10052, "كوه": 10053, "شنوه": 10054, "حوادث": 10055, "ساعات": 10056, "ساکن": 10057, "مسیج": 10058, "گمانم": 10059, "ببينم": 10060, "مواجهه": 10061, "دقيقه": 10062, "كوتاه": 10063, "much": 10064, "گزارش": 10065, "مینویسم": 10066, "خانوادگی": 10067, "ﻭﻗﺘﯽ": 10068, "شوپنهاور": 10069, "ارتباطی": 10070, "تبديل": 10071, ".)": 10072, "Are": 10073, "EN": 10074, "IS": 10075, "_م": 10076, "ac": 10077, "bu": 10078, "da": 10079, "em": 10080, "hurt": 10081, "ser": 10082, "ton": 10083, "بشک": 10084, "بمیریم": 10085, "ببارد": 10086, "تقلب": 10087, "تغذ": 10088, "ثریا": 10089, "حست": 10090, "حرفت": 10091, "ذخیره": 10092, "سام": 10093, "ساق": 10094, "سپاس": 10095, "سامان": 10096, "صخره": 10097, "ظه": 10098, "عکست": 10099, "عين": 10100, "ـکــ": 10101, "فعه": 10102, "مسو": 10103, "مامو": 10104, "ملاح": 10105, "ماییم": 10106, "نشید": 10107, "پون": 10108, "کاين": 10109, "کـه": 10110, "ﯾﻦ": 10111, "ﺁﻧ": 10112, "ﺑﻌ": 10113, "𝖽𝖾": 10114, "𝗀𝗂": 10115, "ارند": 10116, "ازرده": 10117, "تومان": 10118, "خوبیه": 10119, "نیکی": 10120, "روبروی": 10121, "ادای": 10122, "املی": 10123, "امروزی": 10124, "دیره": 10125, "ریتم": 10126, "ریزم": 10127, "منصف": 10128, "بیرونی": 10129, "اشکام": 10130, "برطرف": 10131, "دومین": 10132, "لیمو": 10133, "شیش": 10134, "موش": 10135, "نمیرسه": 10136, "هرموقه": 10137, "دهاز": 10138, "اسانی": 10139, "اسمم": 10140, "اسرار": 10141, "دلگرمی": 10142, "...؟!": 10143, "پیروز": 10144, "پیامی": 10145, "سرشان": 10146, "دستانش": 10147, "گويند": 10148, "کیلو": 10149, "معنوی": 10150, "کارما": 10151, "اندي": 10152, "پررنگ": 10153, "بازو": 10154, "جاتو": 10155, "lit": 10156, "جوراب": 10157, "دادید": 10158, "کمدی": 10159, "عیدی": 10160, "مرخصی": 10161, "مرداد": 10162, "کنارشون": 10163, "lose": 10164, "بخوانی": 10165, "سوف": 10166, "گویید": 10167, "ارزه": 10168, "نزدم": 10169, "ديده": 10170, "ديگری": 10171, "ماهـکــ": 10172, "بهمنی": 10173, "sta": 10174, "فردایی": 10175, "نگیرید": 10176, "نبودت": 10177, "مسجد": 10178, "جانش": 10179, "عوری": 10180, "اخرشم": 10181, "leg": 10182, "باورش": 10183, "انگیزی": 10184, "بسپ": 10185, "تقویم": 10186, "علوی": 10187, "غمگینه": 10188, "جلوت": 10189, "پياده": 10190, "......": 10191, "منتظرش": 10192, "عمرت": 10193, "نشیم": 10194, "جنایت": 10195, "حالیکه": 10196, "پذیری": 10197, "پذیرفته": 10198, "sian": 10199, "زمینم": 10200, "ﺩﺍﺷﺘ": 10201, "lack": 10202, "كيف": 10203, "بپرسد": 10204, "شنونده": 10205, "مشتری": 10206, "بینداز": 10207, ":))))": 10208, "ااا": 10209, "جايى": 10210, "برادرش": 10211, "پوشیده": 10212, "شهریور": 10213, "ان_طوفان": 10214, "فرانکل": 10215, "مضطرب": 10216, "کیمیاگر": 10217, "تحقیقات": 10218, "بایستی": 10219, "ناسا": 10220, "راحته": 10221, "مکانی": 10222, "قاعد": 10223, "مناسبت": 10224, "عبدالمل": 10225, "hug": 10226, "ناخن": 10227, "گاوالدا": 10228, "mber": 10229, "rong": 10230, "ضروری": 10231, "حاکم": 10232, "ترافیک": 10233, "مصیبت": 10234, "محمود_دولت_ابادی": 10235, "تخریب": 10236, "نرگس_صرافیان_طوفان": 10237, "Fuck": 10238, "Let": 10239, "Pro": 10240, "Time": 10241, "_D": 10242, "down": 10243, "gin": 10244, "ply": 10245, "smi": 10246, "sho": 10247, "und": 10248, "،،": 10249, "بہ": 10250, "تباه": 10251, "جدل": 10252, "جدول": 10253, "دگ": 10254, "ذرات": 10255, "ساندو": 10256, "عمي": 10257, "قای": 10258, "نكردم": 10259, "هنو": 10260, "وات": 10261, "چارد": 10262, "کما": 10263, "گد": 10264, "گنجی": 10265, "ﻓﻘ": 10266, "ﻨﺎ": 10267, "𝖺𝗄𝖾": 10268, "𝗌𝗅𝖾𝖾𝗉": 10269, "👼🏻": 10270, "میروی": 10271, "میپرسه": 10272, "ازاده": 10273, "تومن": 10274, "رادی": 10275, "خوشه": 10276, "رول": 10277, "امي": 10278, "امتی": 10279, "درب": 10280, "درك": 10281, "ونمت": 10282, "بیلی": 10283, "بیکار": 10284, "بیایند": 10285, "کني": 10286, "برک": 10287, "شدنم": 10288, "وقای": 10289, "ترت": 10290, "تاک": 10291, "تابد": 10292, "یکسان": 10293, "موشک": 10294, "موهام": 10295, "خودخواهی": 10296, "یهـ": 10297, "زیده": 10298, "ابزار": 10299, "نوار": 10300, "دنج": 10301, "احب": 10302, "بعی": 10303, "ميخو": 10304, "ميده": 10305, "ميزنه": 10306, "moon": 10307, "کیست": 10308, "رفتي": 10309, "ايش": 10310, "ايند": 10311, "lips": 10312, "بعداز": 10313, "شبم": 10314, "چیزه": 10315, "ناجی": 10316, "اصیل": 10317, "lost": 10318, "look": 10319, "دردا": 10320, "دردسر": 10321, "چندبار": 10322, "قشنگتره": 10323, "مراحل": 10324, "لحه": 10325, "rest": 10326, "ارامشم": 10327, "دانشمند": 10328, "خوردگی": 10329, "ینفر": 10330, "نظرات": 10331, "قدمی": 10332, "درونش": 10333, "خوشحالت": 10334, "خدام": 10335, "بگويم": 10336, "صداى": 10337, "پروف": 10338, "رنجش": 10339, "قاتی": 10340, "تقدیم": 10341, "هيچي": 10342, "شنیدید": 10343, "before": 10344, "ابتدای": 10345, "قشنگیه": 10346, "غیرت": 10347, "راستشو": 10348, "سلیقه": 10349, "قهره": 10350, "غرب": 10351, "مشکلاتت": 10352, "تلفظ": 10353, "ﺑﺎﺭ": 10354, "سختیا": 10355, "میخواستی": 10356, "الاچی": 10357, "بفهمن": 10358, "نجاتم": 10359, "ﺩﺍﺩ": 10360, "نخست": 10361, "موضوعات": 10362, "كمتر": 10363, "ديوانه": 10364, "cafe": 10365, "شکوری": 10366, "ردیف": 10367, "دقایقی": 10368, "فرهنگی": 10369, "بخوابید": 10370, "گرامی": 10371, "تحصیلی": 10372, "دفترچه": 10373, "تحقیق": 10374, "عباس_معروفی": 10375, "This": 10376, "Happ": 10377, "حساسیت": 10378, "جنوب": 10379, "کشاورز": 10380, "یکهو": 10381, "اسماعی": 10382, "معلومه": 10383, "خداروش": 10384, "زاویه": 10385, "شکسپیر": 10386, "کاينات": 10387, "little": 10388, "Ca": 10389, "Na": 10390, "OU": 10391, "ever": 10392, "even": 10393, "hd": 10394, "ive": 10395, "talk": 10396, "بفرو": 10397, "بخواهیم": 10398, "بكش": 10399, "تيا": 10400, "تجوی": 10401, "حری": 10402, "حریم": 10403, "سس": 10404, "شفا": 10405, "ضریب": 10406, "علوم": 10407, "غای": 10408, "غار": 10409, "فنا": 10410, "فعلا": 10411, "فوری": 10412, "فهیم": 10413, "قـ": 10414, "لشکر": 10415, "نهایی": 10416, "نتواند": 10417, "نخوری": 10418, "يني": 10419, "پتان": 10420, "کع": 10421, "کک": 10422, "کباب": 10423, "کاوی": 10424, "یازده": 10425, "〰〰": 10426, "ﮔﺮﺩ": 10427, "ﺮﻩ": 10428, "ﻧﻮ": 10429, "ﻬﻤ": 10430, "𝗆𝗈𝗆": 10431, "𝗎𝗀": 10432, "𝗐𝖾𝖾": 10433, "𝗰𝗮𝘁": 10434, "🫶🏻": 10435, "میچ": 10436, "ازارم": 10437, "رابین": 10438, "رابرت": 10439, "باختن": 10440, "امک": 10441, "اماد": 10442, "درهم": 10443, "دیوید": 10444, "همرو": 10445, "همدم": 10446, "بیگانه": 10447, "الیا": 10448, "گیرید": 10449, "هایده": 10450, "شیخ": 10451, "یکسره": 10452, "مونیم": 10453, "هرکه": 10454, "ابنده": 10455, "دلخوش": 10456, "دلبرو": 10457, "دلبسته": 10458, "برایتان": 10459, "ادماش": 10460, "پیج": 10461, "سراز": 10462, "سرخی": 10463, "نوشتی": 10464, "دستشان": 10465, "ميتونه": 10466, "ميكنيم": 10467, "گويم": 10468, "بوجود": 10469, "شنامه": 10470, "معلق": 10471, "رفتارت": 10472, "اندازی": 10473, "شبتون": 10474, "جوونه": 10475, "جوونی": 10476, "کلماتی": 10477, "مثله": 10478, "اگرم": 10479, "ناکافی": 10480, "لويی": 10481, "عاشقان": 10482, "دورترین": 10483, "مشاور": 10484, "چشمهایت": 10485, "گردش": 10486, "خوابتو": 10487, "وجودتو": 10488, "الیس": 10489, "خواستند": 10490, "نارنج": 10491, "همونم": 10492, "اموزان": 10493, "نبودند": 10494, "اهنگا": 10495, "نداشتنت": 10496, "تعوی": 10497, "تعدادی": 10498, "hare": 10499, "arl": 10500, "دروغی": 10501, "لبخندم": 10502, "بگذرونی": 10503, "خدابنده": 10504, "بندازم": 10505, "مغزی": 10506, "پرورد": 10507, "پرونده": 10508, "بسازد": 10509, "اسممو": 10510, "because": 10511, "هیچکسو": 10512, "حیوون": 10513, "میشناسم": 10514, "سرمای": 10515, "قشنگیای": 10516, "دلتنگتم": 10517, "ذهنتون": 10518, "خندیدی": 10519, "پردازد": 10520, "وایمی": 10521, "موندیم": 10522, "گوشیو": 10523, "بخشیده": 10524, "لباسای": 10525, "مطمينی": 10526, "غریبی": 10527, "واقعي": 10528, "عزیزان": 10529, "سکته": 10530, "بذارن": 10531, "بگذارند": 10532, "بمب": 10533, "ناشناخته": 10534, "بدترين": 10535, "tern": 10536, "خیابونای": 10537, "علاقمو": 10538, "without": 10539, "حوض": 10540, "کریستین": 10541, "ساختگی": 10542, "عطش": 10543, "خرداد": 10544, "نابودی": 10545, "شبهای": 10546, "ﻣﯿﮑ": 10547, "دگرگون": 10548, "تپد": 10549, "تعطیلات": 10550, "نوشیدن": 10551, "تغییری": 10552, "تکلیفی": 10553, "تمومش": 10554, "عضو": 10555, "graph": 10556, "مذهب": 10557, "عرفان": 10558, "رسول_": 10559, "صرافیان": 10560, "پاهام": 10561, "خلاقیت": 10562, "طاهره": 10563, "ﻫﻤﯿﺸﻪ": 10564, "گذروندن": 10565, "place": 10566, "کبریت": 10567, "گابریل": 10568, "دموکرا": 10569, "گوستاو": 10570, "قهقهه": 10571, "ﺍﻧﺮﮊﯼ": 10572, "Blue": 10573, "ولنتاین": 10574, "فروردین": 10575, "ملاحظه": 10576, "ساندوی": 10577, "AN": 10578, "Mu": 10579, "Sa": 10580, "TH": 10581, "_ها": 10582, "_فرخزاد": 10583, "der": 10584, "dark": 10585, "fm": 10586, "ja": 10587, "min": 10588, "vd": 10589, "تندی": 10590, "حسر": 10591, "خجال": 10592, "داش": 10593, "زنید": 10594, "سازه": 10595, "قن": 10596, "لنگه": 10597, "مادی": 10598, "نپرس": 10599, "هلی": 10600, "هــ": 10601, "وام": 10602, "کبود": 10603, "کاکايو": 10604, "کاشته": 10605, "ﺍﺷﺘ": 10606, "ﺒﺖ": 10607, "ﻧﻔ": 10608, "𝖼𝗎𝗍": 10609, "𝖿𝗎": 10610, "𝗈𝖿": 10611, "🫴🏻": 10612, "میدادی": 10613, "میگویی": 10614, "ندون": 10615, "روا": 10616, "ادری": 10617, "ادوارد": 10618, "همای": 10619, "همدیگرو": 10620, "ریل": 10621, "بیفتی": 10622, "الکل": 10623, "دویی": 10624, "تیز": 10625, "تابل": 10626, "یکشنبه": 10627, "نمیدانی": 10628, "نمیدونن": 10629, "اولا": 10630, "هرگاه": 10631, "che": 10632, "ماندیم": 10633, "هیگ": 10634, "دوستون": 10635, "دوستاش": 10636, "نمرده": 10637, "روزنه": 10638, "خیم": 10639, "اتمام": 10640, "فرمون": 10641, "دستمال": 10642, "ميدم": 10643, "ميكنند": 10644, "بوبن": 10645, "کیسه": 10646, "بزاره": 10647, "قیصر": 10648, "کارا": 10649, "شوخ": 10650, "فیس": 10651, "کسي": 10652, "کمکم": 10653, "متری": 10654, "کنارته": 10655, "قلبمی": 10656, "بخوانم": 10657, "سوگند": 10658, "گرید": 10659, "مشكل": 10660, "خاطرت": 10661, "مراد": 10662, "نزنیم": 10663, "دیواری": 10664, "ماهه": 10665, "stay": 10666, "اهنگساز": 10667, "کشنده": 10668, "ملال": 10669, "عابر": 10670, "روحمو": 10671, "زیرنویس": 10672, "اوردیم": 10673, "مهرب": 10674, "قلبه": 10675, "شنیدی": 10676, "خورشیدی": 10677, "نگهش": 10678, "اتاقی": 10679, "سیگارم": 10680, "بذر": 10681, "پارچه": 10682, "پارسال": 10683, "توییتر": 10684, "دلبرانه": 10685, "سعید": 10686, "شادمان": 10687, "ایستد": 10688, "myself": 10689, "وایس": 10690, "وایساده": 10691, "سطل": 10692, "ries": 10693, "وفاداری": 10694, "ash": 10695, "keep": 10696, "میبینمش": 10697, "واقعيت": 10698, "wiki": 10699, "حضورت": 10700, "مشکلاتی": 10701, "رسیدگی": 10702, "سفيد": 10703, "ﺑﺎﺷﺪ": 10704, "شناختن": 10705, "پذي": 10706, "شنیدنش": 10707, "ريف": 10708, "ببرمت": 10709, "هدفت": 10710, "تراژ": 10711, "كوچه": 10712, "خالي": 10713, "محبوبم": 10714, "خشمگین": 10715, "جمهور": 10716, "نابغه": 10717, "عقاب": 10718, "تایمی": 10719, "میذارن": 10720, "اعصابم": 10721, "جايی": 10722, "کیومرث": 10723, "خنکی": 10724, "کصکش": 10725, "منفجر": 10726, "خصوصیات": 10727, "تضاد": 10728, "Rock": 10729, "➖➖➖➖": 10730, "اعتنا": 10731, "happy": 10732, "𝗂𝗍𝗍𝗅𝖾": 10733, "باقرلو": 10734, "عبدالملکیان": 10735, "ﻓﻘﻂ": 10736, "تياتر": 10737, ".💚": 10738, "Ju": 10739, "May": 10740, "Ment": 10741, "_mag": 10742, "fin": 10743, "ga": 10744, "home": 10745, "m_s": 10746, "part": 10747, "run": 10748, "tr": 10749, "why": 10750, "za": 10751, "بجنگ": 10752, "تتو": 10753, "ثین": 10754, "جاس": 10755, "جنده": 10756, "حمد": 10757, "حمام": 10758, "حامد": 10759, "حریف": 10760, "حروم": 10761, "خدارو": 10762, "رغم": 10763, "سله": 10764, "سطر": 10765, "سا_": 10766, "سرفه": 10767, "شيد": 10768, "طار": 10769, "عریان": 10770, "فول": 10771, "فانت": 10772, "فالاچی": 10773, "لابل": 10774, "نجو": 10775, "نکش": 10776, "نكرد": 10777, "نرسید": 10778, "نباشن": 10779, "نرسیده": 10780, "نكرده": 10781, "پش": 10782, "پال": 10783, "پازل": 10784, "چجور": 10785, "کدو": 10786, "کاور": 10787, "گات": 10788, "گشاد": 10789, "یـ": 10790, "‏+": 10791, "ﺍﻧﺪ": 10792, "ﺍﮔﺮ": 10793, "ﺣﺎ": 10794, "ﻣﻌ": 10795, "ﻳﻦ": 10796, "𝖾𝗏𝖾": 10797, "𝗎𝗆": 10798, "🖕🏿": 10799, "میکن": 10800, "میکشید": 10801, "میروند": 10802, "میفتم": 10803, "میـا": 10804, "ایله": 10805, "انگ": 10806, "اریک": 10807, "ارمان": 10808, "ندرا": 10809, "نداند": 10810, "ندیم": 10811, "توبه": 10812, "بادی": 10813, "باحال": 10814, "خوف": 10815, "خونس": 10816, "خورید": 10817, "درش": 10818, "همراهی": 10819, "ریچارد": 10820, "بید": 10821, "بیاوری": 10822, "الون": 10823, "برشت": 10824, "برنج": 10825, "هاب": 10826, "تیو": 10827, "داران": 10828, "استقبال": 10829, "شهامت": 10830, "یکباره": 10831, "موافق": 10832, "نمیمونه": 10833, "خودمی": 10834, "اواخر": 10835, "هرجور": 10836, "هرکدام": 10837, "دهنت": 10838, "ویژه": 10839, "چیپس": 10840, "اسلحه": 10841, "شمندان": 10842, "خیام": 10843, "فرياد": 10844, "سري": 10845, "انیمه": 10846, "تماما": 10847, "داشتي": 10848, "داشتنم": 10849, "باریک": 10850, "دستهای": 10851, "اقعی": 10852, "گوجه": 10853, "بدجور": 10854, "بدتره": 10855, "کیر": 10856, "بخرد": 10857, "کارام": 10858, "کاربردی": 10859, "براساس": 10860, "جاذبه": 10861, "light": 10862, "mer": 10863, "مثلن": 10864, "ناچیز": 10865, "کنارتون": 10866, "قلبتون": 10867, "راهکار": 10868, "احساست": 10869, "پیشنهادی": 10870, "دیدند": 10871, "مراتب": 10872, "احساسم": 10873, "نزنی": 10874, "افتند": 10875, "اکبر": 10876, "ديدي": 10877, "تصاحب": 10878, "فهمیدیم": 10879, "فراموشم": 10880, "عاتی": 10881, "پوری": 10882, "هايمان": 10883, "نزدیکم": 10884, "alright": 10885, "خواهمت": 10886, "بسپار": 10887, "اسمتو": 10888, "افراطی": 10889, "ماندگی": 10890, "صحیح": 10891, "بشینی": 10892, "خندت": 10893, "نگهداری": 10894, "مارتین": 10895, "ترکیه": 10896, "دلشوره": 10897, "عمیقی": 10898, "انتظارش": 10899, "چشماتونو": 10900, "دیرتر": 10901, "گذشتم": 10902, "تولدم": 10903, "mak": 10904, "رویاهات": 10905, "عطرت": 10906, "پنهون": 10907, "شکرم": 10908, "شناسه": 10909, "میکشن": 10910, "تاثیری": 10911, "able": 10912, "forget": 10913, "سراغت": 10914, "خودشونو": 10915, "اویزان": 10916, "عطری": 10917, "خاصیت": 10918, "اشتباها": 10919, "فروغ_فرخزاد": 10920, "برسند": 10921, "اینطوریه": 10922, "اهدافت": 10923, "reason": 10924, "ﻤﺎﻡ": 10925, "شوهرش": 10926, "پژوه": 10927, "محسن_": 10928, "يادمه": 10929, "music": 10930, "شفاف": 10931, "تمومه": 10932, "aria_": 10933, "رومن_": 10934, "نشنیده": 10935, "والپیپرها": 10936, "play": 10937, "جذابیت": 10938, "Sunshine": 10939, "التیام": 10940, "اکسیژن": 10941, "ﻣﺜﻞ": 10942, "جغرافیایی": 10943, "paragraph": 10944, "پیرامون": 10945, "هلاکویی": 10946, "کدامین": 10947, "دیالوگ_باکس": 10948, "منسجم": 10949, "cafeparagraph": 10950, "خداروشکر": 10951, "تجویز": 10952, "پتانسیل": 10953, "سرازیر": 10954, "لابلای": 10955, "cafeparagraph_mag": 10956, ".🐈": 10957, "Her": 10958, "_در": 10959, "amir": 10960, "fall": 10961, "rough": 10962, "vhd": 10963, "ya": 10964, "yes": 10965, "اها": 10966, "اهای": 10967, "بپ": 10968, "بمیر": 10969, "تپه": 10970, "جفا": 10971, "خفت": 10972, "زرنگ": 10973, "سپر": 10974, "سویی": 10975, "شفی": 10976, "صفت": 10977, "ضاد": 10978, "غسان": 10979, "فیه": 10980, "فقد": 10981, "فعل": 10982, "كلا": 10983, "كلي": 10984, "لوله": 10985, "متوسط": 10986, "نانو": 10987, "نشوم": 10988, "نكنم": 10989, "نغمه": 10990, "وهم": 10991, "گرون": 10992, "یہ": 10993, "–>": 10994, "—–>": 10995, "ﮑﺮ": 10996, "ﯿﺎ": 10997, "ﻠﻮ": 10998, "ﻧﺒﺎ": 10999, "ﻫﯽ": 11000, "ﻳﻢ": 11001, "𝖺𝗎𝗍": 11002, "𝗆𝗈": 11003, "𝘃𝗲": 11004, "👩🏻": 11005, "میله": 11006, "میگرفت": 11007, "میلان": 11008, "میگردی": 11009, "انند": 11010, "ارتی": 11011, "تويي": 11012, "نیار": 11013, "روسری": 11014, "ام_": 11015, "امدیم": 11016, "ونسان": 11017, "دیداری": 11018, "بیاین": 11019, "بیخودی": 11020, "دوید": 11021, "استث": 11022, "استه": 11023, "شهید": 11024, "شیده": 11025, "شیراز": 11026, "یکاری": 11027, "موهامو": 11028, "نمیگه": 11029, "نمیگن": 11030, "خوده": 11031, "اسد": 11032, "اسارت": 11033, "اسلامی": 11034, "ورم": 11035, "ماندی": 11036, "ana": 11037, "هیزم": 11038, "دوستانی": 11039, "پیدام": 11040, "فرط": 11041, "سرکار": 11042, "سرسبز": 11043, "نوجوانی": 11044, "تنبل": 11045, "هستى": 11046, "اقض": 11047, "اقدام": 11048, "اقرار": 11049, "بدنی": 11050, "کوچیکه": 11051, "بلدن": 11052, "خواهان": 11053, "نشویم": 11054, "رویداد": 11055, "شماها": 11056, "متشکرم": 11057, "میخورن": 11058, "heet": 11059, "دردامو": 11060, "یداللهی": 11061, "بریزه": 11062, "ارومه": 11063, "خوابند": 11064, "really": 11065, "وجودمو": 11066, "اجباری": 11067, "بردارد": 11068, "میزدی": 11069, "اغراق": 11070, "اينطور": 11071, "بخندد": 11072, "اولوی": 11073, "رسيدن": 11074, "مممم": 11075, "نداشتند": 11076, "تعریفی": 11077, "زهرا": 11078, "امروزه": 11079, "لبخندش": 11080, "غیرم": 11081, "عکسات": 11082, "طرفدار": 11083, "رتبه": 11084, "ori": 11085, "بینمت": 11086, "رفیقی": 11087, "تقلا": 11088, "تقلید": 11089, "اشکاتو": 11090, "پدرت": 11091, "پدربزرگ": 11092, "میدهی": 11093, "tell": 11094, "عالمی": 11095, "اندوهی": 11096, "تصورم": 11097, "واقعیه": 11098, "والا": 11099, "سفیدی": 11100, "utm_s": 11101, "اندوهگین": 11102, "ig_s": 11103, "نکات": 11104, "خودمونو": 11105, "موقعیتی": 11106, "بلاتکلیفی": 11107, "كلمه": 11108, "صادق_": 11109, "ـهـ": 11110, "خیابونا": 11111, "قیافش": 11112, "کثافت": 11113, "میدونست": 11114, "صندوق": 11115, "بفرستی": 11116, "کودکانه": 11117, "نادرست": 11118, "امدنت": 11119, ">>>>>": 11120, "يعنی": 11121, "take": 11122, "پیچد": 11123, "اميرعلى": 11124, "اندازند": 11125, "ours": 11126, "ource": 11127, "Mood": 11128, "خرابه": 11129, "ﮐﻨﻨﺪ": 11130, "_sheet": 11131, "مرتبه": 11132, "تسبی": 11133, "𝗈𝗈𝗄": 11134, "پايولو_کو": 11135, "كانال": 11136, "عرضه": 11137, "𝖻𝖺𝖻𝗒": 11138, "شیمیایی": 11139, "تصورات": 11140, "𝗼𝘂𝗿": 11141, "castbox": 11142, "فرانتس": 11143, "درخشش": 11144, "گوسفند": 11145, "اصفهان": 11146, "ندهید": 11147, "touch": 11148, "روزبه_معین": 11149, "منصفانه": 11150, "امتیاز": 11151, "𝗐𝖾𝖾𝗍": 11152, "hare_sheet": 11153, "خجالتی": 11154, "مهربونه": 11155, "aria_vhd": 11156, "utm_source": 11157, "ig_share_sheet": 11158, "An": 11159, "Miss": 11160, "Su": 11161, "YOU": 11162, "_س": 11163, "_فر": 11164, "amo": 11165, "ama": 11166, "first": 11167, "ire": 11168, "ue": 11169, "بتوان": 11170, "بجاش": 11171, "تایی": 11172, "تله": 11173, "حروف": 11174, "داوری": 11175, "ربا": 11176, "رعد": 11177, "سلو": 11178, "شكل": 11179, "صل": 11180, "طرفت": 11181, "عب": 11182, "عبوس": 11183, "فلی": 11184, "لند": 11185, "متم": 11186, "ماده": 11187, "نکنند": 11188, "نتوانست": 11189, "وخ": 11190, "کپی": 11191, "یابند": 11192, "ﮔﺬ": 11193, "ﯾﻪ": 11194, "ﺎﺏ": 11195, "ﺑﻠ": 11196, "ﺳﻮ": 11197, "𝖬𝖺": 11198, "𝖺𝗅": 11199, "💃🏻": 11200, "مینا": 11201, "انوقت": 11202, "ندهم": 11203, "تونین": 11204, "باق": 11205, "بالی": 11206, "بافته": 11207, "باخبر": 11208, "خوندی": 11209, "درخواستی": 11210, "دیری": 11211, "بیب": 11212, "..\"": 11213, "برگرفته": 11214, "لیس": 11215, "سیامک": 11216, "دارچین": 11217, "ترج": 11218, "نگي": 11219, "شیار": 11220, "شینم": 11221, "مومن": 11222, "موسي": 11223, "نمیکرد": 11224, "اورا": 11225, "اورول": 11226, "هرز": 11227, "هرکار": 11228, "iiii": 11229, "دلسرد": 11230, "دلایلی": 11231, "شمندی": 11232, "شمس_": 11233, "هیاهوی": 11234, "دوستانه": 11235, "پیوی": 11236, "روزى": 11237, "روزام": 11238, "سرچشمه": 11239, "اریته": 11240, "اوني": 11241, "دستانم": 11242, "ميداد": 11243, "کیم": 11244, "کوزه": 11245, "inside": 11246, "اخرم": 11247, "کارشان": 11248, "بازي": 11249, "lia": 11250, "list": 11251, "بلنده": 11252, "بلكه": 11253, "سالگرد": 11254, "سالمندان": 11255, "کلان": 11256, "ناصر": 11257, "مهری": 11258, "لوسی": 11259, "مرزبان": 11260, "قلبمان": 11261, "سوفی": 11262, "سوختن": 11263, "راهت": 11264, "کتابای": 11265, "نامش": 11266, "نامم": 11267, "چندانی": 11268, "بیشتره": 11269, "بدونن": 11270, "reme": 11271, "اجر": 11272, "میزنند": 11273, "ارامشت": 11274, "دانشمندان": 11275, "بغلتو": 11276, "بيمار": 11277, "تعريف": 11278, "عوامل": 11279, "بانوی": 11280, "پاداش": 11281, "اوردنش": 11282, "انهايی": 11283, "led": 11284, "بندند": 11285, "ارزوهام": 11286, "کامپیو": 11287, "کلامی": 11288, "طینه": 11289, "تجربیات": 11290, "خورن": 11291, "خواندی": 11292, "حوصلم": 11293, "پیامتو": 11294, "خيابون": 11295, "ببینن": 11296, "tes": 11297, "حلال": 11298, "شکستگی": 11299, "خوابیدی": 11300, "ded": 11301, "its": 11302, "ترسیدی": 11303, "عصبان": 11304, "مدیون": 11305, "غذاهای": 11306, "جادوی": 11307, "میبینمت": 11308, "جذابه": 11309, "همراهت": 11310, "میخری": 11311, "هميش": 11312, "جوانان": 11313, "چیکو": 11314, "last": 11315, "ارنست": 11316, "ترکیبی": 11317, "احتیاط": 11318, "𝗆𝖾𝗈𝗐": 11319, "وطنم": 11320, "لباتو": 11321, "پوستت": 11322, "جنگیدم": 11323, "پاشنه": 11324, "میدونن": 11325, "میذاری": 11326, "امتداد": 11327, "نگذارید": 11328, "لامصب": 11329, "هنرمندان": 11330, "شاگرد": 11331, "ﺍﯾﻨ": 11332, "بسازید": 11333, "feelings": 11334, "قرنطینه": 11335, "سايه": 11336, "زيادى": 11337, "خاطراتی": 11338, "everything": 11339, "مناسبی": 11340, "hard": 11341, "حجاب": 11342, "بخشمت": 11343, "ستارگان": 11344, "مصطفی_": 11345, "افشاریان": 11346, "جاودانه": 11347, "نمیزاره": 11348, "خنجر": 11349, "پاييز": 11350, "لزوما": 11351, "نیلوفر": 11352, "هوشنگ_ابتهاج": 11353, "تغذیه": 11354, "وقایع": 11355, "دموکراسی": 11356, "<<": 11357, "Can": 11358, "DF": 11359, "Mor": 11360, "^.": 11361, "_از_": 11362, "af": 11363, "ler": 11364, "won": 11365, "ze": 11366, "اگز": 11367, "بجا": 11368, "بکنند": 11369, "بـــ": 11370, "بتوانند": 11371, "تکن": 11372, "تشبیه": 11373, "تخیل": 11374, "جي": 11375, "جسد": 11376, "خرس": 11377, "خير": 11378, "دفه": 11379, "زوال": 11380, "سنجی": 11381, "سارا": 11382, "شرف": 11383, "صدی": 11384, "غما": 11385, "ـنا": 11386, "فاش": 11387, "فات": 11388, "قاص": 11389, "كشور": 11390, "لویی": 11391, "مژ": 11392, "مفت": 11393, "مکم": 11394, "ممت": 11395, "مایل": 11396, "نهم": 11397, "نمو": 11398, "نتوانم": 11399, "نکشیده": 11400, "هروز": 11401, "هندی": 11402, "واد": 11403, "وشی": 11404, "وزیر": 11405, "وجب": 11406, "ژاک": 11407, "کریم": 11408, "ﺩﺳﺖ": 11409, "ﺻﺪﺍ": 11410, "ﻤﺎﻥ": 11411, "ﻧﺴﺘ": 11412, "𝐨𝐮": 11413, "𝖺𝖽": 11414, "𝗇𝗈": 11415, "میپو": 11416, "میفهم": 11417, "میرفتیم": 11418, "کهن": 11419, "راتی": 11420, "امم": 11421, "امانت": 11422, "ونت": 11423, "دیت": 11424, "دیونه": 11425, "ریزه": 11426, "بیارید": 11427, "کناری": 11428, "برهم": 11429, "برسید": 11430, "اینک": 11431, "سیه": 11432, "دارمو": 11433, "استخون": 11434, "اهد": 11435, "تراز": 11436, "شهرت": 11437, "بودى": 11438, "یکجا": 11439, "ماج": 11440, "مووی": 11441, "نمیدی": 11442, "نمیبره": 11443, "نمیتونیم": 11444, "هرجایی": 11445, "ویرانی": 11446, "ویالون": 11447, "اسکات": 11448, "دله": 11449, "شماری": 11450, "دوستاتون": 11451, "نماید": 11452, "روز_": 11453, "خیار": 11454, "خیاط": 11455, "زندگیته": 11456, "فرایند": 11457, "فرمول": 11458, "نوي": 11459, "ایدای": 11460, "بعده": 11461, "مير": 11462, "ميك": 11463, "ميترس": 11464, "ميزنم": 11465, "بدش": 11466, "کويیلو": 11467, "کويلیو": 11468, "وقتام": 11469, "قیب": 11470, "پرتو": 11471, "پرسيدم": 11472, "بازگشته": 11473, "جوک": 11474, "تهوع": 11475, "اعمال": 11476, "نشاط": 11477, "نشانت": 11478, "خوبن": 11479, "متقابل": 11480, "loo": 11481, "تنهايی": 11482, "تنهايي": 11483, "سومین": 11484, "دورانی": 11485, "همینطوری": 11486, "ناممکن": 11487, "خاطرم": 11488, "وجودمان": 11489, "افتادی": 11490, "اجاره": 11491, "دیوونم": 11492, "همانجا": 11493, "نیازم": 11494, "بخندید": 11495, "اهنگام": 11496, "شکلاتی": 11497, "has": 11498, "پاهات": 11499, "تاريخ": 11500, "نزدیکه": 11501, "too": 11502, "جورایی": 11503, "مالکیت": 11504, "فریبا": 11505, "تلاشم": 11506, "belie": 11507, "better": 11508, "خندند": 11509, "بادباد": 11510, "پرسیده": 11511, "پارك": 11512, "جلوگیری": 11513, "تولتز": 11514, "نداريم": 11515, "ابرهای": 11516, "چارتا": 11517, "لطافت": 11518, "خلسه": 11519, "چطوره": 11520, "بوسیدنی": 11521, "مصدو": 11522, "غري": 11523, "اشناست": 11524, "كارى": 11525, "واقعیم": 11526, "مسيولی": 11527, "کتابا": 11528, "افکارت": 11529, "سعاد": 11530, "row": 11531, "ببندد": 11532, "ییی": 11533, "كلاس": 11534, "urn": 11535, "خالق": 11536, "امتحانات": 11537, "ختیم": 11538, "گناهی": 11539, "خرده": 11540, "؟؟؟": 11541, "بنشینم": 11542, "نرودا": 11543, "عاطفه": 11544, "بشنوه": 11545, "منظورش": 11546, "سودابه": 11547, "بطری": 11548, "مکالمات": 11549, "زيادي": 11550, "دايمی": 11551, "نمایشنامه": 11552, "شفای": 11553, "معصومه": 11554, "سیمین_": 11555, "روستایی": 11556, "مرکب": 11557, "ادامس": 11558, "بلرزه": 11559, "ﺑﺰﺭ": 11560, "اکثرا": 11561, "گالری": 11562, "انزوا": 11563, "مختلفی": 11564, "تداعی": 11565, "فاحشه": 11566, "HarfBeManBot": 11567, "عميق": 11568, "همایون": 11569, "فانتزی": 11570, "اميرعلى_ق": 11571, "-//": 11572, ".🧡": 11573, ":'": 11574, "BC": 11575, "Con": 11576, "GM": 11577, "Gra": 11578, "Gre": 11579, "Lu": 11580, "PDF": 11581, "_مح": 11582, "bra": 11583, "fy": 11584, "iness": 11585, "tra": 11586, "؟...": 11587, "اکو": 11588, "بپذیر": 11589, "بگردی": 11590, "بگا": 11591, "تامل": 11592, "جانت": 11593, "جعه": 11594, "جدیده": 11595, "دپ": 11596, "ذارن": 11597, "سز": 11598, "سفری": 11599, "ششم": 11600, "شکننده": 11601, "شغلی": 11602, "طری": 11603, "عور": 11604, "عمرا": 11605, "فاک": 11606, "قامت": 11607, "كث": 11608, "كفش": 11609, "لور": 11610, "لجن": 11611, "لاله": 11612, "مده": 11613, "نازم": 11614, "نخواهید": 11615, "نخوره": 11616, "نرسه": 11617, "هش": 11618, "وامی": 11619, "وپری": 11620, "پک": 11621, "گچ": 11622, "ﺍﻓ": 11623, "ﺑﻬ": 11624, "ﻓﺖ": 11625, "ﻓﮑﺮ": 11626, "ﻧﮕ": 11627, "𝗌𝗐𝖾𝖾𝗍": 11628, "👋🏻": 11629, "میبینن": 11630, "اري": 11631, "ارضا": 11632, "نیه": 11633, "روشون": 11634, "اداب": 11635, "امـ": 11636, "درنگ": 11637, "درگير": 11638, "همە": 11639, "بیامو": 11640, "بیافری": 11641, "بیاوریم": 11642, "الز": 11643, "ودگی": 11644, "گیل": 11645, "سینم": 11646, "سیصد": 11647, "استخدام": 11648, "اهن": 11649, "بودنو": 11650, "یکیه": 11651, "موتور": 11652, "نمیکنیم": 11653, "خودشم": 11654, "نهان": 11655, "ویترین": 11656, "زندم": 11657, "ماندنی": 11658, "فرسنگ": 11659, "سرتون": 11660, "تنبیه": 11661, "حالمان": 11662, "دستمان": 11663, "دسترسی": 11664, "گفتار": 11665, "گورو": 11666, "گواری": 11667, "داخ": 11668, "بوته": 11669, "معاد": 11670, "معامله": 11671, "بزنین": 11672, "رفتيم": 11673, "ought": 11674, "گذاریم": 11675, "اخره": 11676, "اينجور": 11677, "شوری": 11678, "تونى": 11679, "تونسته": 11680, "کسل": 11681, "کلن": 11682, "کمکی": 11683, "رویت": 11684, "حسه": 11685, "حساسم": 11686, "متقاعد": 11687, "متضاد": 11688, "مهد": 11689, "مهسا": 11690, "مرتک": 11691, "بیشعوری": 11692, "سوزم": 11693, "گریان": 11694, "دردای": 11695, "دردام": 11696, "هواي": 11697, "تلر": 11698, "مراجعه": 11699, "بردند": 11700, "برداریم": 11701, "ماهو": 11702, "صبحونه": 11703, "فردریک": 11704, "بيان": 11705, "دخالت": 11706, "بودین": 11707, "نگین": 11708, "رسانه": 11709, "رسيدم": 11710, "تحریم": 11711, "تحقق": 11712, "مملو": 11713, "ملتی": 11714, "ملایم": 11715, "نسب": 11716, "مجلس": 11717, "جرعه": 11718, "میتوانید": 11719, "جملاتی": 11720, "يكم": 11721, "بگذرم": 11722, "ترسناکه": 11723, "ایتان": 11724, "طرفو": 11725, "پنجشنبه": 11726, "als": 11727, "گذاشتند": 11728, "رنگش": 11729, "ماندند": 11730, "كنارم": 11731, "علامت": 11732, "جوابشو": 11733, "پرسیدن": 11734, "tic": 11735, "پولش": 11736, "اورثین": 11737, "اتوبان": 11738, "نداري": 11739, "قوه": 11740, "گوشیت": 11741, "بشنود": 11742, "سازمان": 11743, "کوتاهه": 11744, "ناکامی": 11745, "دیوارهای": 11746, "تلخه": 11747, "همونیم": 11748, "میریزم": 11749, "برايش": 11750, "قضا": 11751, "تاریکم": 11752, "پنهانی": 11753, "شناسان": 11754, "شناسنامه": 11755, "کالبد": 11756, "فصلی": 11757, "else": 11758, "متفاو": 11759, "حضورش": 11760, "ارتباطات": 11761, "said": 11762, "بينى": 11763, "پاشد": 11764, "دقایق": 11765, "دویست": 11766, "بگيره": 11767, ":)))))": 11768, "Before": 11769, "ﻣﯿﺪ": 11770, "words": 11771, "ﺍﻧﺘ": 11772, "بوسیدنت": 11773, "مضمون": 11774, "کیهان": 11775, "ابدیت": 11776, "سايـنا": 11777, "دشواری": 11778, "thinking": 11779, "ﺩﯾﮕﻪ": 11780, "forever": 11781, "مظلو": 11782, "كوچك": 11783, "بپوشم": 11784, "شيرين": 11785, "زبانم": 11786, "اموزشی": 11787, "sky": 11788, "••••••••": 11789, "لاواریته": 11790, "پیرهن": 11791, "ﺷﻮﻧﺪ": 11792, "سپیده": 11793, "وسوسه": 11794, "لطیف": 11795, "پیشونی": 11796, "مروارید": 11797, "عقربه": 11798, "خدافظی": 11799, "رمضان": 11800, "انبوه": 11801, "انجمن": 11802, "فرندز": 11803, "ساقه": 11804, "ماموریت": 11805, "ﺑﻌﺪ": 11806, "smile": 11807, "under": 11808, "ساندویچ": 11809, "𝖼𝗎𝗍𝖾": 11810, "اگزوپری": 11811, "مصدومیت": 11812, "!)": 11813, ",,": 11814, "-^": 11815, ".🧸": 11816, ":/": 11817, ";)": 11818, "?!": 11819, "Ame": 11820, "Dream": 11821, "FP": 11822, "Fa": 11823, "How": 11824, "Night": 11825, "OT": 11826, "TP": 11827, "That": 11828, "^-^": 11829, "_چجوری": 11830, "ber": 11831, "bro": 11832, "je": 11833, "ks": 11834, "phile": 11835, "paria_vhd": 11836, "van": 11837, "»؛": 11838, "тн": 11839, "؟🥹": 11840, "بطور": 11841, "بپره": 11842, "بپرداز": 11843, "خانگی": 11844, "خزان": 11845, "زشی": 11846, "زني": 11847, "صحت": 11848, "عباد": 11849, "عزاد": 11850, "فور": 11851, "فورد": 11852, "قدي": 11853, "قاسم": 11854, "قصر": 11855, "لد": 11856, "لبی": 11857, "لگد": 11858, "نتونست": 11859, "نهايت": 11860, "وصی": 11861, "وجودی": 11862, "ى_": 11863, "پشم": 11864, "کده": 11865, "کاستی": 11866, "گپ": 11867, "گلم": 11868, "گزیر": 11869, "ﭼﻪ": 11870, "ﮐﺎ": 11871, "ﯾﺖ": 11872, "ﺧﻮﺭ": 11873, "ﺭﺳ": 11874, "ﻣﺮ": 11875, "𝖺𝗏𝖾": 11876, "𝖿𝗋": 11877, "𝗌𝖾": 11878, "میرس": 11879, "میساز": 11880, "میتونستی": 11881, "میبینید": 11882, "ایـن": 11883, "انجایی": 11884, "ارزید": 11885, "ندونی": 11886, "بهایی": 11887, "خونین": 11888, "نیازه": 11889, "نیافت": 11890, "نیکا": 11891, "روال": 11892, "ادبی": 11893, "دیکتا": 11894, "همکلاسی": 11895, "بیتی": 11896, "برکه": 11897, "هاچیکو": 11898, "دوپ": 11899, "لیاق": 11900, "های_": 11901, "استخر": 11902, "ترمیم": 11903, "تاکنون": 11904, "موهایم": 11905, "مواقعی": 11906, "خودمه": 11907, "دهيم": 11908, "ابع": 11909, "ابراه": 11910, "دوستتون": 11911, "نميد": 11912, "لاحی": 11913, "روزش": 11914, "سرشو": 11915, "نوشم": 11916, "تنفس": 11917, "حالشون": 11918, "داشتنه": 11919, "دستاورد": 11920, "هسته": 11921, "ميومد": 11922, "کولر": 11923, "شنوید": 11924, "افزود": 11925, "oud": 11926, "پرندگان": 11927, "ندهد": 11928, "عیت": 11929, "ناظ": 11930, "خوبى": 11931, "متخصص": 11932, "مرجان": 11933, "اصول": 11934, "اصولا": 11935, "یادتان": 11936, "یاداور": 11937, "تنهايى": 11938, "سوری": 11939, "مشتی": 11940, "چشمک": 11941, "loved": 11942, "ادیت": 11943, "دونفر": 11944, "دونستن": 11945, "دونفره": 11946, "اينها": 11947, "جامه": 11948, "گلشیری": 11949, "مسموم": 11950, "مسعود": 11951, "جانان": 11952, "کشاند": 11953, "كرديم": 11954, "اتفاقاتی": 11955, "مجال": 11956, "شکده": 11957, "روحتو": 11958, "میتوانم": 11959, "سردت": 11960, "onix": 11961, "اوردند": 11962, "شدین": 11963, "پاکی": 11964, "ترسد": 11965, "خداست": 11966, "leep": 11967, "left": 11968, "بندد": 11969, "میگیریم": 11970, "نميتوني": 11971, "رنگار": 11972, "کلاف": 11973, "شهرزاد": 11974, "فریدا": 11975, "میشینی": 11976, "بشي": 11977, "قلبا": 11978, "پدری": 11979, "میدهند": 11980, "فلج": 11981, "پارادو": 11982, "خطوط": 11983, "خيره": 11984, "They": 11985, "دلتنگش": 11986, "شعرهای": 11987, "انتظارات": 11988, "شکستی": 11989, "چارلی": 11990, "مستند": 11991, "خلقت": 11992, "فاظ": 11993, "گوشیتو": 11994, "پریش": 11995, "شاهرخ": 11996, "مصلح": 11997, "رویاهایی": 11998, "مغزمو": 11999, "برمیگردم": 12000, "بغضم": 12001, "ديگري": 12002, "سينه": 12003, "پذیرد": 12004, "عصبانیم": 12005, "ﺑﺎﯾﺪ": 12006, "میخرم": 12007, "قدیما": 12008, "بنویسیم": 12009, "ابهام": 12010, "نباشي": 12011, "کوچولوم": 12012, "بپرسه": 12013, "بپرسن": 12014, "شوره": 12015, "علاقمه": 12016, "تنهان": 12017, "پايان": 12018, "پيشنهاد": 12019, "اویزون": 12020, "کریستی": 12021, "هشتم": 12022, "ایرانیان": 12023, "مـن": 12024, "نرمال": 12025, "vide": 12026, "ذهنتان": 12027, "نفهمیدی": 12028, "هامونو": 12029, "بگيرم": 12030, "اذان": 12031, "فيودور": 12032, "کاغذی": 12033, "امدنش": 12034, "برادرم": 12035, "ازینکه": 12036, "پیکر": 12037, "𝗂𝗌𝗌": 12038, "نمایشگاه": 12039, "ابراهیم_": 12040, "سهراب_": 12041, "چارلز_": 12042, "wanted": 12043, "ﺩﯾﮕﺮﺍﻥ": 12044, "الهام_ف": 12045, "کاسارس": 12046, "بافقی": 12047, "تضمینی": 12048, "ﺳﺎﻟ": 12049, "بایستد": 12050, "جزیی": 12051, "داستایفسکی": 12052, "برجسته": 12053, "ضرورت": 12054, "كودك": 12055, "كافيه": 12056, "didn": 12057, "حرکتی": 12058, "گشوده": 12059, "انفجار": 12060, "ژوزه": 12061, "نیفتاده": 12062, "نوستالژی": 12063, "نیومده": 12064, "پروفسور": 12065, "امادگی": 12066, "پروردگار": 12067, "Mentonix": 12068, "شمس_لنگرودی": 12069, "^.^": 12070, "مکمل": 12071, "بادبادک": 12072, "الهام_فلاح": 12073, "->": 12074, ":}": 12075, "Ali": 12076, "ES": 12077, "Etern": 12078, "Mind": 12079, "Sp": 12080, "Sen": 12081, "Wor": 12082, "_شافاک": 12083, "big": 12084, "cl": 12085, "ji": 12086, "may": 12087, "smo": 12088, "|•": 12089, "بضی": 12090, "بترسی": 12091, "بجنگم": 12092, "تد": 12093, "تـــ": 12094, "جـ": 12095, "جبر": 12096, "حك": 12097, "حام": 12098, "حاي": 12099, "خفته": 12100, "خمار": 12101, "دشم": 12102, "رمانی": 12103, "سهمی": 12104, "سانی": 12105, "سروی": 12106, "طع": 12107, "عي": 12108, "فهر": 12109, "قبو": 12110, "قمار": 12111, "قاسمی": 12112, "مے": 12113, "مگو": 12114, "مخور": 12115, "مـی": 12116, "ناح": 12117, "نخواه": 12118, "نرفتم": 12119, "نرفتی": 12120, "نتونستی": 12121, "هادی": 12122, "پلو": 12123, "ژیک": 12124, "گــ": 12125, "یزد": 12126, "ﮐﺸ": 12127, "ﮐﻼ": 12128, "ﺍﺣ": 12129, "ﺑﻄ": 12130, "ﺒﯿ": 12131, "ﺒﻮﺩ": 12132, "ﺯﯾ": 12133, "ﺸﻖ": 12134, "ﻫﻨ": 12135, "ﻭﻟﯽ": 12136, "𝖺𝗅𝗅": 12137, "𝗁𝖺𝗍": 12138, "𝗅𝖺𝗒": 12139, "𝗅𝗂𝗍𝗍𝗅𝖾": 12140, "𝗍𝖾": 12141, "میکرده": 12142, "میبخشی": 12143, "میسوزه": 12144, "ایـ": 12145, "اییه": 12146, "انیا": 12147, "ندرت": 12148, "ندهیم": 12149, "بهر": 12150, "بهشان": 12151, "باوری": 12152, "باهاتم": 12153, "رولینگ": 12154, "دربیاری": 12155, "دیار": 12156, "اشکم": 12157, "البا": 12158, "کنسل": 12159, "کنفانی": 12160, "سینمایی": 12161, "استر": 12162, "اهلی": 12163, "شديم": 12164, "ترها": 12165, "بودنشون": 12166, "موه": 12167, "نمیرم": 12168, "نمیخواهم": 12169, "نمیخوره": 12170, "هرزه": 12171, "دهانت": 12172, "چید": 12173, "دلو": 12174, "دلوا": 12175, "ورای": 12176, "رفاق": 12177, "رفيق": 12178, "اتصال": 12179, "زندگیتان": 12180, "سرحال": 12181, "سرزمینی": 12182, "یاسی": 12183, "دمش": 12184, "nes": 12185, "احمقی": 12186, "بعنوان": 12187, "ميري": 12188, "هیچکدام": 12189, "بدجوری": 12190, "بدرود": 12191, "کوفت": 12192, "وقتشه": 12193, "اختم": 12194, "برايت": 12195, "فکرای": 12196, "شوک": 12197, "کلنجار": 12198, "ves": 12199, "نامی": 12200, "ناگزیر": 12201, "حسين": 12202, "تابستانی": 12203, "محرم": 12204, "محكم": 12205, "ختگی": 12206, "سوزند": 12207, "امیلی": 12208, "راهنما": 12209, "دردات": 12210, "گردنش": 12211, "نامت": 12212, "ارومی": 12213, "چندسال": 12214, "جایت": 12215, "زمانش": 12216, "وجودشون": 12217, "نيز": 12218, "کنندگان": 12219, "جوریه": 12220, "صبحا": 12221, "صبحتونو": 12222, "stop": 12223, "همانگونه": 12224, "همونا": 12225, "گلای": 12226, "مسج": 12227, "مسخر": 12228, "تنهاییت": 12229, "دونید": 12230, "روحانی": 12231, "پایم": 12232, "زیرش": 12233, "نوید": 12234, "شرقی": 12235, "their": 12236, "تکمیل": 12237, "برونگرا": 12238, "قبله": 12239, "غیاب": 12240, "چشمانی": 12241, "پاچه": 12242, "گيرد": 12243, "گيري": 12244, "هايشان": 12245, "باورهای": 12246, "میگیم": 12247, "میخوامت": 12248, "مطلوب": 12249, "نميخوام": 12250, "بسا": 12251, "حسیه": 12252, "بشکنی": 12253, "ses": 12254, "پلیس": 12255, "tify": 12256, "پيچ": 12257, "میتپه": 12258, "دروغگو": 12259, "There": 12260, "مخل": 12261, "ندارمت": 12262, "ترینه": 12263, "made": 12264, "lla": 12265, "احساساتش": 12266, "بابات": 12267, "سوالات": 12268, "میلاد": 12269, "کتابو": 12270, "ﺑﺎﺯ": 12271, "ـیـا": 12272, "همونیه": 12273, "صمیمیم": 12274, "خریدی": 12275, "فیلسوف": 12276, "كمك": 12277, "بنای": 12278, "پهلوی": 12279, "گوربه": 12280, "ازدحام": 12281, "kill": 12282, "پاشم": 12283, "بنویسد": 12284, "خوشبختانه": 12285, "بنشینی": 12286, "فرستادن": 12287, "برادران": 12288, "پرسند": 12289, "shit": 12290, "boy": 12291, "زوج": 12292, "مهاجر": 12293, "does": 12294, "ﺷﺪﻩ": 12295, "اومدنت": 12296, "ههه": 12297, "مشهد": 12298, "سورنا": 12299, "نصیب": 12300, "زهره_": 12301, "عاقلانه": 12302, "هورمونی": 12303, "کاترین": 12304, "برقصیم": 12305, "حدیث": 12306, "سارتر": 12307, "potify": 12308, "ﮐﻨﯿﻢ": 12309, "صالح_": 12310, "ﮐﺮﺩﻥ": 12311, "كوچولو": 12312, "معصوم": 12313, "محاله": 12314, "ملاقاتی": 12315, "بنفشه": 12316, "نوشابه": 12317, "نرمی": 12318, "چمدان": 12319, "بدرقه": 12320, "دعای": 12321, "صابر_": 12322, "مورچه": 12323, "معتقدند": 12324, "هاروکی_": 12325, "ﺑﮕﻮ": 12326, "تصوير": 12327, "join": 12328, "میسازه": 12329, "وسواس": 12330, "حسودیم": 12331, "جیمز": 12332, "Art": 12333, "مطلقا": 12334, "استودیو": 12335, "مبهوت": 12336, "لاطم": 12337, "دبیرستان": 12338, "change": 12339, "مشروب": 12340, "legram": 12341, "Proxy": 12342, "پژوهش": 12343, "ﺑﺰﺭﮒ": 12344, "سزاوار": 12345, "پریشانی": 12346, ".!": 12347, "Ab": 12348, "Bu": 12349, "Hou": 12350, "Je": 12351, "Pho": 12352, "Tu": 12353, "Where": 12354, "_عطار": 12355, "cou": 12356, "fil": 12357, "gre": 12358, "hn": 12359, "nl": 12360, "tte": 12361, "wit": 12362, "«‏": 12363, "؛)": 12364, "بستان": 12365, "بنگر": 12366, "بسوز": 12367, "بمیرید": 12368, "تقی": 12369, "ترام": 12370, "جیر": 12371, "جنگه": 12372, "حلو": 12373, "حزن": 12374, "خخ": 12375, "رگم": 12376, "سبد": 12377, "سراب": 12378, "ضمیر": 12379, "عموم": 12380, "غنی": 12381, "قرا": 12382, "قال": 12383, "لکه": 12384, "لاش": 12385, "لایت": 12386, "نخواستم": 12387, "نبرده": 12388, "هض": 12389, "واری": 12390, "وجد": 12391, "يدي": 12392, "چانه": 12393, "چکار": 12394, "چرک": 12395, "چگون": 12396, "❤❤": 12397, "ﯾﻌ": 12398, "ﻣﺘ": 12399, "ﻣﻬ": 12400, "ﻣﻴ": 12401, "ﻨﻪ": 12402, "𝖣𝗈𝗇": 12403, "𝗋𝗅": 12404, "𝗬𝗼𝘂𝗿": 12405, "میپرسی": 12406, "میپرسن": 12407, "ایای": 12408, "ایدی": 12409, "انكه": 12410, "انعکاس": 12411, "انگلستان": 12412, "ارزی": 12413, "راسل": 12414, "نیاورد": 12415, "امبر": 12416, "درهای": 12417, "درماندگی": 12418, "ونا": 12419, "همشو": 12420, "منن": 12421, "منابع": 12422, "بیکل": 12423, "بیستم": 12424, "بیابان": 12425, "بیاورند": 12426, "اشفتگی": 12427, "اینایی": 12428, "اینجایی": 12429, "اینکارو": 12430, "گیتار": 12431, "لیا": 12432, "سینا": 12433, "استوار": 12434, "ترست": 12435, "ترکش": 12436, "شهروند": 12437, "نگرم": 12438, "شیک": 12439, "موس": 12440, "موازی": 12441, "نمیزنه": 12442, "نمیزارم": 12443, "نمیذاره": 12444, "گربم": 12445, "اواره": 12446, "هرجوری": 12447, "هرلحظه": 12448, "هرگونه": 12449, "دهيد": 12450, "اسمونی": 12451, "دلپذیر": 12452, "دلچسب": 12453, "هیتلر": 12454, "شتم": 12455, "ادمم": 12456, "پیاز": 12457, "روزو": 12458, "همینگوی": 12459, "زندگیمه": 12460, "تنهایم": 12461, "ned": 12462, "ner": 12463, "دستشون": 12464, "dif": 12465, "کرانه": 12466, "بدبین": 12467, "کیرم": 12468, "کوروش": 12469, "معني": 12470, "افزار": 12471, "قیچی": 12472, "قیامت": 12473, "اندام": 12474, "شومی": 12475, "پرنس": 12476, "بازسازی": 12477, "meow": 12478, "بلوا": 12479, "تونل": 12480, "کسى": 12481, "کلفت": 12482, "کلماتم": 12483, "نشاند": 12484, "نشوید": 12485, "ناخوش": 12486, "خوبش": 12487, "خوبند": 12488, "دنیامو": 12489, "مهراد": 12490, "یادی": 12491, "خوشگذرونی": 12492, "محاسن": 12493, "بخونین": 12494, "گارت": 12495, "راهش": 12496, "مشك": 12497, "مشخصی": 12498, "yours": 12499, "hea": 12500, "مدلی": 12501, "گویا": 12502, ":)❤": 12503, "نزنه": 12504, "ree": 12505, "بردیم": 12506, "میزارن": 12507, "فراوانی": 12508, "تصوری": 12509, "ارامشه": 12510, "اغشته": 12511, "stru": 12512, "بزرگسالی": 12513, "نیازت": 12514, "گلاس": 12515, "کاریم": 12516, "مساي": 12517, "اخرت": 12518, "مجید": 12519, "نوشتە": 12520, "سردم": 12521, "then": 12522, "موردش": 12523, "انورد": 12524, "گيسو": 12525, "ایتالیا": 12526, "پاییزه": 12527, "گنجه": 12528, "orn": 12529, "فهميد": 12530, "تانگو": 12531, "گشتن": 12532, "چيست": 12533, "اشیانه": 12534, "حقایق": 12535, "صحرا": 12536, "sea": 12537, "اتاقش": 12538, "عجیبیه": 12539, "نورانی": 12540, "خوشبختي": 12541, "پلاس": 12542, "گاندی": 12543, "حركت": 12544, "nothing": 12545, "ناراحتیت": 12546, "تولدش": 12547, "hold": 12548, "hope": 12549, "ذوقی": 12550, "هفتم": 12551, "مشکلاتم": 12552, "بحثی": 12553, "اذیتش": 12554, "پذیرفت": 12555, "امیدواری": 12556, "مقابلش": 12557, "حاضری": 12558, "زادروز": 12559, "خوشحالیت": 12560, "پرتگاه": 12561, "ببندیم": 12562, "عددی": 12563, "كلمات": 12564, "گناهکار": 12565, "مرزهای": 12566, "سید_": 12567, "فرهادی": 12568, "دویدم": 12569, "بفرما": 12570, "سادات": 12571, "بنشینیم": 12572, "وارونه": 12573, "مواظبت": 12574, "دشمنان": 12575, "فورا": 12576, "فورو": 12577, "عادلانه": 12578, "حیاتی": 12579, "زبونت": 12580, "دفاعی": 12581, "مایکل": 12582, "خراش": 12583, "Never": 12584, "تخمی": 12585, "حقیقتی": 12586, "ایرج": 12587, "لغت": 12588, "تسخیر": 12589, "چاپلین": 12590, "ایستادن": 12591, "خصوصا": 12592, "خروار": 12593, "بافد": 12594, "arab": 12595, "چرخید": 12596, "نادان": 12597, "محمد_صالح_": 12598, "بوسیدمش": 12599, "قايلم": 12600, "جسارت": 12601, "مرکبیان": 12602, "بداخلاقی": 12603, "بداخلاق": 12604, "الیف_شافاک": 12605, "چاووشی": 12606, "تدریس": 12607, "طاهر": 12608, "Everything": 12609, "عزيز": 12610, "رویاهام": 12611, "hammad": 12612, "ﺗﻨﻬﺎ": 12613, "مجازات": 12614, "IMDB": 12615, "انتشارات": 12616, "احمدرضا": 12617, "𝗀𝗂𝗋𝗅": 12618, "اسماعیل": 12619, "تعویق": 12620, "وایسادم": 12621, "remember": 12622, "تکنولوژی": 12623, "هشدار": 12624, "مرتکب": 12625, "وصیت": 12626, "زهره_احمدی": 12627, "هاروکی_موراکامی": 12628, "ترامپ": 12629, "ﯾﻌﻨﯽ": 12630, ".💗": 12631, ".💜": 12632, ".🫂": 12633, "Ad": 12634, "Baby": 12635, "Ed": 12636, "Ex": 12637, "Hel": 12638, "Mar": 12639, "OD": 12640, "Pa": 12641, "Sc": 12642, "cu": 12643, "cle": 12644, "ose": 12645, "ping": 12646, "try": 12647, "بف": 12648, "بدار": 12649, "ببار": 12650, "بورت": 12651, "بپیچ": 12652, "تبا": 12653, "تلا": 12654, "تشنگی": 12655, "تسلط": 12656, "تبعید": 12657, "جگر": 12658, "جول": 12659, "جانس": 12660, "حاد": 12661, "حدا": 12662, "خاش": 12663, "دچ": 12664, "ربع": 12665, "زشته": 12666, "زنجی": 12667, "سازم": 12668, "شاي": 12669, "عمد": 12670, "غماتو": 12671, "ـش": 12672, "فـ": 12673, "مگ": 12674, "متیو": 12675, "نخی": 12676, "ناع": 12677, "نخورد": 12678, "هف": 12679, "هاین": 12680, "هدا": 12681, "هاردی": 12682, "واي": 12683, "چنين": 12684, "کي": 12685, "کرات": 12686, "گمن": 12687, "گلوم": 12688, "گشتیم": 12689, "گتسبی": 12690, "یروزی": 12691, "یگانه": 12692, "ﭘﺮ": 12693, "ﮐﺴ": 12694, "ﮐﻤ": 12695, "ﺒﺮ": 12696, "ﺩﻧﯿﺎ": 12697, "ﺯﻥ": 12698, "ﻃﺮ": 12699, "ﻋﺎ": 12700, "ﻛﺮﺩ": 12701, "ﻣﻲ": 12702, "𝖫𝖾": 12703, "𝗂𝗀": 12704, "𝗺𝗲": 12705, "🎥:": 12706, "🤘🏿": 12707, "میگفتن": 12708, "میاریم": 12709, "میشدیم": 12710, "ایوان": 12711, "ایمیل": 12712, "انبار": 12713, "انطور": 12714, "ارباب": 12715, "توض": 12716, "توفان": 12717, "باکره": 12718, "خونت": 12719, "خوانیم": 12720, "نیامد": 12721, "روتون": 12722, "ردش": 12723, "ونن": 12724, "دیگم": 12725, "هماهنگ": 12726, "همگان": 12727, "همسفر": 12728, "منصرف": 12729, "بیفتم": 12730, "..»": 12731, "برچسب": 12732, "دوباتن": 12733, "سیری": 12734, "وقف": 12735, "ترحم": 12736, "شهرام": 12737, "بودنشان": 12738, "تابوت": 12739, "نگویم": 12740, "شینی": 12741, "کردار": 12742, "موجی": 12743, "نمیفهمم": 12744, "گرای": 12745, "گرمه": 12746, "اوحدی": 12747, "هرقدر": 12748, "ابعاد": 12749, "دلبرم": 12750, "دلبستگی": 12751, "rang": 12752, "ورزشی": 12753, "مانیم": 12754, "...:)": 12755, "هیول": 12756, "لاي": 12757, "ادمـ": 12758, "روزان": 12759, "همینم": 12760, "سرزمين": 12761, "نوس": 12762, "نوبر": 12763, "دستگیر": 12764, "dia": 12765, "گفتنی": 12766, "ميشدم": 12767, "ميگذره": 12768, "بدرد": 12769, "ولیعصر": 12770, "وقتتو": 12771, "گذرانی": 12772, "رمون": 12773, "کارامدی": 12774, "اماگو": 12775, "اينا": 12776, "حرفاشو": 12777, "حرفاشون": 12778, "پرپر": 12779, "پرخاش": 12780, "بازیا": 12781, "اگهـ": 12782, "lies": 12783, "لبانت": 12784, "خواهى": 12785, "نشانم": 12786, "ناپل": 12787, "ــن": 12788, "متعجب": 12789, "متصل": 12790, "میخوایم": 12791, "یادشان": 12792, "صداشون": 12793, "محق": 12794, "محکمی": 12795, "لمست": 12796, "بگیرین": 12797, "sor": 12798, "همینکه": 12799, ":)\"": 12800, "قشنگا": 12801, "تلقی": 12802, "دیدنم": 12803, "چقدرم": 12804, "افتن": 12805, "اجاق": 12806, "ارامم": 12807, "دانستی": 12808, "دانشکده": 12809, "بالاس": 12810, "زنها": 12811, "زنانی": 12812, "ster": 12813, "بزرگترين": 12814, "نظاره": 12815, "فردین": 12816, "بيخيال": 12817, "گلایه": 12818, "نگیری": 12819, "مسير": 12820, "مسکوب": 12821, "تعمیر": 12822, "اسیبی": 12823, "توانسته": 12824, "مجبورت": 12825, "انسانهای": 12826, "زدهم": 12827, "اهميت": 12828, "شرق": 12829, "جمشیدی": 12830, "غیره": 12831, "پاهایم": 12832, "خیالات": 12833, "پوسیده": 12834, "ادمیه": 12835, "ادمیان": 12836, "through": 12837, "thought": 12838, "رقصد": 12839, "رفیقت": 12840, "نميدونم": 12841, "كننده": 12842, "شنیدنی": 12843, "شنیدیم": 12844, "غمگینت": 12845, "خالیست": 12846, "جنگلی": 12847, "enough": 12848, "خطای": 12849, "بخشنده": 12850, "جلومو": 12851, "ارزششو": 12852, "انتظاری": 12853, "سکوتت": 12854, "صفحات": 12855, "پنبه": 12856, "اعتمادی": 12857, "مخم": 12858, "نيستي": 12859, "گفتید": 12860, "پلنگ": 12861, "حرارت": 12862, "خلقی": 12863, "وایبش": 12864, "شاهزاده": 12865, "ليو": 12866, "حالیش": 12867, "غرقت": 12868, "ایندم": 12869, "نگرانتم": 12870, "تصورش": 12871, "احتي": 12872, "ked": 12873, "اپه": 12874, "شناسایی": 12875, "میخای": 12876, "تاثی": 12877, "اقایان": 12878, "سانتی": 12879, "وابست": 12880, "نجاتت": 12881, "کشورهای": 12882, "گذرند": 12883, "تماشاکردنش": 12884, "رازهای": 12885, "ﺩﺍﻧﺴﺘ": 12886, "ارنستو": 12887, "شورای": 12888, "بنزین": 12889, "كنارت": 12890, "لباسم": 12891, "کریمی": 12892, "برخوردار": 12893, "پشیمونی": 12894, "جسمم": 12895, "تبریز": 12896, "ﻫﻤﺎﻥ": 12897, "توانستند": 12898, "فروشگاه": 12899, "𝗍𝗁𝗂𝗌": 12900, "برساند": 12901, "babe": 12902, "ـمـیـا": 12903, "پیشتم": 12904, "میشکنه": 12905, "امکانات": 12906, "درختا": 12907, "سوره": 12908, "کیوته": 12909, "خونمون": 12910, "نشینند": 12911, "تخلیه": 12912, "ساراماگو": 12913, "پاتریک": 12914, "مسيوليت": 12915, "بخوانند": 12916, "بپرسیم": 12917, "سندروم": 12918, "كشيده": 12919, "روستا": 12920, "نوازشت": 12921, "mental": 12922, "kimiX": 12923, "کوبید": 12924, "ﺩﺍﺭﺩ": 12925, "میفرستم": 12926, "اکیپ": 12927, "مریم_": 12928, "ميبيني": 12929, "پراکنده": 12930, "ﮔﻔﺖ": 12931, "تدریج": 12932, "نفهمم": 12933, "𝖾𝗒𝖾𝗌": 12934, "مذاک": 12935, "Persian": 12936, "نتونسته": 12937, "اسکرین": 12938, "کـیـمـیـا": 12939, "بافتنی": 12940, "گیسوان": 12941, "Happy": 12942, "تابلوی": 12943, "_در_": 12944, "کامپیوتر": 12945, "اورثینک": 12946, "عبادت": 12947, "رنگارنگ": 12948, "دشمنی": 12949, "سرویس": 12950, "فهرست": 12951, "Photo": 12952, "فوروارد": 12953, "هدايت": 12954, "--": 12955, ".🐻": 12956, ".🐾": 12957, "AR": 12958, "BT": 12959, "EVE": 12960, "GN": 12961, "IT": 12962, "Un": 12963, "What": 12964, "_book": 12965, "ation": 12966, "cal": 12967, "ian": 12968, "phi": 12969, "sm": 12970, "sad": 12971, "swe": 12972, "tag": 12973, "ure": 12974, "xt": 12975, "zi": 12976, "ιи": 12977, "بکنن": 12978, "بتوانید": 12979, "جاز": 12980, "جولی": 12981, "حين": 12982, "حباب": 12983, "خرت": 12984, "رك": 12985, "رشت": 12986, "ساقی": 12987, "طبع": 12988, "طمع": 12989, "كافه": 12990, "متمرکز": 12991, "نح": 12992, "نرسد": 12993, "نكنه": 12994, "نخوانده": 12995, "هتل": 12996, "هجرت": 12997, "وزد": 12998, "پف": 12999, "کاز": 13000, "کبد": 13001, "گانی": 13002, "یکن": 13003, "‏•": 13004, "”،": 13005, "ﯿﻞ": 13006, "ﯿﻦ": 13007, "ﺍﺻ": 13008, "ﺒﺨ": 13009, "ﺗﻔ": 13010, "ﻧﻢ": 13011, "ﻬﺎﻥ": 13012, "𝖶𝖾": 13013, "𝖽𝗈": 13014, "𝗇𝖽": 13015, "💞💞": 13016, "🥲🥲": 13017, "میدو": 13018, "میاید": 13019, "میخندید": 13020, "میبوسمت": 13021, "انح": 13022, "کهای": 13023, "تويی": 13024, "بادام": 13025, "خوراک": 13026, "خويش": 13027, "ادهمی": 13028, "ادمین": 13029, "امنه": 13030, "درگاه": 13031, "همن": 13032, "همچو": 13033, "منشا": 13034, "بیگ": 13035, "بیرو": 13036, "بیندی": 13037, "الما": 13038, "الگو": 13039, "الکس": 13040, "الدین": 13041, "الماس": 13042, "کنان": 13043, "برز": 13044, "دوریم": 13045, "داروی": 13046, "شدگی": 13047, "تاج": 13048, "تاخیر": 13049, "شینه": 13050, "شیوا": 13051, "یک_": 13052, "موت": 13053, "نمیارم": 13054, "نمیکنند": 13055, "نمیبینی": 13056, "نمیتواند": 13057, "نمیخام": 13058, "هرطور": 13059, "هرچي": 13060, "هرانچه": 13061, "زیستی": 13062, "ابدا": 13063, "ابوال": 13064, "ویو": 13065, "وینس": 13066, "ویتامین": 13067, "اشتي": 13068, "شمارش": 13069, "شمردن": 13070, "هیجانی": 13071, "نمایند": 13072, "پیله": 13073, "پیگیری": 13074, "همهـ": 13075, "خیز": 13076, "خیری": 13077, "همینج": 13078, "فرح": 13079, "سرای": 13080, "سرپا": 13081, "نوا": 13082, "یافتم": 13083, "تناقض": 13084, "حالشان": 13085, "تميز": 13086, "دستشویی": 13087, "احی": 13088, "ميخواست": 13089, "داف": 13090, "بوى": 13091, "کوردی": 13092, "ink": 13093, "بخری": 13094, "بخره": 13095, "ولیکن": 13096, "معاصر": 13097, "بزني": 13098, "افرید": 13099, "اختن": 13100, "کارتان": 13101, "کارگردان": 13102, "اندازم": 13103, "کندم": 13104, "بازد": 13105, "line": 13106, "lish": 13107, "met": 13108, "بلای": 13109, "سالته": 13110, "دادنت": 13111, "مونالی": 13112, "ناگوار": 13113, "متعدد": 13114, "عشقو": 13115, "جهنمی": 13116, "میخواند": 13117, "محور": 13118, "عاشقشی": 13119, "قلبمه": 13120, "قلبشون": 13121, "سوگواری": 13122, "گریختن": 13123, "کتابش": 13124, "head": 13125, "درده": 13126, "دردایی": 13127, "واسع": 13128, "going": 13129, "ارمغان": 13130, "گردو": 13131, "بریزید": 13132, "نامزد": 13133, "احسان": 13134, "پیشرو": 13135, "جایگاهی": 13136, "ارزویی": 13137, "خوابتون": 13138, "نزدیم": 13139, "الین": 13140, "خواستگاری": 13141, "ديروز": 13142, "بدهکار": 13143, "دونستی": 13144, "stand": 13145, "نظامی": 13146, "دخترها": 13147, "جانا": 13148, "کوچکم": 13149, "مجدد": 13150, "انهاست": 13151, "پاك": 13152, "بندازه": 13153, "بندازی": 13154, "ارتش": 13155, "نزدیکش": 13156, "کتب": 13157, "ort": 13158, "ارزوم": 13159, "ارزوست": 13160, "جورى": 13161, "نميره": 13162, "شهرها": 13163, "نزدیکتر": 13164, "sen": 13165, "حیفه": 13166, "فشاری": 13167, "فشرده": 13168, "فاصل": 13169, "هاشان": 13170, "tired": 13171, "جلس": 13172, "پيام": 13173, "درونمان": 13174, "خانوادت": 13175, "کمیاب": 13176, "ذهنتو": 13177, "میدونید": 13178, "کابین": 13179, "جنب": 13180, "خونریزی": 13181, "مستقی": 13182, "تماشات": 13183, "فکرو": 13184, "بوسیدی": 13185, "بشنوید": 13186, "چسبو": 13187, "ــــنا": 13188, "ــــــ": 13189, "کشیدنم": 13190, "مطمينا": 13191, "دکتر_": 13192, "ﺭﺍﺑﻄ": 13193, "برقصی": 13194, "تاثر": 13195, "صادقی": 13196, "مختص": 13197, "خشمی": 13198, "بخونن": 13199, "يلدا": 13200, "جدیدا": 13201, "زورم": 13202, "حفظم": 13203, "داغونم": 13204, "گناهان": 13205, "same": 13206, "هشتگ": 13207, "برداشتن": 13208, "تاثیرگذار": 13209, "ساعدی": 13210, "جستار": 13211, "وضعیتی": 13212, "نفهمیده": 13213, "صاحبخانه": 13214, "وحشتناکی": 13215, "عاطفیت": 13216, "نگذر": 13217, "مسیح": 13218, "سایــــنا": 13219, "يعنى": 13220, "عبارتی": 13221, "البرت": 13222, "درخشی": 13223, "مضح": 13224, "ifar": 13225, "Mohammad": 13226, "تسلیت": 13227, "محتاجم": 13228, "برقصید": 13229, "لعنتي": 13230, "معاشقه": 13231, "قبرستان": 13232, "قربونت": 13233, "ویرانه": 13234, "حسودم": 13235, "محمدرضا_": 13236, "حسین_پناهی": 13237, "𝖻𝖾𝖺𝗎𝗍": 13238, "احوالات": 13239, "😂😂😂": 13240, "بمونید": 13241, "year": 13242, "ﺳﺎﻝ": 13243, "نگفتیم": 13244, "تابید": 13245, "المللی": 13246, "چمنا": 13247, "ﮔﻔﺘﻪ": 13248, "فندک": 13249, "اعتنایی": 13250, "________": 13251, "قرمه": 13252, "هراسی": 13253, "غلیظ": 13254, "Sometimes": 13255, "میلرزه": 13256, "ظلمت": 13257, "پاستیل": 13258, "واجب": 13259, "تبلیغات": 13260, "rise": 13261, "ليوناردو": 13262, "کاکتوس": 13263, "طاقچه": 13264, "كيفيت": 13265, "فهیم_عطار": 13266, "THE": 13267, "𝖿𝗎𝗅": 13268, "غیرممکن": 13269, "کلانتر": 13270, ":')": 13271, "دوپامین": 13272, "مصلحت": 13273, "سهراب_سپهری": 13274, "حايریان": 13275, "صابر_ابر": 13276, "witter": 13277, "مشكلات": 13278, "arabifar": 13279, "حداکث": 13280, "ﺭﺍﺑﻄﻪ": 13281, "((:": 13282, ":”": 13283, ":>>>": 13284, "=|": 13285, ">.": 13286, "Amirali": 13287, "Met": 13288, "Ni": 13289, "Sh": 13290, "Son": 13291, "_ع": 13292, "_عشق": 13293, "ion": 13294, "land": 13295, "sy": 13296, "sleep": 13297, "wat": 13298, "اکه": 13299, "بچی": 13300, "بتونیم": 13301, "تپی": 13302, "تخصص": 13303, "جاشو": 13304, "حقه": 13305, "حاک": 13306, "حاوی": 13307, "خطور": 13308, "دکت": 13309, "ذاتا": 13310, "رهایش": 13311, "ســ": 13312, "سکان": 13313, "سنتی": 13314, "شند": 13315, "شکنند": 13316, "صن": 13317, "طفل": 13318, "ـہ": 13319, "قم": 13320, "قولی": 13321, "كاری": 13322, "كمال": 13323, "لك": 13324, "لفظ": 13325, "مچ": 13326, "مجه": 13327, "مترس": 13328, "مصدق": 13329, "نفی": 13330, "نرسی": 13331, "نعم": 13332, "نخواستن": 13333, "پند": 13334, "پلا": 13335, "چيك": 13336, "کاد": 13337, "ڪه": 13338, "گای": 13339, "گرین": 13340, "یمی": 13341, "ﮔﺎ": 13342, "ﯾﺶ": 13343, "ﺁﻣﺪ": 13344, "ﺍﻳﻦ": 13345, "ﺑﺸ": 13346, "ﺗﻌ": 13347, "ﺗﻐ": 13348, "ﺗﻤﺎﻡ": 13349, "ﻋﺘ": 13350, "ﻋﺸﻖ": 13351, "ﻛﻨ": 13352, "ﻠﯽ": 13353, "ﻣﺤ": 13354, "𝐡𝐞": 13355, "𝖫𝗈𝗏𝖾": 13356, "𝖮𝗁": 13357, "𝖽𝗈𝗇": 13358, "𝗀𝗈": 13359, "𝗍𝗂": 13360, "میدر": 13361, "میرین": 13362, "میدارد": 13363, "میدانند": 13364, "میمیرن": 13365, "میترسیدم": 13366, "میمانم": 13367, "ایشون": 13368, "ایندی": 13369, "انانی": 13370, "اندن": 13371, "ستوی": 13372, "که‍": 13373, "ندانم": 13374, "توافق": 13375, "راث": 13376, "راهمان": 13377, "راديو": 13378, "باباش": 13379, "بافم": 13380, "باهمیم": 13381, "خونشون": 13382, "امثال": 13383, "دربار": 13384, "ونش": 13385, "دیقه": 13386, "هماهنگی": 13387, "ریچل": 13388, "ریسمان": 13389, "مناظ": 13390, "بیداد": 13391, "بیابی": 13392, "بیاورید": 13393, "اشخاص": 13394, "الات": 13395, "کنيد": 13396, "برتول": 13397, "دوسال": 13398, "فتاد": 13399, "استارت": 13400, "اهالی": 13401, "تري": 13402, "تات": 13403, "نگرفتم": 13404, "شیج": 13405, "موها": 13406, "مویی": 13407, "موهايم": 13408, "نمیای": 13409, "نمیبینم": 13410, "نمیزنی": 13411, "گراند": 13412, "هرسال": 13413, "ویدی": 13414, "چیم": 13415, "چیده": 13416, "اسه": 13417, "اسپر": 13418, "دلدار": 13419, "دلانه": 13420, "دلسوزی": 13421, "ani": 13422, "هیدن": 13423, "ادمى": 13424, "پیمان": 13425, "روزمو": 13426, "رفاه": 13427, "خیزد": 13428, "سرتا": 13429, "سرمان": 13430, "سرمون": 13431, "سرجاش": 13432, "نوروز": 13433, "نومید": 13434, "حالشو": 13435, "اونـ": 13436, "گفتنش": 13437, "ميخند": 13438, "ميرن": 13439, "کسیم": 13440, "گونی": 13441, "گوهر": 13442, "razy": 13443, "mories": 13444, "بوي": 13445, "کیفی": 13446, "قدرتو": 13447, "قدرتی": 13448, "کوشش": 13449, "شنود": 13450, "بخریم": 13451, "افاق": 13452, "افکاری": 13453, "گذشتی": 13454, "اخری": 13455, "کارگاه": 13456, "کارنگی": 13457, "اينو": 13458, "شوى": 13459, "شوي": 13460, "تونز": 13461, "کمرت": 13462, "نابی": 13463, "ــد": 13464, "ise": 13465, "مربی": 13466, "اصغر": 13467, "luv": 13468, "کنارشان": 13469, "خوشتون": 13470, "loser": 13471, "محمدی": 13472, "بخوابد": 13473, "تنهاترین": 13474, "سوا": 13475, "راهنمایی": 13476, "واسشون": 13477, "گوشام": 13478, "مدير": 13479, "گردانی": 13480, "گرداند": 13481, "نامردی": 13482, "بینایی": 13483, "مرام": 13484, "خوابمون": 13485, "نزاری": 13486, "خواستید": 13487, "اکانت": 13488, "دين": 13489, "اينقدر": 13490, "جامدادی": 13491, "blue": 13492, "بيت": 13493, "مقداری": 13494, "اموال": 13495, "دوستتان": 13496, "تحم": 13497, "ممكنه": 13498, "كردى": 13499, "مجرد": 13500, "میتوانیم": 13501, "پایداری": 13502, "ایمنی": 13503, "زمست": 13504, "سردرگ": 13505, "موردعلاقه": 13506, "مادران": 13507, "خوشحاله": 13508, "ترسن": 13509, "بیهودگی": 13510, "سختي": 13511, "پسران": 13512, "مطابق": 13513, "کلیدر": 13514, "نميدون": 13515, "رنگت": 13516, "رنجت": 13517, "شهرهای": 13518, "شهربازی": 13519, "میشین": 13520, "ساختمون": 13521, "set": 13522, "been": 13523, "خندش": 13524, "خندیم": 13525, "فلور": 13526, "پرسیدی": 13527, "هیچیو": 13528, "مودب": 13529, "....!": 13530, "قشنگیات": 13531, "اتوم": 13532, "رخنه": 13533, "شادترین": 13534, "ذهنمان": 13535, "بدنش": 13536, "پل_": 13537, "کافر": 13538, "سیاهه": 13539, "oman": 13540, "وایسا": 13541, "وایساد": 13542, "متنفری": 13543, "لایو": 13544, "بفرستین": 13545, "بلدت": 13546, "اشوب": 13547, "خاصه": 13548, "خوندنش": 13549, "وفایی": 13550, "دیوارها": 13551, "معنایش": 13552, "asy": 13553, "شناسیم": 13554, "کتابام": 13555, "ماهیت": 13556, "یوگا": 13557, "یوشیج": 13558, "حاضره": 13559, "کوره": 13560, "فضانورد": 13561, "چایکوفسکی": 13562, "انگشتت": 13563, "لمسش": 13564, "sion": 13565, "يل_": 13566, "ببرن": 13567, "لرزد": 13568, "خالى": 13569, "should": 13570, "terna": 13571, "تنهاش": 13572, "گورستان": 13573, "میفهمیدی": 13574, "ساکتی": 13575, "پشیمانی": 13576, "بکشمت": 13577, "دانستند": 13578, "ﻫﻤﻴ": 13579, "نصفش": 13580, "عادل": 13581, "سایز": 13582, "tions": 13583, "هیجانات": 13584, "ویسات": 13585, "خندیدنت": 13586, "تیرگی": 13587, "عموما": 13588, "بیوفتی": 13589, "ump": 13590, "سیاستمدار": 13591, "واکنشی": 13592, "سیلور": 13593, "چنگال": 13594, "اطرافیانت": 13595, "each": 13596, "مینداز": 13597, "محمود_درویش": 13598, "گستره": 13599, "درحالیکه": 13600, "بگردیم": 13601, "خستگي": 13602, "رضا_براهنی": 13603, "اخیرا": 13604, "نترسیدن": 13605, "others": 13606, "غوطه": 13607, "كاملا": 13608, "برونته": 13609, "_به_": 13610, "سپردم": 13611, "چاوشی": 13612, "غلامحسین": 13613, "انا_گاوالدا": 13614, "سرگردون": 13615, "زاییده": 13616, "همکاران": 13617, "قدردانی": 13618, "جابجا": 13619, "break": 13620, "моя": 13621, "فاضلاب": 13622, "سروش_": 13623, "وضوح": 13624, "مغرورم": 13625, "مکرر": 13626, "دوییدن": 13627, "amaz": 13628, "موسيقي": 13629, "believe": 13630, "پارادوکس": 13631, "ارزیابی": 13632, "diffe": 13633, "هاینریش": 13634, "احتياج": 13635, "نحوی": 13636, "صنعت": 13637, ".🍭": 13638, ".💋": 13639, "AA": 13640, "Ag": 13641, "Game": 13642, "LO": 13643, "Ste": 13644, "Sea": 13645, "Spotify": 13646, "_می": 13647, "_بی": 13648, "_یالوم": 13649, "_بوک": 13650, "cia": 13651, "gle": 13652, "his": 13653, "mar": 13654, "pen": 13655, "put": 13656, "sing": 13657, "sur": 13658, "ski": 13659, "tut": 13660, "Мо": 13661, "اء": 13662, "بپوشی": 13663, "بنظرت": 13664, "جده": 13665, "خسیس": 13666, "سلا": 13667, "سبق": 13668, "سير": 13669, "شستن": 13670, "صدم": 13671, "ضه": 13672, "ظرافت": 13673, "عارف": 13674, "عراقی": 13675, "فتو": 13676, "فلو": 13677, "قندی": 13678, "قمیشی": 13679, "قبیل": 13680, "كله": 13681, "لول": 13682, "لباش": 13683, "ماز": 13684, "مشیری": 13685, "نك": 13686, "نرد": 13687, "نشوند": 13688, "نپرسید": 13689, "هزارم": 13690, "وکیل": 13691, "ي_": 13692, "پشي": 13693, "چفت": 13694, "چقدم": 13695, "چخوف": 13696, "کتی": 13697, "کاج": 13698, "گاره": 13699, "•|": 13700, "☀🌻": 13701, "✨.": 13702, "ﭘﻮ": 13703, "ﭼﻮﻥ": 13704, "ﮐﺜ": 13705, "ﮐﺲ": 13706, "ﮐﻢ": 13707, "ﺁﺩ": 13708, "ﺍﻟ": 13709, "ﺍﻣ": 13710, "ﺗﺤ": 13711, "ﺗﻤ": 13712, "ﺨﺎﺏ": 13713, "ﺩﻩ": 13714, "ﺩﺳﺘ": 13715, "ﻋﺪ": 13716, "ﻴﺎ": 13717, "𝗁𝗍": 13718, "𝗂𝖿𝗎𝗅": 13719, "𝗆𝗂𝗇𝖾": 13720, "𝘆𝗼𝘂": 13721, "💜✨": 13722, "🙏🏻": 13723, "میکو": 13724, "میبین": 13725, "میباره": 13726, "میویی": 13727, "میخواهند": 13728, "میکشیدم": 13729, "میدونیم": 13730, "میچسبه": 13731, "ایف": 13732, "ایستم": 13733, "انص": 13734, "ارغ": 13735, "ازاری": 13736, "بهشته": 13737, "توعم": 13738, "باتی": 13739, "باسی": 13740, "باستانی": 13741, "خونگی": 13742, "نیای": 13743, "نینا": 13744, "نیافته": 13745, "درصدی": 13746, "دینی": 13747, "من_": 13748, "مناک": 13749, "بیـ": 13750, "بیکاری": 13751, "بیاییم": 13752, "اشم": 13753, "اشیا": 13754, "الگوی": 13755, "برگی": 13756, "هاو": 13757, "گیس": 13758, "سیگن": 13759, "اهر": 13760, "شدى": 13761, "وقتم": 13762, "ترکه": 13763, "ترمز": 13764, "یکسال": 13765, "یکسری": 13766, "ماچ": 13767, "ماتیک": 13768, "نمیش": 13769, "نمیگی": 13770, "نمیدن": 13771, "نمیاره": 13772, "نمیترسم": 13773, "نمیومد": 13774, "گرایش": 13775, "یه‍": 13776, "اوتم": 13777, "زیدن": 13778, "چیشده": 13779, "اسلام": 13780, "دلا": 13781, "اشتن": 13782, "اییده": 13783, "هیل": 13784, "هیولا": 13785, "همینی": 13786, "فري": 13787, "فرخنده": 13788, "سرگی": 13789, "سرپرست": 13790, "نوبتی": 13791, "یابیم": 13792, "دنباله": 13793, "تمندی": 13794, "اونام": 13795, "رهبری": 13796, "کرمان": 13797, "هستش": 13798, "ميل": 13799, "ميو": 13800, "ميزد": 13801, "اقامت": 13802, "most": 13803, "بوکف": 13804, "کیـ": 13805, "شنویم": 13806, "شنيدن": 13807, "ina": 13808, "بزاریم": 13809, "افغان": 13810, "اخرا": 13811, "کارمون": 13812, "کاربرد": 13813, "کارخانه": 13814, "فکرتم": 13815, "حرفها": 13816, "حرفاتون": 13817, "بازمی": 13818, "بازگو": 13819, "جابه": 13820, "شبنم": 13821, "خیلیم": 13822, "جواد": 13823, "سالمی": 13824, "فین": 13825, "فیروز": 13826, "دادگاه": 13827, "رویز": 13828, "ناتو": 13829, "ناخون": 13830, "متحول": 13831, "لواشک": 13832, "مرزی": 13833, "مرموز": 13834, "میخواین": 13835, "مردا": 13836, "نجدی": 13837, "نجاتش": 13838, "lonel": 13839, "محاس": 13840, "شانسی": 13841, "سهام": 13842, "قلبمون": 13843, "بیشعور": 13844, "سونی": 13845, "سوادی": 13846, "امینی": 13847, "گریم": 13848, "گریستم": 13849, "چشماشو": 13850, "هوامو": 13851, "نامهر": 13852, "ارومش": 13853, "اروپا": 13854, "چندی": 13855, "قشنگو": 13856, "تلقین": 13857, "واقعه": 13858, "چراغی": 13859, "بینتون": 13860, "غمم": 13861, "ارزان": 13862, "ارزویم": 13863, "نيستی": 13864, "نفهمه": 13865, "برداشتی": 13866, "بيني": 13867, "بخندونمت": 13868, "رانده": 13869, "نگیریم": 13870, "جیگر": 13871, "رسيده": 13872, "دخترای": 13873, "ببینین": 13874, "عوارض": 13875, "جريان": 13876, "پایت": 13877, "arms": 13878, "دروازه": 13879, "ساعتها": 13880, "لبخندای": 13881, "بالاي": 13882, "بالاترین": 13883, "بقا": 13884, "پاهایت": 13885, "گيرم": 13886, "عکسشو": 13887, "lear": 13888, "پودر": 13889, "پوشم": 13890, "پوشان": 13891, "دلتان": 13892, "بندر": 13893, "فروتن": 13894, "طرفم": 13895, "علاج": 13896, "دریافته": 13897, "toi": 13898, "told": 13899, "حقم": 13900, "تقاض": 13901, "ذهنمی": 13902, "میداند": 13903, "بکشن": 13904, "جوابمو": 13905, "بشکند": 13906, "بشوره": 13907, "قلقل": 13908, "بیدارت": 13909, "مارگارت": 13910, "کاناپه": 13911, "خطایی": 13912, "میشنون": 13913, "مامور": 13914, "جلوي": 13915, "بورس": 13916, "دیدین": 13917, "موزیکی": 13918, "دانمار": 13919, "خوشبختم": 13920, "تولستوی": 13921, "دانشگاهی": 13922, "جنایی": 13923, "چارچوب": 13924, "پردازم": 13925, "موزیکای": 13926, "dead": 13927, "دعوای": 13928, "قوطی": 13929, "زلال": 13930, "ric": 13931, "مغزتون": 13932, "الهه": 13933, "خرگوش": 13934, "وفق": 13935, "برمیگردی": 13936, "ماشي": 13937, "جونت": 13938, "هدفون": 13939, "اوریانا_": 13940, "ـــه": 13941, "حضوری": 13942, "چيزها": 13943, "کشیدنت": 13944, "نازل": 13945, "میگذارد": 13946, "میگذرن": 13947, "غرورت": 13948, "نباشین": 13949, "چجوریه": 13950, "ady": 13951, "بفهمند": 13952, "انگیزترین": 13953, "صمیمانه": 13954, "amn": 13955, "لرزان": 13956, "ween": 13957, "دایر": 13958, "اندیشم": 13959, "ربای": 13960, "ساکتم": 13961, "ساباتو": 13962, "معتبر": 13963, "معتادم": 13964, "مهربونت": 13965, "بیخیالش": 13966, "اااا": 13967, "عجي": 13968, "name": 13969, "توانستیم": 13970, "گاها": 13971, "هنرمندی": 13972, "عادي": 13973, "عادیه": 13974, "چطوریه": 13975, "مدتیه": 13976, "رادیو_": 13977, "کشتم": 13978, "گنجد": 13979, "ببوسد": 13980, "البرکامو": 13981, "ﺷﺪﻡ": 13982, "شمعدانی": 13983, "كشيد": 13984, "چسبید": 13985, "something": 13986, "نگفتن": 13987, "هوشیاری": 13988, "ﺍﻭﻝ": 13989, "بلیط": 13990, "حسین_وحدانی": 13991, "بنوش": 13992, "ﮐﺮﺩﻡ": 13993, "جنسیت": 13994, "الن_دو": 13995, "بخونیدش": 13996, "دزدیده": 13997, "داوطلب": 13998, "دنياي": 13999, "سکوتم": 14000, "تــو": 14001, "نگریست": 14002, "نشنیدم": 14003, "ﻭﻗﺖ": 14004, "ميبينم": 14005, "ميزني": 14006, "افرینش": 14007, "_وفی": 14008, "میسازم": 14009, "ﻫﻤﯿﻦ": 14010, "sunny": 14011, "پویا_": 14012, "بلرزد": 14013, "مقصود": 14014, "photo": 14015, "قلیان": 14016, "کشوری": 14017, "سنجاق": 14018, "نتونستن": 14019, "دانشجویان": 14020, "dreams": 14021, "نسیمی": 14022, "انگيز": 14023, "birth": 14024, "بسپارد": 14025, "ﺩﺍﺷﺘﻦ": 14026, "_Darabifar": 14027, "ميخواي": 14028, "غایب": 14029, "Maybe": 14030, "ایلهان": 14031, "فاتحه": 14032, "ممتد": 14033, "𝗇𝗈𝗍": 14034, "ﺍﻧﺘﺨﺎﺏ": 14035, "Amelie": 14036, "Eternal": 14037, "البالو": 14038, "چگونگی": 14039, "تباهی": 14040, "ﮐﺴﯽ": 14041, "توضيح": 14042, "محققان": 14043, "وینسنت": 14044, "جستارهایی": 14045, "اسپرسو": 14046, "سردرگمی": 14047, "ternative": 14048, "بوکفسکی": 14049, "\"!": 14050, "Aab": 14051, "BE": 14052, "Cau": 14053, "Gz": 14054, "Lit": 14055, "ME": 14056, "Mid": 14057, "Our": 14058, "Otag": 14059, "Pe": 14060, "Tra": 14061, "Who": 14062, "Wall": 14063, "act": 14064, "bby": 14065, "car": 14066, "ction": 14067, "ear": 14068, "fo": 14069, "far": 14070, "fic": 14071, "io": 14072, "ick": 14073, "ial": 14074, "ky": 14075, "sound": 14076, "war": 14077, "wrong": 14078, "»!": 14079, "лю": 14080, "بشوند": 14081, "بخواهند": 14082, "بپرم": 14083, "تپل": 14084, "ثت": 14085, "ثمر": 14086, "حلی": 14087, "حوله": 14088, "دالی": 14089, "دکان": 14090, "دبستان": 14091, "ذا": 14092, "زاب": 14093, "زاره": 14094, "زغال": 14095, "سست": 14096, "سگی": 14097, "سازش": 14098, "شرافت": 14099, "صمد": 14100, "ضایی": 14101, "عام": 14102, "عقد": 14103, "غول": 14104, "غمش": 14105, "غارت": 14106, "ـس": 14107, "فيل": 14108, "قار": 14109, "موقتی": 14110, "مشو": 14111, "مدنی": 14112, "مکاف": 14113, "مایید": 14114, "نہ": 14115, "نرفتن": 14116, "ننوشته": 14117, "نخند": 14118, "نباشند": 14119, "نخواسته": 14120, "نكنيد": 14121, "هعی": 14122, "هالی": 14123, "هاله": 14124, "واره": 14125, "ومه": 14126, "والی": 14127, "وودی": 14128, "يید": 14129, "يین": 14130, "پد": 14131, "پرویز": 14132, "چکی": 14133, "ژور": 14134, "کورت": 14135, "کسالت": 14136, "گمت": 14137, "یـه": 14138, "‏\"": 14139, "✨✨": 14140, "ﮐﻮ": 14141, "ﺧﺪﺍ": 14142, "ﻏﺮ": 14143, "ﻓﻬﻤ": 14144, "ﻗﺎ": 14145, "ﻗﻠ": 14146, "ﻫﻨﺪ": 14147, "𝐚𝐧": 14148, "𝐯𝐞": 14149, "𝖢𝗈𝗆𝖾": 14150, "𝖬𝖾": 14151, "𝖼𝗄": 14152, "𝗅𝗈𝗈𝗄": 14153, "𝗋𝖺": 14154, "𝗌𝖾𝖾": 14155, "𝗐𝖺𝗒": 14156, "𝗶𝘀": 14157, "𝗼𝘃𝗲": 14158, "🍃🍂": 14159, "💔:)": 14160, "😭😭": 14161, "🤘🏽": 14162, "مینو": 14163, "میداری": 14164, "میداره": 14165, "میرفتی": 14166, "میگرفتم": 14167, "میرسید": 14168, "میبیند": 14169, "میگرده": 14170, "ایات": 14171, "انـ": 14172, "انژ": 14173, "ازارت": 14174, "ازدهم": 14175, "بهداشت": 14176, "توم": 14177, "تواین": 14178, "توده": 14179, "توکل": 14180, "رابی": 14181, "خوي": 14182, "خونو": 14183, "نیاری": 14184, "نیارم": 14185, "نیامدی": 14186, "ادراک": 14187, "املت": 14188, "دربر": 14189, "درها": 14190, "ونگ": 14191, "همونه": 14192, "همديگه": 14193, "ریزند": 14194, "بیقرار": 14195, "بیارن": 14196, "الویت": 14197, "کنت": 14198, "کناره": 14199, "برمت": 14200, "برکت": 14201, "برسن": 14202, "برانگیز": 14203, "اینـ": 14204, "دوغ": 14205, "تیدی": 14206, "لیسانس": 14207, "استدل": 14208, "اهه": 14209, "ترکو": 14210, "موهاي": 14211, "موهاشون": 14212, "موبای": 14213, "نمیشدم": 14214, "نمیرن": 14215, "نمیکشه": 14216, "گري": 14217, "هرچقد": 14218, "هرتز": 14219, "دهنم": 14220, "ویدي": 14221, "چیدن": 14222, "دلشو": 14223, "براید": 14224, "برایان": 14225, "پیروی": 14226, "پیگیر": 14227, "پیداست": 14228, "پیچو": 14229, "روزهاي": 14230, "فرضی": 14231, "فرستم": 14232, "سرط": 14233, "سرگذشت": 14234, "سرنوشتم": 14235, "نوسان": 14236, "یاتو": 14237, "نیستین": 14238, "رهگذر": 14239, "احیا": 14240, "گفتي": 14241, "کرمی": 14242,
[...]
